{
  "version": "1.0",
  "truncation": null,
  "padding": null,
  "added_tokens": [
    {
      "id": 0,
      "content": "<pad>",
      "single_word": false,
      "lstrip": false,
      "rstrip": false,
      "normalized": false,
      "special": true
    },
    {
      "id": 1,
      "content": "<|endoftext|>",
      "single_word": false,
      "lstrip": false,
      "rstrip": false,
      "normalized": false,
      "special": true
    }
  ],
  "normalizer": null,
  "pre_tokenizer": {
    "type": "ByteLevel",
    "add_prefix_space": false,
    "trim_offsets": true,
    "use_regex": true
  },
  "post_processor": {
    "type": "ByteLevel",
    "add_prefix_space": true,
    "trim_offsets": false,
    "use_regex": true
  },
  "decoder": {
    "type": "ByteLevel",
    "add_prefix_space": true,
    "trim_offsets": true,
    "use_regex": true
  },
  "model": {
    "type": "BPE",
    "dropout": null,
    "unk_token": null,
    "continuing_subword_prefix": null,
    "end_of_word_suffix": null,
    "fuse_unk": false,
    "vocab": {
      "<pad>": 0,
      "<|endoftext|>": 1,
      "!": 2,
      "\"": 3,
      "#": 4,
      "$": 5,
      "%": 6,
      "&": 7,
      "'": 8,
      "(": 9,
      ")": 10,
      "*": 11,
      "+": 12,
      ",": 13,
      "-": 14,
      ".": 15,
      "/": 16,
      "0": 17,
      "1": 18,
      "2": 19,
      "3": 20,
      "4": 21,
      "5": 22,
      "6": 23,
      "7": 24,
      "8": 25,
      "9": 26,
      ":": 27,
      ";": 28,
      "<": 29,
      "=": 30,
      ">": 31,
      "?": 32,
      "@": 33,
      "[": 34,
      "\\": 35,
      "]": 36,
      "^": 37,
      "_": 38,
      "`": 39,
      "a": 40,
      "b": 41,
      "c": 42,
      "d": 43,
      "e": 44,
      "f": 45,
      "g": 46,
      "h": 47,
      "i": 48,
      "j": 49,
      "k": 50,
      "l": 51,
      "m": 52,
      "n": 53,
      "o": 54,
      "p": 55,
      "q": 56,
      "r": 57,
      "s": 58,
      "t": 59,
      "u": 60,
      "v": 61,
      "w": 62,
      "x": 63,
      "y": 64,
      "z": 65,
      "{": 66,
      "|": 67,
      "}": 68,
      "~": 69,
      "¡": 70,
      "¢": 71,
      "£": 72,
      "¤": 73,
      "¥": 74,
      "¦": 75,
      "§": 76,
      "¨": 77,
      "©": 78,
      "ª": 79,
      "«": 80,
      "¬": 81,
      "®": 82,
      "¯": 83,
      "°": 84,
      "±": 85,
      "²": 86,
      "³": 87,
      "´": 88,
      "µ": 89,
      "¶": 90,
      "·": 91,
      "¸": 92,
      "¹": 93,
      "º": 94,
      "»": 95,
      "¼": 96,
      "½": 97,
      "¾": 98,
      "¿": 99,
      "Â": 100,
      "Ã": 101,
      "Ä": 102,
      "Å": 103,
      "Æ": 104,
      "Ç": 105,
      "É": 106,
      "Ë": 107,
      "Î": 108,
      "Ï": 109,
      "Ð": 110,
      "Ñ": 111,
      "×": 112,
      "Û": 113,
      "à": 114,
      "á": 115,
      "â": 116,
      "ã": 117,
      "ä": 118,
      "å": 119,
      "æ": 120,
      "ç": 121,
      "è": 122,
      "é": 123,
      "ê": 124,
      "ë": 125,
      "ì": 126,
      "í": 127,
      "î": 128,
      "ï": 129,
      "ð": 130,
      "Ġ": 131,
      "Ģ": 132,
      "ģ": 133,
      "Ĥ": 134,
      "ĥ": 135,
      "Ħ": 136,
      "ħ": 137,
      "Ĩ": 138,
      "ĩ": 139,
      "Ī": 140,
      "ī": 141,
      "Ĭ": 142,
      "ĭ": 143,
      "Į": 144,
      "į": 145,
      "İ": 146,
      "ı": 147,
      "Ĳ": 148,
      "ĳ": 149,
      "Ĵ": 150,
      "ĵ": 151,
      "Ķ": 152,
      "ķ": 153,
      "ĸ": 154,
      "Ĺ": 155,
      "ĺ": 156,
      "Ļ": 157,
      "ļ": 158,
      "Ľ": 159,
      "ľ": 160,
      "Ŀ": 161,
      "ŀ": 162,
      "Ł": 163,
      "ł": 164,
      "Ń": 165,
      "ä¸": 166,
      "ãĢ": 167,
      "çļ": 168,
      "æľ": 169,
      "çļĦ": 170,
      "åı": 171,
      "åħ": 172,
      "äº": 173,
      "çĶ": 174,
      "å¤": 175,
      "å®": 176,
      "ä»": 177,
      "åĪ": 178,
      "ä½": 179,
      "æĸ": 180,
      "ãĢĤ": 181,
      "åĬ": 182,
      "åĲ": 183,
      "åľ": 184,
      "è®": 185,
      "ãĢģ": 186,
      "æĿ": 187,
      "åº": 188,
      "åį": 189,
      "ç»": 190,
      "å·": 191,
      "è¿": 192,
      "åĮ": 193,
      "åĽ": 194,
      "æĺ": 195,
      "è¯": 196,
      "æĪ": 197,
      "éĩ": 198,
      "æľī": 199,
      "éĢ": 200,
      "æĹ": 201,
      "å°": 202,
      "ä¸Ģ": 203,
      "å¸": 204,
      "æ°": 205,
      "ä¹": 206,
      "çĶ¨": 207,
      "æµ": 208,
      "å¼": 209,
      "çī": 210,
      "åŃ": 211,
      "å¹": 212,
      "æī": 213,
      "æł": 214,
      "ä¼": 215,
      "éĻ": 216,
      "åİ": 217,
      "è¡": 218,
      "åĵ": 219,
      "å±": 220,
      "è½": 221,
      "æķ": 222,
      "çĽ": 223,
      "çº": 224,
      "æĬ": 225,
      "ç½": 226,
      "ä¸Ń": 227,
      "åĨ": 228,
      "èĥ": 229,
      "å·¥": 230,
      "ç§": 231,
      "åľ¨": 232,
      "åħ¬": 233,
      "åĩ": 234,
      "æľº": 235,
      "çİ": 236,
      "éĺ": 237,
      "æĺ¯": 238,
      "è§": 239,
      "ç®": 240,
      "æİ": 241,
      "æ±": 242,
      "æĢ": 243,
      "å¯": 244,
      "æ³": 245,
      "å½": 246,
      "è´": 247,
      "éĹ": 248,
      "åĵģ": 249,
      "å¤§": 250,
      "é¡": 251,
      "ä¸į": 252,
      "æŀ": 253,
      "20": 254,
      "çĶµ": 255,
      "ä¿": 256,
      "èĢ": 257,
      "éĿ": 258,
      "åı¸": 259,
      "ä¸Ĭ": 260,
      "å¾": 261,
      "æ¸": 262,
      "åĴ": 263,
      "åħ¬åı¸": 264,
      "è®¾": 265,
      "éĶ": 266,
      "çŃ": 267,
      "çĲ": 268,
      "äº§": 269,
      "æ²": 270,
      "çĶŁ": 271,
      "å¿": 272,
      "èĥ½": 273,
      "æ°´": 274,
      "ç«": 275,
      "åĴĮ": 276,
      "åī": 277,
      "å¥": 278,
      "é«": 279,
      "ä»¥": 280,
      "æĶ": 281,
      "ä¸ļ": 282,
      "èµ": 283,
      "è¾": 284,
      "åı¯": 285,
      "é«ĺ": 286,
      "æ¶": 287,
      "åĬ¨": 288,
      "åĮĸ": 289,
      "åŁ": 290,
      "ä½ľ": 291,
      "ç¨": 292,
      "è¦": 293,
      "å®¶": 294,
      "in": 295,
      "æĸ°": 296,
      "éĴ": 297,
      "æŃ": 298,
      "æĭ": 299,
      "è¦ģ": 300,
      "åĪĨ": 301,
      "ä¸ĭ": 302,
      "åĻ": 303,
      "è¡Į": 304,
      "èĩ": 305,
      "åĻ¨": 306,
      "åŀ": 307,
      "é¢": 308,
      "ç³": 309,
      "ç®¡": 310,
      "äºİ": 311,
      "æĹ¶": 312,
      "éĥ": 313,
      "éĻĲ": 314,
      "Ġ-": 315,
      "æ´": 316,
      "äºº": 317,
      "åĳ": 318,
      "ä¾": 319,
      "ç½ĳ": 320,
      "Ġ>": 321,
      "å¸Ĥ": 322,
      "ä¸º": 323,
      "ä½ĵ": 324,
      "åº¦": 325,
      "å¼ı": 326,
      "æĸ¹": 327,
      "æĮ": 328,
      "é¦": 329,
      "çĤ": 330,
      "æĪĲ": 331,
      "é¡µ": 332,
      "åľ°": 333,
      "ç³»": 334,
      "åŃ¦": 335,
      "çĲĨ": 336,
      "ç¨ĭ": 337,
      "éħ": 338,
      "æĸĻ": 339,
      "éĵ": 340,
      "åıĳ": 341,
      "åĲĪ": 342,
      "æĢ§": 343,
      "æ¯": 344,
      "çŁ": 345,
      "èĬ": 346,
      "è£": 347,
      "åĪ¶": 348,
      "çĥ": 349,
      "éĿ¢": 350,
      "on": 351,
      "éĩı": 352,
      "æľīéĻĲ": 353,
      "äºĨ": 354,
      "ä¸ª": 355,
      "è®¡": 356,
      "éĽ": 357,
      "åħ¨": 358,
      "åŀĭ": 359,
      "er": 360,
      "æĿ¿": 361,
      "çģ": 362,
      "èī": 363,
      "an": 364,
      "å®ī": 365,
      "è½¦": 366,
      "æľīéĻĲåħ¬åı¸": 367,
      "ä½į": 368,
      "èĤ": 369,
      "æĻ": 370,
      "ç²": 371,
      "å»": 372,
      "æŁ": 373,
      "çľ": 374,
      "æ¡": 375,
      "æ¬": 376,
      "çł": 377,
      "å¤ļ": 378,
      "åĽ½": 379,
      "ç¬": 380,
      "ç¼": 381,
      "åĬĽ": 382,
      "è·": 383,
      "è£ħ": 384,
      "åĿ": 385,
      "ç½®": 386,
      "é£": 387,
      "ç±": 388,
      "Ġt": 389,
      "äº§åĵģ": 390,
      "ç¤": 391,
      "ä¼ļ": 392,
      "æķ°": 393,
      "å¹´": 394,
      "åĩº": 395,
      "æı": 396,
      "å®ļ": 397,
      "çī©": 398,
      "Ġs": 399,
      "00": 400,
      "æį": 401,
      "èĩª": 402,
      "æĸĩ": 403,
      "åĬł": 404,
      "å¤ĩ": 405,
      "éĺ²": 406,
      "æĦ": 407,
      "æĬĢ": 408,
      "éĢļ": 409,
      "åºĶ": 410,
      "ä¿Ŀ": 411,
      "éķ": 412,
      "çº¿": 413,
      "åīį": 414,
      "å°ı": 415,
      "åĪ°": 416,
      "å¢": 417,
      "ç©": 418,
      "ä½¿": 419,
      "å»º": 420,
      "å¿ĥ": 421,
      "æĹ¥": 422,
      "çŃī": 423,
      "ä»¶": 424,
      "åĮº": 425,
      "éĩĳ": 426,
      "Ġc": 427,
      "æł¼": 428,
      "å¦": 429,
      "åıĬ": 430,
      "æľ¬": 431,
      "éĴ¢": 432,
      "éģ": 433,
      "æĽ": 434,
      "é¦ĸ": 435,
      "æĤ": 436,
      "en": 437,
      "or": 438,
      "å±ķ": 439,
      "ä¸»": 440,
      "æĿ¥": 441,
      "æĥ": 442,
      "ä¸İ": 443,
      "å¯¹": 444,
      "éĹ´": 445,
      "åĨħ": 446,
      "çĤ¹": 447,
      "æĿĲ": 448,
      "è¡¨": 449,
      "Ġ(": 450,
      "æ°Ķ": 451,
      "åŃĲ": 452,
      "æ·": 453,
      "å¥½": 454,
      "è¶": 455,
      "æµĭ": 456,
      "åİĭ": 457,
      "åħī": 458,
      "æĪĳ": 459,
      "æº": 460,
      "Ġ1": 461,
      "åģ": 462,
      "æ£": 463,
      "å¤©": 464,
      "..": 465,
      "åĲİ": 466,
      "æīĢ": 467,
      "éľ": 468,
      "ar": 469,
      "es": 470,
      "èĭ": 471,
      "çİ°": 472,
      "èģ": 473,
      "è®¾å¤ĩ": 474,
      "è¿Ľ": 475,
      "ç§ĳ": 476,
      "è¿ĩ": 477,
      "at": 478,
      "æıĲ": 479,
      "æłĩ": 480,
      "å¤ĸ": 481,
      "è°": 482,
      "åħ³": 483,
      "Ġp": 484,
      "åħ·": 485,
      "æİ¥": 486,
      "ç¬¬": 487,
      "éĩį": 488,
      "åİĤ": 489,
      "è´¨": 490,
      "åįĹ": 491,
      "å¹³": 492,
      "çĻ": 493,
      "ä»·": 494,
      "å±±": 495,
      "è®¾è®¡": 496,
      "éļ": 497,
      "å¼Ģ": 498,
      "ç¡": 499,
      "æ»": 500,
      "åħ¶": 501,
      "Ġ|": 502,
      "å¦Ĥ": 503,
      "ä½¿çĶ¨": 504,
      "æ³ķ": 505,
      "æµģ": 506,
      "æģ": 507,
      "åĢ": 508,
      "æ¨": 509,
      "ç¤º": 510,
      "åĲĮ": 511,
      "çĽ®": 512,
      "æīĭ": 513,
      "åķ": 514,
      "æ¢": 515,
      "201": 516,
      "çĽ¸": 517,
      "æĹł": 518,
      "éĥ¨": 519,
      "è¿Ļ": 520,
      "å¡": 521,
      "ç«Ļ": 522,
      "ç´": 523,
      "éª": 524,
      "å½ĵ": 525,
      "çī¹": 526,
      "æľĢ": 527,
      "al": 528,
      "ç»Ł": 529,
      "ç¯": 530,
      "ç¾": 531,
      "èĪ": 532,
      "æľ¯": 533,
      "é¦ĸé¡µ": 534,
      "åľº": 535,
      "ç±»": 536,
      "æ¸©": 537,
      "æľĪ": 538,
      "å®ŀ": 539,
      "åı°": 540,
      "is": 541,
      "21": 542,
      "çĦ": 543,
      "çİ¯": 544,
      "æ¼": 545,
      "æŀľ": 546,
      "ç§į": 547,
      "ä¹ĭ": 548,
      "æĽ´": 549,
      "ç»ĵ": 550,
      "èį": 551,
      "åĪĹ": 552,
      "å£": 553,
      "èī²": 554,
      "éģĵ": 555,
      "æľŁ": 556,
      "ä½įç½®": 557,
      "è·¯": 558,
      "ç©º": 559,
      "é£İ": 560,
      "åĮħ": 561,
      "èµĦ": 562,
      "æ²¹": 563,
      "çĥŃ": 564,
      "æĲ": 565,
      "Ġm": 566,
      "Ġf": 567,
      "éĢī": 568,
      "çŁ³": 569,
      "åŁº": 570,
      "åĲį": 571,
      "æİ§": 572,
      "it": 573,
      "å·ŀ": 574,
      "le": 575,
      "æ¨¡": 576,
      "éĢł": 577,
      "ç¦": 578,
      "ä¸ī": 579,
      "åįķ": 580,
      "æµ·": 581,
      "éħį": 582,
      "çķ": 583,
      "éĥ½": 584,
      "æºĲ": 585,
      "ä¿¡": 586,
      "åķĨ": 587,
      "åı¯ä»¥": 588,
      "ç¯ĩ": 589,
      "æĤ¨": 590,
      "è§£": 591,
      "Ġd": 592,
      "ä¹Ł": 593,
      "Ġa": 594,
      "å·¥ç¨ĭ": 595,
      "è¯ķ": 596,
      "æľį": 597,
      "10": 598,
      "æ´»": 599,
      "ä»¬": 600,
      "åĬ¡": 601,
      "æ¯Ķ": 602,
      "å¸¸": 603,
      "æ¹": 604,
      "èĢħ": 605,
      "éĹ¨": 606,
      "ä¸Ģç¯ĩ": 607,
      "re": 608,
      "ä¹Ī": 609,
      "æĪĸ": 610,
      "Ġb": 611,
      "å°±": 612,
      "ä¸ĵ": 613,
      "è¥": 614,
      "éľĢ": 615,
      "äºĮ": 616,
      "å½¢": 617,
      "ic": 618,
      "åĮĹ": 619,
      "åĽĽ": 620,
      "éķ¿": 621,
      "ç³»ç»Ł": 622,
      "è¥¿": 623,
      "èĦ": 624,
      "ä¸ľ": 625,
      "æ±Ł": 626,
      "åİŁ": 627,
      "ä¾Ľ": 628,
      "åħ¥": 629,
      "æķĪ": 630,
      "é¥": 631,
      "èĢĮ": 632,
      "èĬ±": 633,
      "æĺİ": 634,
      "ä¼ł": 635,
      "å¤Ħ": 636,
      "èĲ": 637,
      "ç£": 638,
      "ä¸Ńå¿ĥ": 639,
      "he": 640,
      "çīĩ": 641,
      "æĦı": 642,
      "å¹¿": 643,
      "åĪ©": 644,
      "å¸¦": 645,
      "æĬ¤": 646,
      "é¡¹": 647,
      "æį®": 648,
      "å¸ĥ": 649,
      "éĢŁ": 650,
      "éĽĨ": 651,
      "åĽ¾": 652,
      "åĽŀ": 653,
      "éĩĩ": 654,
      "æ£Ģ": 655,
      "æĶ¶": 656,
      "é»": 657,
      "èĮ": 658,
      "æĿ¡": 659,
      "ç¢": 660,
      "ro": 661,
      "è¿Ĳ": 662,
      "ç¾İ": 663,
      "2021": 664,
      "çĽ´": 665,
      "æ¬¡": 666,
      "ä¼ģ": 667,
      "å§": 668,
      "èİ": 669,
      "çĪ": 670,
      "éŁ": 671,
      "å°Ĩ": 672,
      "æĬĢæľ¯": 673,
      "æ±Ĥ": 674,
      "åİĤå®¶": 675,
      "çº§": 676,
      "æŃ£": 677,
      "ing": 678,
      "çĶŁäº§": 679,
      "åĽł": 680,
      "æĪ·": 681,
      "ç»Ħ": 682,
      "ç³»åĪĹ": 683,
      "ä½İ": 684,
      "Ġl": 685,
      "äº¤": 686,
      "çĴ": 687,
      "é¢ĺ": 688,
      "çľĭ": 689,
      "æķĻ": 690,
      "æ¡Ī": 691,
      "èĬĤ": 692,
      "å½±": 693,
      "ä¸Ģä¸ª": 694,
      "åĲĦ": 695,
      "åŁİ": 696,
      "éĤ": 697,
      "Ġw": 698,
      "æŁ¥": 699,
      "éªĮ": 700,
      "è¢": 701,
      "æĥħ": 702,
      "åĬŁ": 703,
      "æ¸ħ": 704,
      "çĲĥ": 705,
      "æ¸¸": 706,
      "å·¥ä½ľ": 707,
      "æŀĦ": 708,
      "åı£": 709,
      "èĥ¶": 710,
      "å¾Ĺ": 711,
      "åĶ": 712,
      "ä»ª": 713,
      "é©": 714,
      "ç²¾": 715,
      "åıĺ": 716,
      "åĸ": 717,
      "èĤ²": 718,
      "ãĢĲ": 719,
      "äºĽ": 720,
      "éĺ³": 721,
      "ç»´": 722,
      "åħĥ": 723,
      "ãĢĳ": 724,
      "as": 725,
      "ä»·æł¼": 726,
      "çĶ±": 727,
      "è½¬": 728,
      "æķ´": 729,
      "å¹¶": 730,
      "çħ": 731,
      "æĪ¿": 732,
      "çīĪ": 733,
      "çłĶ": 734,
      "å½ĵåīį": 735,
      "æĸ½": 736,
      "ä¿®": 737,
      "æĿĲæĸĻ": 738,
      "ion": 739,
      "å®¢": 740,
      "å¨": 741,
      "çĸ": 742,
      "è§Ĩ": 743,
      "èĻ": 744,
      "å²": 745,
      "ç±³": 746,
      "æ³¨": 747,
      "æĳ": 748,
      "äºĭ": 749,
      "å®¹": 750,
      "èħ": 751,
      "å®¤": 752,
      "æĦŁ": 753,
      "å¾Ī": 754,
      "è¯Ń": 755,
      "éĩĮ": 756,
      "ed": 757,
      "ç§ĳæĬĢ": 758,
      "çģ«": 759,
      "åŃĹ": 760,
      "æ±½": 761,
      "æ¶Ī": 762,
      "æĬ¥": 763,
      "æĶ¯": 764,
      "å¯Ĩ": 765,
      "è¾¾": 766,
      "çīĮ": 767,
      "ç®¡çĲĨ": 768,
      "Ġh": 769,
      "æĺĵ": 770,
      "æĹ¶éĹ´": 771,
      "å¯¼": 772,
      "æģ¯": 773,
      "ä»ĸ": 774,
      "å®īåħ¨": 775,
      "è¿Ľè¡Į": 776,
      "æŃ¤": 777,
      "æİĴ": 778,
      "çĳ": 779,
      "è°ĥ": 780,
      "éĶĪ": 781,
      "ä¼ĺ": 782,
      "æ²³": 783,
      "åı·": 784,
      "åºĶçĶ¨": 785,
      "åĳĺ": 786,
      "ou": 787,
      "ä»£": 788,
      "å¼º": 789,
      "ç¥": 790,
      "Ġn": 791,
      "et": 792,
      "é¾": 793,
      "éĢĤ": 794,
      "è§Ħ": 795,
      "12": 796,
      "æł·": 797,
      "åĽŃ": 798,
      "æ¥": 799,
      "æ¶ĵ": 800,
      "æīĵ": 801,
      "éĹ®": 802,
      "ç®±": 803,
      "æľįåĬ¡": 804,
      "æĪĳä»¬": 805,
      "çİĩ": 806,
      "éĻ¤": 807,
      "ä¹Ĳ": 808,
      "ä¼ģä¸ļ": 809,
      "ãĢĭ": 810,
      "å±ŀ": 811,
      "èģĶ": 812,
      "æ¶²": 813,
      "ä¸ĩ": 814,
      "ãĢĬ": 815,
      "æĮģ": 816,
      "çĦ¶": 817,
      "ç«ĭ": 818,
      "ç®Ģ": 819,
      "ä¾ĭ": 820,
      "çĵ": 821,
      "ct": 822,
      "èµ·": 823,
      "åĪĽ": 824,
      "è¾ĵ": 825,
      "ãĥ": 826,
      "ä½ķ": 827,
      "å°Ķ": 828,
      "èı": 829,
      "æ¢°": 830,
      "èĢĥ": 831,
      "èŀ": 832,
      "ol": 833,
      "ch": 834,
      "æĴ": 835,
      "åĲĳ": 836,
      "å¡ĳ": 837,
      "è±": 838,
      "Ġ/": 839,
      "éŁ³": 840,
      "æİ§åĪ¶": 841,
      "Ġ2": 842,
      "åľŁ": 843,
      "è¿ĺ": 844,
      "èīº": 845,
      "åģļ": 846,
      "åĨ·": 847,
      "é£Ł": 848,
      "çĭ": 849,
      "èĨ": 850,
      "æĵ": 851,
      "ä¸įéĶĪ": 852,
      "èĢĲ": 853,
      "id": 854,
      "å¸Ī": 855,
      "è¶ħ": 856,
      "å¤ĦçĲĨ": 857,
      "åºĹ": 858,
      "ãĦ": 859,
      "çŁ¥": 860,
      "æ¤": 861,
      "åĪ«": 862,
      "å°ĳ": 863,
      "åįİ": 864,
      "åħ±": 865,
      "çĶ»": 866,
      "Ġo": 867,
      "éĻ¢": 868,
      "å¤į": 869,
      "æ±¡": 870,
      "ä¸įéĶĪéĴ¢": 871,
      "åĮ»": 872,
      "11": 873,
      "Ġg": 874,
      "é¡¹çĽ®": 875,
      "æĻ¯": 876,
      "çı": 877,
      "è®º": 878,
      "æĮĩ": 879,
      "åĩĨ": 880,
      "è¯ģ": 881,
      "è¿ŀ": 882,
      "èĩªåĬ¨": 883,
      "çŃĳ": 884,
      "æĶ¾": 885,
      "åįĩ": 886,
      "å¢ĥ": 887,
      "æŀĹ": 888,
      "å®Į": 889,
      "éĶĽ": 890,
      "st": 891,
      "æŀ¶": 892,
      "ä¾¿": 893,
      "è¾ĥ": 894,
      "ä½ł": 895,
      "el": 896,
      "æĻº": 897,
      "çĹ": 898,
      "æĸ¯": 899,
      "å¹²": 900,
      "ç²ī": 901,
      "å¾·": 902,
      "ä»İ": 903,
      "å¿«": 904,
      "è§Ĥ": 905,
      "åŃĺ": 906,
      "??": 907,
      "ä»ĭ": 908,
      "éĢģ": 909,
      "ç½ĳç«Ļ": 910,
      "åĳĬ": 911,
      "un": 912,
      "çĶ¨äºİ": 913,
      "å¤´": 914,
      "çĻ½": 915,
      "é¢ĳ": 916,
      "pp": 917,
      "å®ĥ": 918,
      "åĪĩ": 919,
      "Ġthe": 920,
      "æĭī": 921,
      "æ®": 922,
      "and": 923,
      "ä¹¦": 924,
      "èĤ¡": 925,
      "è®°": 926,
      "æĺ¾": 927,
      "æł¡": 928,
      "è½½": 929,
      "æ·±": 930,
      "ç¦»": 931,
      "æ½": 932,
      "çģ¯": 933,
      "éľĢè¦ģ": 934,
      "Ġ0": 935,
      "è¯´": 936,
      "Ġin": 937,
      "éĩĩçĶ¨": 938,
      "å±Ĥ": 939,
      "æľ¨": 940,
      "åį°": 941,
      "é¾Ļ": 942,
      "éĵģ": 943,
      "çľģ": 944,
      "å»ºçŃĳ": 945,
      "æĺŁ": 946,
      "Ġv": 947,
      "è½¯": 948,
      "Ġ>>": 949,
      "30": 950,
      "åĽ¢": 951,
      "å½ķ": 952,
      "åĶ®": 953,
      "ä¿¡æģ¯": 954,
      "åīĤ": 955,
      "æķ°æį®": 956,
      "èĭ±": 957,
      "æİ¨": 958,
      "å®īè£ħ": 959,
      "il": 960,
      "åĵª": 961,
      "å¢ŀ": 962,
      "çĿ": 963,
      "åŁ¹": 964,
      "am": 965,
      "å½ĵåīįä½įç½®": 966,
      "éĿŀ": 967,
      "äºĳ": 968,
      "ä¸ĭä¸Ģç¯ĩ": 969,
      "èµĽ": 970,
      "ç§°": 971,
      "ä¸»è¦ģ": 972,
      "...": 973,
      "å®Ŀ": 974,
      "ä¸Ĭä¸Ģç¯ĩ": 975,
      "ç´ł": 976,
      "ä»Ģ": 977,
      "ent": 978,
      "çĩ": 979,
      "è¯·": 980,
      "ad": 981,
      "è´Ń": 982,
      "æĭ©": 983,
      "çº¢": 984,
      "èº": 985,
      "åĬŁèĥ½": 986,
      "èĳ": 987,
      "ç¤¾": 988,
      "åıĤ": 989,
      "ç«ł": 990,
      "çĮ": 991,
      "æĶ¹": 992,
      "âĢ": 993,
      "æŃ¥": 994,
      "éĢīæĭ©": 995,
      "åħĪ": 996,
      "ç»ĵæŀĦ": 997,
      "åıĸ": 998,
      "æī¿": 999,
      "ä»Ģä¹Ī": 1000,
      "åįģ": 1001,
      "å±ķç¤º": 1002,
      "å¥Ĺ": 1003,
      "50": 1004,
      "çª": 1005,
      "åĽº": 1006,
      "çķĮ": 1007,
      "om": 1008,
      "è¯Ħ": 1009,
      "è¯¥": 1010,
      "äºĶ": 1011,
      "ä¸ŃåĽ½": 1012,
      "ä»»": 1013,
      "æ¯ı": 1014,
      ");": 1015,
      "æľºæ¢°": 1016,
      "Ġäº§åĵģ": 1017,
      "æ£Ģæµĭ": 1018,
      "æ²¡": 1019,
      "æł¹": 1020,
      "äº¬": 1021,
      "æĢģ": 1022,
      "æĬķ": 1023,
      "Ġ:": 1024,
      "éĹ»": 1025,
      "æ³µ": 1026,
      "ä¸¤": 1027,
      "ow": 1028,
      "åĳ¨": 1029,
      "æĢ»": 1030,
      "éĻį": 1031,
      "æĵį": 1032,
      "èº«": 1033,
      "è®¯": 1034,
      "æ¬¾": 1035,
      "æļ": 1036,
      "é¢Ħ": 1037,
      "æ±½è½¦": 1038,
      "åĢ¼": 1039,
      "æ©": 1040,
      "çľŁ": 1041,
      "èĮĥ": 1042,
      "us": 1043,
      "è½´": 1044,
      "æ°§": 1045,
      "åħ»": 1046,
      "å°ģ": 1047,
      "æ¦": 1048,
      "è¦ģæ±Ĥ": 1049,
      "åħ·æľī": 1050,
      "ç¡®": 1051,
      "Ġ[": 1052,
      "éĿĴ": 1053,
      "ä½Ĩ": 1054,
      "æ¹ĸ": 1055,
      "è®Ń": 1056,
      "è¡Įä¸ļ": 1057,
      "å¾®": 1058,
      "åıĹ": 1059,
      "åĨ³": 1060,
      "çļĦä½įç½®": 1061,
      "åį¡": 1062,
      "éħ¸": 1063,
      "ç©¶": 1064,
      "åŁŁ": 1065,
      "ä»½": 1066,
      "çĬ": 1067,
      "æĢ§èĥ½": 1068,
      "æıĲä¾Ľ": 1069,
      "éĵĿ": 1070,
      "çİ»": 1071,
      "è¿ĳ": 1072,
      "å®ģ": 1073,
      "è´¹": 1074,
      "ä½ĵèĤ²": 1075,
      "ç»Ĩ": 1076,
      "åıĮ": 1077,
      "æį¢": 1078,
      "åł": 1079,
      "èĨľ": 1080,
      "éħĴ": 1081,
      "ac": 1082,
      "æ´Ĺ": 1083,
      "çİ¯å¢ĥ": 1084,
      "è¯»": 1085,
      "åĬłå·¥": 1086,
      "Ġe": 1087,
      "æ¾": 1088,
      "æĸ°éĹ»": 1089,
      "æĢİ": 1090,
      "Ġi": 1091,
      "è¢«": 1092,
      "ç¦ı": 1093,
      "è§Ĵ": 1094,
      "çĴĥ": 1095,
      "æŀĲ": 1096,
      "Ġst": 1097,
      "åºĵ": 1098,
      "ç£¨": 1099,
      "çħ§": 1100,
      "æĵįä½ľ": 1101,
      "æĸ½å·¥": 1102,
      "çĤī": 1103,
      "èģļ": 1104,
      "èĩ³": 1105,
      "Ġ201": 1106,
      "æĸ¹æ³ķ": 1107,
      "åıª": 1108,
      "çº¸": 1109,
      "ä¸ĸ": 1110,
      "çİ»çĴĥ": 1111,
      "ç¿": 1112,
      "éĻħ": 1113,
      "200": 1114,
      "è½®": 1115,
      "ot": 1116,
      "é¸": 1117,
      "åĬ©": 1118,
      "è½»": 1119,
      "Ġ\"": 1120,
      "åĤ": 1121,
      "Ġr": 1122,
      "å·¥ä¸ļ": 1123,
      "è¯¾": 1124,
      "è®©": 1125,
      "åİ»": 1126,
      "æ°ĳ": 1127,
      "èĢģ": 1128,
      "åįļ": 1129,
      "éĶĢ": 1130,
      "2020": 1131,
      "å¤ª": 1132,
      "åİ¿": 1133,
      "çŃ¾": 1134,
      "Ġ2021": 1135,
      "æ±ł": 1136,
      "çłĶç©¶": 1137,
      "å·²": 1138,
      "å¦Ĥä½ķ": 1139,
      "æ¿": 1140,
      "åħį": 1141,
      "æ´»åĬ¨": 1142,
      "çĽĺ": 1143,
      "ag": 1144,
      "éĢļè¿ĩ": 1145,
      "çĶµåŃĲ": 1146,
      "èĴ": 1147,
      "äºļ": 1148,
      "Ġ,": 1149,
      "è¯Ĩ": 1150,
      "od": 1151,
      "ig": 1152,
      "æĥ³": 1153,
      "æ¶Ĥ": 1154,
      "èĭı": 1155,
      "å½©": 1156,
      "åº§": 1157,
      "åĩı": 1158,
      "è´§": 1159,
      "åĽ´": 1160,
      "è¶Ĭ": 1161,
      "åĵį": 1162,
      "éĺĢ": 1163,
      "åĬŀ": 1164,
      "è´¨éĩı": 1165,
      "éĩĳå±ŀ": 1166,
      "ç§¯": 1167,
      "æ³¢": 1168,
      "åħĭ": 1169,
      "ç«¯": 1170,
      "çĢ": 1171,
      "é¦Ļ": 1172,
      "æĮī": 1173,
      "å¢Ļ": 1174,
      "Ġy": 1175,
      "èŀº": 1176,
      "çĻ¾": 1177,
      "ä¸įåĲĮ": 1178,
      "è¯į": 1179,
      "æĹħ": 1180,
      "ä¸Ķ": 1181,
      "é»Ħ": 1182,
      "ç´¢": 1183,
      "åħħ": 1184,
      "çĪ±": 1185,
      "è¶³": 1186,
      "åĵģçīĮ": 1187,
      "¤Ĳ": 1188,
      "æħ": 1189,
      "åĩ»": 1190,
      "èĲ¥": 1191,
      "åĦ": 1192,
      "æ²¡æľī": 1193,
      "ç¼ĸ": 1194,
      "è§Ī": 1195,
      "éĹ®é¢ĺ": 1196,
      "é©¬": 1197,
      "ä¹¡": 1198,
      "æĻºèĥ½": 1199,
      "åĮħè£ħ": 1200,
      "å£«": 1201,
      "å®ĺ": 1202,
      "æīĢæľī": 1203,
      "å¿ħ": 1204,
      "th": 1205,
      "é¢Ĩ": 1206,
      "ç£ģ": 1207,
      "å¹³åı°": 1208,
      "ip": 1209,
      "åıį": 1210,
      "çĻ»": 1211,
      "æĲľ": 1212,
      "åĢĻ": 1213,
      "åı¤": 1214,
      "Ġ3": 1215,
      "çłģ": 1216,
      "åį³": 1217,
      "çĬ¶": 1218,
      "ç»Ļ": 1219,
      "å¥½çļĦ": 1220,
      "op": 1221,
      "çĽ¸åħ³": 1222,
      "åŁ¹è®Ń": 1223,
      "æ¥¼": 1224,
      "æ··": 1225,
      "åĥ": 1226,
      "åĨį": 1227,
      "æŃ¢": 1228,
      "æĢİä¹Ī": 1229,
      "é¤Ĳ": 1230,
      "æĻ®": 1231,
      "çĶŁæ´»": 1232,
      "åĨµ": 1233,
      "éĺŁ": 1234,
      "16": 1235,
      "åĭ": 1236,
      "åºķ": 1237,
      "ä¸ŃçļĦ": 1238,
      "åĪĨç±»": 1239,
      "æĿĥ": 1240,
      "æĶ¿": 1241,
      "æŁľ": 1242,
      ").": 1243,
      "æĬĹ": 1244,
      "é²": 1245,
      "è¯ķéªĮ": 1246,
      "æŀģ": 1247,
      "åĪĴ": 1248,
      "æĴŃ": 1249,
      "ä¸ĵä¸ļ": 1250,
      "åĦ¿": 1251,
      "çĦĬ": 1252,
      "éĤ£": 1253,
      "å¼ķ": 1254,
      "ur": 1255,
      "ç§ĳæĬĢæľīéĻĲåħ¬åı¸": 1256,
      "èĪ¬": 1257,
      "åħ¶ä»ĸ": 1258,
      "å¼ł": 1259,
      "åĿĩ": 1260,
      "çĩĥ": 1261,
      "æ»¤": 1262,
      "åºĬ": 1263,
      "se": 1264,
      "éĶ®": 1265,
      "åĲ«": 1266,
      "è®®": 1267,
      "æ¸©åº¦": 1268,
      "èĵ": 1269,
      "Ġof": 1270,
      "çº¦": 1271,
      "ç§»": 1272,
      "Ġand": 1273,
      "ay": 1274,
      "Ġch": 1275,
      "im": 1276,
      "åĨ²": 1277,
      "é¹": 1278,
      "æłĩåĩĨ": 1279,
      "èĩ´": 1280,
      "æ¼«": 1281,
      "lo": 1282,
      "æĿĳ": 1283,
      "è±¡": 1284,
      "æ¬¢": 1285,
      "åĪĨæŀĲ": 1286,
      "åĿĹ": 1287,
      "è®¤": 1288,
      "é»ĳ": 1289,
      "ç§Ł": 1290,
      "æ¡Īä¾ĭ": 1291,
      "åıĭ": 1292,
      "Ġ}": 1293,
      "ç®Ĺ": 1294,
      "Ġk": 1295,
      "åĲ¸": 1296,
      "åĪ¶éĢł": 1297,
      "åĩĢ": 1298,
      "æµĭè¯ķ": 1299,
      "æĺ¾ç¤º": 1300,
      "å¦Ĥæŀľ": 1301,
      "è¾¹": 1302,
      "èİ·": 1303,
      "æī¹": 1304,
      "mm": 1305,
      "éļĶ": 1306,
      "æ¸¯": 1307,
      "è§£åĨ³": 1308,
      "ä»Ĭ": 1309,
      "æ³¨æĦı": 1310,
      "çĶ¨æĪ·": 1311,
      "Ġ4": 1312,
      "ä»¥åıĬ": 1313,
      "å¸Ĥåľº": 1314,
      "æīį": 1315,
      "em": 1316,
      "åº·": 1317,
      "ut": 1318,
      "æ¡¥": 1319,
      "èħĲ": 1320,
      "çĽĳ": 1321,
      "çĿĢ": 1322,
      "ä¸ĭä¸Ģ": 1323,
      "æĿ¾": 1324,
      "ä»¥ä¸Ĭ": 1325,
      "çłĤ": 1326,
      "éĺħ": 1327,
      "çļ®": 1328,
      "åºı": 1329,
      "ä¸ĢèĪ¬": 1330,
      "åŃĶ": 1331,
      "),": 1332,
      "åħ°": 1333,
      "å°ĺ": 1334,
      "éĵ¶": 1335,
      "åĥı": 1336,
      "å©": 1337,
      "æ»ĳ": 1338,
      "æĸŃ": 1339,
      "100": 1340,
      "çł´": 1341,
      "å®¢æĪ·": 1342,
      "çĨ": 1343,
      "Ġ=": 1344,
      "æ©¡": 1345,
      "æĸ¹å¼ı": 1346,
      "çĹħ": 1347,
      "ä¸Ĭæµ·": 1348,
      "æķĪæŀľ": 1349,
      "âĢ¦": 1350,
      "Ġç¬¬": 1351,
      "åĳ½": 1352,
      "å±Ģ": 1353,
      "é¥°": 1354,
      "æ¼Ķ": 1355,
      "iv": 1356,
      "æ»¡": 1357,
      "æłĩçŃ¾": 1358,
      "15": 1359,
      "ab": 1360,
      "èĸ": 1361,
      "è¿ĩç¨ĭ": 1362,
      "ä¸Ĭä¸Ģ": 1363,
      "Ġto": 1364,
      "åİĭåĬĽ": 1365,
      "Ġre": 1366,
      "è¢ĭ": 1367,
      "25": 1368,
      "å¥ĩ": 1369,
      "åĩĿ": 1370,
      "èļ": 1371,
      "è¯¢": 1372,
      "åŃ£": 1373,
      "åĨľ": 1374,
      "ç»Ń": 1375,
      "åľĨ": 1376,
      "æ¬§": 1377,
      "æ³¥": 1378,
      "å½±åĵį": 1379,
      "ç¨³": 1380,
      "æµľ": 1381,
      "æ±ī": 1382,
      "åıĳå±ķ": 1383,
      "å³": 1384,
      "ãģ": 1385,
      "éĢı": 1386,
      "ç¼©": 1387,
      "ç»¿": 1388,
      "è§ģ": 1389,
      "åĵªäºĽ": 1390,
      "æłı": 1391,
      "çİĭ": 1392,
      "æ²»": 1393,
      "ãĤ": 1394,
      "ç¼Ĩ": 1395,
      "åħ³äºİ": 1396,
      "æĸĩåĮĸ": 1397,
      "åŁİå¸Ĥ": 1398,
      "å¿Ĺ": 1399,
      "çĪĨ": 1400,
      "æķħ": 1401,
      "æĺ¯ä¸Ģ": 1402,
      "è¨": 1403,
      "æľª": 1404,
      "ä¿ĿæĬ¤": 1405,
      "13": 1406,
      "è¨Ģ": 1407,
      "å·Ŀ": 1408,
      "æıĲé«ĺ": 1409,
      "éķĩ": 1410,
      "os": 1411,
      "Ĺı": 1412,
      "çĶµæľº": 1413,
      "é½": 1414,
      "ä¸Ŀ": 1415,
      "ç»į": 1416,
      "è§Ĩé¢ĳ": 1417,
      "åħ´": 1418,
      "æī¾": 1419,
      "åĪĻ": 1420,
      "ap": 1421,
      "åºĨ": 1422,
      "å±ĭ": 1423,
      "éļı": 1424,
      "æĸ¹æ¡Ī": 1425,
      "one": 1426,
      "çĥŁ": 1427,
      "--": 1428,
      "æ§": 1429,
      "å°¼": 1430,
      "åĪ¶ä½ľ": 1431,
      "æ®µ": 1432,
      "åħŃ": 1433,
      "é¦Ĩ": 1434,
      "19": 1435,
      "å¡Ķ": 1436,
      "Ġj": 1437,
      "æĪı": 1438,
      "å·®": 1439,
      "é¼": 1440,
      "åĽ½éĻħ": 1441,
      "ç»ĩ": 1442,
      "åĮĹäº¬": 1443,
      "å¡ĳæĸĻ": 1444,
      "çİ¯ä¿Ŀ": 1445,
      "éĽĨåĽ¢": 1446,
      "ation": 1447,
      "ä¹ī": 1448,
      "ĠçļĦ": 1449,
      "èī¯": 1450,
      "èį¯": 1451,
      "æłĳ": 1452,
      "å£°": 1453,
      "14": 1454,
      "åģ¥": 1455,
      "å·±": 1456,
      "çº¹": 1457,
      "åĺ": 1458,
      "å¤§åŃ¦": 1459,
      "å±ħ": 1460,
      "è¡¨éĿ¢": 1461,
      "èģĮ": 1462,
      "åľ¨çº¿": 1463,
      "åį·": 1464,
      "èĳĹ": 1465,
      "éĵ¾": 1466,
      "éĻĦ": 1467,
      "æł¹æį®": 1468,
      "çķĻ": 1469,
      "60": 1470,
      "Ġ$": 1471,
      "éĺ»": 1472,
      "å¯¸": 1473,
      "åĬ¿": 1474,
      "Ġä¸Ń": 1475,
      "æ³°": 1476,
      "å¤Ł": 1477,
      "24": 1478,
      "çİ°åľ¨": 1479,
      "18": 1480,
      "cr": 1481,
      "åĩł": 1482,
      "æµģéĩı": 1483,
      "è¯¦": 1484,
      "Ġ5": 1485,
      "ä½ľçĶ¨": 1486,
      "å»ºè®¾": 1487,
      "pe": 1488,
      "ä¸ĭè½½": 1489,
      "Ġth": 1490,
      "å°±æĺ¯": 1491,
      "ä¹ł": 1492,
      "èĲ½": 1493,
      "æķĻèĤ²": 1494,
      "éº": 1495,
      "åºŁ": 1496,
      "äºĴ": 1497,
      "ul": 1498,
      "åĤ¨": 1499,
      "ä»ĭç»į": 1500,
      "è¯Ŀ": 1501,
      "ä¹°": 1502,
      "çıŃ": 1503,
      "22": 1504,
      "åĲī": 1505,
      "ang": 1506,
      "æ²Ļ": 1507,
      "è½¯ä»¶": 1508,
      "åıĪ": 1509,
      "åĲįç§°": 1510,
      "éĽ¶": 1511,
      "åİļ": 1512,
      "ir": 1513,
      "éĨ": 1514,
      "è¿ŀæİ¥": 1515,
      "ç©ºéĹ´": 1516,
      "è¡¥": 1517,
      "éĶħ": 1518,
      "ä½ı": 1519,
      "æĶ¯æĮģ": 1520,
      "èĽ": 1521,
      "å·¥èīº": 1522,
      "æ¼Ĩ": 1523,
      "å¤§å®¶": 1524,
      "ter": 1525,
      "ç®¡éģĵ": 1526,
      "æĹ¶åĢĻ": 1527,
      "æĥħåĨµ": 1528,
      "éĥ¨åĪĨ": 1529,
      "åī²": 1530,
      "éĺ²æ°´": 1531,
      "åįĬ": 1532,
      "æ¨¡æĿ¿": 1533,
      "çĸĹ": 1534,
      "çī¹çĤ¹": 1535,
      "ç¬Ķ": 1536,
      "æ¯į": 1537,
      "é±": 1538,
      "æł¸": 1539,
      "ç¢İ": 1540,
      "å¯Ĩå°ģ": 1541,
      "æĹĭ": 1542,
      "ä¾ĽåºĶ": 1543,
      "æĢĿ": 1544,
      "åĨħå®¹": 1545,
      "åĪ·": 1546,
      "æģĴ": 1547,
      "ç»ľ": 1548,
      "åıĳå¸ĥ": 1549,
      "èľ": 1550,
      "åĲĮæĹ¶": 1551,
      "éĺħè¯»": 1552,
      "æ©¡èĥ¶": 1553,
      "æŃ¦": 1554,
      "æĳ©": 1555,
      "å¼Ĥ": 1556,
      "04": 1557,
      "ç²Ĵ": 1558,
      "åĽŀæĶ¶": 1559,
      "çĶµç¼Ĩ": 1560,
      "å·´": 1561,
      "èıľ": 1562,
      "æ¿Ģ": 1563,
      "å²Ľ": 1564,
      "é±¼": 1565,
      "çº³": 1566,
      "éĶģ": 1567,
      "æĽ²": 1568,
      "åħ¸": 1569,
      "ie": 1570,
      "åİħ": 1571,
      "é£Łåĵģ": 1572,
      "ht": 1573,
      "æķ£": 1574,
      "ç¥ŀ": 1575,
      "æĪĺ": 1576,
      "éŀ": 1577,
      "ç¼Ŀ": 1578,
      "æµĭéĩı": 1579,
      "æīĭæľº": 1580,
      "éļľ": 1581,
      "oc": 1582,
      "æ¸¸æĪı": 1583,
      "èĩªå·±": 1584,
      "å§ĭ": 1585,
      "um": 1586,
      "ç¢³": 1587,
      "åľ³": 1588,
      "Ġx": 1589,
      "å°º": 1590,
      "æįŁ": 1591,
      "Ġ{": 1592,
      "æĮ¯": 1593,
      "åĲ¦": 1594,
      "æ¹¿": 1595,
      "è£ħç½®": 1596,
      "æ·±åľ³": 1597,
      "Ġfor": 1598,
      "çĥ§": 1599,
      "çĶ°": 1600,
      "æµł": 1601,
      "oo": 1602,
      "çĶ²": 1603,
      "æ¤į": 1604,
      "ç»ĵæŀľ": 1605,
      "Ġé¦ĸé¡µ": 1606,
      "çĶŁçī©": 1607,
      "éĩįè¦ģ": 1608,
      "å¯Į": 1609,
      "ph": 1610,
      "äº«": 1611,
      "åı¯èĥ½": 1612,
      "01": 1613,
      "åĸ·": 1614,
      "åĳ³": 1615,
      "èĦĳ": 1616,
      "ä¸ĸçķĮ": 1617,
      "åĮĸå·¥": 1618,
      "ç²ĺ": 1619,
      "èĥ½åĬĽ": 1620,
      "åįı": 1621,
      "åį«": 1622,
      "çĭ¬": 1623,
      "ä½³": 1624,
      "æĺ¥": 1625,
      "èĻĳ": 1626,
      "('": 1627,
      "è¾ĵéĢģ": 1628,
      "å£ģ": 1629,
      "ç½Ĺ": 1630,
      "æĸ¹éĿ¢": 1631,
      "è®¸": 1632,
      "æŁĵ": 1633,
      "ç¡¬": 1634,
      "èµ°": 1635,
      "åħ³éĶ®": 1636,
      "èĤ¡ä»½": 1637,
      "éĿł": 1638,
      "åľ°åĿ": 1639,
      "éĵľ": 1640,
      "èĪª": 1641,
      "è¿İ": 1642,
      "ex": 1643,
      "èŀį": 1644,
      "è¿ľ": 1645,
      "é¡¶": 1646,
      "å¥³": 1647,
      "æĬĬ": 1648,
      "æīĺ": 1649,
      "80": 1650,
      "if": 1651,
      "çļĦä¸Ģ": 1652,
      "çŁ¿": 1653,
      "æīĢä»¥": 1654,
      "Ġäº§åĵģä¸Ńå¿ĥ": 1655,
      "å±ı": 1656,
      "çģµ": 1657,
      "æ³Ľ": 1658,
      "çĢ¹": 1659,
      "æµı": 1660,
      "å±±ä¸ľ": 1661,
      "éĿŀå¸¸": 1662,
      "17": 1663,
      "æ¶Īéĺ²": 1664,
      "æĻ¶": 1665,
      "æ´ģ": 1666,
      "Ġæĸ°": 1667,
      "æĿĨ": 1668,
      "ç¡ħ": 1669,
      "çĽĸ": 1670,
      "å°Ħ": 1671,
      "çģ°": 1672,
      "æĸ¹ä¾¿": 1673,
      "äº®": 1674,
      "åĽĽä¸ª": 1675,
      "å¢¨": 1676,
      "æµıè§Ī": 1677,
      "èµĦè®¯": 1678,
      "åı¶": 1679,
      "åĲĦç§į": 1680,
      "æĬķèµĦ": 1681,
      "çĶµåĬ¨": 1682,
      "çĶ±äºİ": 1683,
      "æĸ¤": 1684,
      "çº¤": 1685,
      "ç¬¬ä¸Ģ": 1686,
      "èµĦæĸĻ": 1687,
      "æĹħæ¸¸": 1688,
      "âĦ": 1689,
      "éħįä»¶": 1690,
      "ä¸´": 1691,
      "å¥ĸ": 1692,
      "åĲ¯": 1693,
      "è¡£": 1694,
      "âĦĥ": 1695,
      "å¼Ģåıĳ": 1696,
      "ess": 1697,
      "éĿĻ": 1698,
      "æĲľç´¢": 1699,
      "æ±ĩ": 1700,
      "ç½ĳç»ľ": 1701,
      "éĺ¿": 1702,
      "åĪĢ": 1703,
      "ç°": 1704,
      "èĹı": 1705,
      "23": 1706,
      "çŁŃ": 1707,
      "èĥ½å¤Ł": 1708,
      "å¤§çļĦ": 1709,
      "08": 1710,
      "æľĢæĸ°": 1711,
      "åĲĪéĩĳ": 1712,
      "èĮ¶": 1713,
      "æ¯Ķè¾ĥ": 1714,
      "app": 1715,
      "Ġde": 1716,
      "è®¿": 1717,
      "éĵ¸": 1718,
      "åĿĽ": 1719,
      "å®ŀçİ°": 1720,
      "åģľ": 1721,
      "æ¢ģ": 1722,
      "èĵĿ": 1723,
      "æ³¡": 1724,
      "éľĢæ±Ĥ": 1725,
      "çİī": 1726,
      "æµĨ": 1727,
      "æŁ¥çľĭ": 1728,
      "æ¾¶": 1729,
      "æ¼«çĶ»": 1730,
      "å¼¹": 1731,
      "åĪĩåī²": 1732,
      "åĽ¾çīĩ": 1733,
      "âĪ": 1734,
      "eng": 1735,
      "led": 1736,
      "åŃ¦çĶŁ": 1737,
      "äºĨè§£": 1738,
      "æ°§åĮĸ": 1739,
      "è´Ł": 1740,
      "çĽĬ": 1741,
      "å¾Ģ": 1742,
      "å¾Īå¤ļ": 1743,
      "è®²": 1744,
      "èĮĥåĽ´": 1745,
      "sp": 1746,
      "æĽ´å¤ļ": 1747,
      "ont": 1748,
      "aåĵģ": 1749,
      "è£ħä¿®": 1750,
      "æŁ±": 1751,
      "æ¼ı": 1752,
      "çıł": 1753,
      "çľ¼": 1754,
      "å¤±": 1755,
      "æ¯Ĵ": 1756,
      "åħ¨éĥ¨": 1757,
      "å¾Ħ": 1758,
      "éķľ": 1759,
      "æ¶¦": 1760,
      "çĳŀ": 1761,
      "é¥Ń": 1762,
      "09": 1763,
      "èįī": 1764,
      "å¨ģ": 1765,
      "è´µ": 1766,
      "çļĦæĹ¶åĢĻ": 1767,
      "é¡º": 1768,
      "èŃ": 1769,
      "çĵ·": 1770,
      "æ£ĢæŁ¥": 1771,
      "ce": 1772,
      "åĢŁ": 1773,
      "çĥĺ": 1774,
      "è¡Ģ": 1775,
      "ç¬¦": 1776,
      "ç©ºæ°Ķ": 1777,
      "èĦĤ": 1778,
      "å®ĮæĪĲ": 1779,
      "æĭ¬": 1780,
      "èŃ¦": 1781,
      "çİ©": 1782,
      "æĭĽ": 1783,
      "03": 1784,
      "æ±Łèĭı": 1785,
      "æľīåĽĽä¸ª": 1786,
      "çªĹ": 1787,
      "å·ŀå¸Ĥ": 1788,
      "èĬ¯": 1789,
      "æķĻåŃ¦": 1790,
      "ä½ľèĢħ": 1791,
      "æİ¢": 1792,
      "çĽĴ": 1793,
      "é¡»": 1794,
      "æĦŁåĻ¨": 1795,
      "ind": 1796,
      "ä¸Ńæĸĩ": 1797,
      "ä»ħ": 1798,
      "è´´": 1799,
      "Ġpro": 1800,
      "åĪ©çĶ¨": 1801,
      "éĽ¨": 1802,
      "ä¸Ģå®ļ": 1803,
      "000": 1804,
      "ç¨³å®ļ": 1805,
      "ction": 1806,
      "è¯¾ç¨ĭ": 1807,
      "éĢĶ": 1808,
      "éĻ©": 1809,
      "æľĽ": 1810,
      "éĹŃ": 1811,
      "éŃ": 1812,
      "pl": 1813,
      "qu": 1814,
      "é£ŀ": 1815,
      "çº¯": 1816,
      "çŃĸ": 1817,
      "åĲĬ": 1818,
      "æıĲåįĩ": 1819,
      "èĴ¸": 1820,
      "åĨĮ": 1821,
      "æ··åĩĿ": 1822,
      "çīĽ": 1823,
      "æ²³åįĹ": 1824,
      "ia": 1825,
      "å³°": 1826,
      "è§¦": 1827,
      "èīºæľ¯": 1828,
      "ç®Ģåįķ": 1829,
      "éĴŁ": 1830,
      "æĳĦ": 1831,
      "æ´²": 1832,
      "é£İæľº": 1833,
      "åŃ¦æł¡": 1834,
      "è®¢": 1835,
      "ĠãĢĲ": 1836,
      "ç¥¨": 1837,
      "all": 1838,
      "åĸľ": 1839,
      "æµĻ": 1840,
      "åį´": 1841,
      "07": 1842,
      "æľīåĵªäºĽ": 1843,
      "é¥®": 1844,
      "çĽ´æĴŃ": 1845,
      "est": 1846,
      "å®³": 1847,
      "éĴĪ": 1848,
      "æ··åĩĿåľŁ": 1849,
      "è¿°": 1850,
      "ä¹Ļ": 1851,
      "æ¡£": 1852,
      "åĲĪä½ľ": 1853,
      "æ¹¾": 1854,
      "ç±»åŀĭ": 1855,
      "åįĥ": 1856,
      "è¿Ĳè¡Į": 1857,
      "åľĪ": 1858,
      "åĮħæĭ¬": 1859,
      "ç»¼": 1860,
      "çĽ®åīį": 1861,
      "èµĦæºĲ": 1862,
      "æľīæķĪ": 1863,
      "å´": 1864,
      "ä»ªåĻ¨": 1865,
      "åĽ½åĨħ": 1866,
      ">>": 1867,
      "åİĨ": 1868,
      "éĶĢåĶ®": 1869,
      "å¯¹äºİ": 1870,
      "ç´§": 1871,
      "ä¾Ŀ": 1872,
      "ä¸ªäºº": 1873,
      "ä»¥ä¸ĭ": 1874,
      "æıĴ": 1875,
      "åĽłæŃ¤": 1876,
      "èĥĮ": 1877,
      "å¿«éĢŁ": 1878,
      "çħ¤": 1879,
      "ov": 1880,
      "åĳ¢": 1881,
      "ä¸°": 1882,
      "çĶµèĦĳ": 1883,
      "cl": 1884,
      "éķĢ": 1885,
      "ib": 1886,
      "å¿µ": 1887,
      "ä¼łæĦŁåĻ¨": 1888,
      "å¸®": 1889,
      "å¤įåĲĪ": 1890,
      "ort": 1891,
      "ä¼Ĺ": 1892,
      "å¤ı": 1893,
      "çĶ³": 1894,
      "æĲŃ": 1895,
      "èĤ¥": 1896,
      "Ġå¤§": 1897,
      "æī¹åıĳ": 1898,
      "ate": 1899,
      "éļ¾": 1900,
      "ä¹Ŀ": 1901,
      "èį£": 1902,
      "ç«ŀ": 1903,
      "åĮĸåŃ¦": 1904,
      "å·¥åħ·": 1905,
      "28": 1906,
      "éĽ·": 1907,
      "æĿ¡ä»¶": 1908,
      "è¡Ĺ": 1909,
      "æ°¸": 1910,
      "26": 1911,
      "åĸĦ": 1912,
      "è®ºåĿĽ": 1913,
      "Ġ6": 1914,
      "åĨĻ": 1915,
      "æ±¡æ°´": 1916,
      "ml": 1917,
      "av": 1918,
      "ç¡Ģ": 1919,
      "åĽłä¸º": 1920,
      "è®¾ç½®": 1921,
      "Ġis": 1922,
      "....": 1923,
      "æ²³åĮĹ": 1924,
      "æĿĤ": 1925,
      "åĩºçİ°": 1926,
      "æµ£": 1927,
      "ãĢį": 1928,
      "åıĳçĶŁ": 1929,
      "åī§": 1930,
      "è·Ŀ": 1931,
      "è´£": 1932,
      "ç«¥": 1933,
      "æ´¥": 1934,
      "ç¾¤": 1935,
      "27": 1936,
      "åŁºç¡Ģ": 1937,
      "è¿Ļä¸ª": 1938,
      "æŃĮ": 1939,
      "æĸĩç«ł": 1940,
      "äº¤éĢļ": 1941,
      "ring": 1942,
      "ç¿»": 1943,
      "çŃĴ": 1944,
      "ãĢĮ": 1945,
      "æµĻæ±Ł": 1946,
      "çĵ¦": 1947,
      "èļĢ": 1948,
      "æĭĮ": 1949,
      "\",": 1950,
      "çłĸ": 1951,
      "Ġ10": 1952,
      "èĤ¡ä»½æľīéĻĲåħ¬åı¸": 1953,
      "Ñĥ": 1954,
      "Ġé¡µ": 1955,
      "äº¤æĺĵ": 1956,
      "çĳ°": 1957,
      "Ġar": 1958,
      "ä¸Ģä½ĵ": 1959,
      "å°ºå¯¸": 1960,
      "ers": 1961,
      "ub": 1962,
      "éĻ¶": 1963,
      "**": 1964,
      "å£³": 1965,
      "ãĪ": 1966,
      "å¹ķ": 1967,
      "å¯¿": 1968,
      "åĪĿ": 1969,
      "è½´æī¿": 1970,
      "(\"": 1971,
      "æ§½": 1972,
      "æļĸ": 1973,
      "çĶµæ±ł": 1974,
      "è¡¡": 1975,
      "åıĤæķ°": 1976,
      "çĽ´æİ¥": 1977,
      "ç»Ŀ": 1978,
      "ä¼ĳ": 1979,
      "çŁ¥è¯Ĩ": 1980,
      "çĥ¯": 1981,
      "æ¸ħæ´Ĺ": 1982,
      "tr": 1983,
      "å¼ºåº¦": 1984,
      "æĿ¯": 1985,
      "éĢĤçĶ¨äºİ": 1986,
      "40": 1987,
      "æĽ´æĸ°": 1988,
      "éĴ±": 1989,
      "Ġ12": 1990,
      "æĤ¨çļĦ": 1991,
      "èĦ±": 1992,
      "ke": 1993,
      "æĺ¯åĲ¦": 1994,
      "åľ°åĮº": 1995,
      "çķ¥": 1996,
      "è§ī": 1997,
      "éģ¿": 1998,
      "åħ¬åĳĬ": 1999,
      "ä¸»é¢ĺ": 2000,
      "ong": 2001,
      "ä¸ĢäºĽ": 2002,
      "é¢ľ": 2003,
      "åŃ¦éĻ¢": 2004,
      "å®ľ": 2005,
      "ä¿Ŀè¯ģ": 2006,
      "å¡«": 2007,
      "åĪ»": 2008,
      "äººåĳĺ": 2009,
      "ä»ĵ": 2010,
      "æ°´æ³¥": 2011,
      "ob": 2012,
      "ä¼¸": 2013,
      "é¢ĨåŁŁ": 2014,
      "æ¿Ģåħī": 2015,
      "å®ŀéªĮ": 2016,
      "äº¿": 2017,
      "Ġ'": 2018,
      "åĪĹè¡¨": 2019,
      "æľºåĻ¨": 2020,
      "æĿ©": 2021,
      "æĹ¥æľ¬": 2022,
      "æķĪçİĩ": 2023,
      "ç¤¾åĮº": 2024,
      "èĶ": 2025,
      "éĢŁåº¦": 2026,
      "ä½ľåĵģ": 2027,
      "è¾ĳ": 2028,
      "2018": 2029,
      "äº§çĶŁ": 2030,
      "sh": 2031,
      "ä½ľä¸º": 2032,
      "èįĲ": 2033,
      "éĽħ": 2034,
      "æ¨¡å¼ı": 2035,
      "çĶµæºĲ": 2036,
      "å¡ŀ": 2037,
      "å®ļåĪ¶": 2038,
      "âĶ": 2039,
      "æ£ī": 2040,
      "åŀ«": 2041,
      "å®½": 2042,
      "ç½Ĳ": 2043,
      "èıĮ": 2044,
      "é«ĺåİĭ": 2045,
      "å®ĺç½ĳ": 2046,
      "ä¸ĬçļĦ": 2047,
      "åı²": 2048,
      "å°ļ": 2049,
      "ä¿Ŀæ¸©": 2050,
      "ä¹Łæĺ¯": 2051,
      "åĵĪ": 2052,
      "å®¤åĨħ": 2053,
      "æĸĩä»¶": 2054,
      "å¢ŀåĬł": 2055,
      "ä¸įèĥ½": 2056,
      "ç¤¼": 2057,
      "ç¼º": 2058,
      "éĽª": 2059,
      "é«ĺæ¸©": 2060,
      "ç»´æĬ¤": 2061,
      "ç©¿": 2062,
      "éĺ²çģ«": 2063,
      "æŁ¥è¯¢": 2064,
      "æ½®": 2065,
      "ç»¼åĲĪ": 2066,
      "è®°å½ķ": 2067,
      "åı¦": 2068,
      "éĶĻ": 2069,
      "ç»Ī": 2070,
      "åįĸ": 2071,
      "æ¶ĤæĸĻ": 2072,
      "å¤¹": 2073,
      "å·¦": 2074,
      "è£ħé¥°": 2075,
      "éľĩ": 2076,
      "å»¶": 2077,
      "Ġ+": 2078,
      "å®¶åħ·": 2079,
      "Ġsh": 2080,
      "ç»ĥ": 2081,
      "æĭŁ": 2082,
      "åģĩ": 2083,
      "ä½Ļ": 2084,
      "06": 2085,
      "çİ°åľº": 2086,
      "æº¶": 2087,
      "ian": 2088,
      "å²©": 2089,
      "ç»´ä¿®": 2090,
      "çĺ": 2091,
      "è¿ĩæ»¤": 2092,
      "çĤ¹åĩ»": 2093,
      "âķ": 2094,
      "éĺ²çĪĨ": 2095,
      "æī¬": 2096,
      "éĩįåºĨ": 2097,
      "å®¶åº": 2098,
      "=>": 2099,
      "up": 2100,
      "æİ¨èįĲ": 2101,
      "og": 2102,
      "åºľ": 2103,
      "ä½Ľ": 2104,
      "åª": 2105,
      "ä¸¥": 2106,
      "éĴ¢ç®¡": 2107,
      "è¿ĩç¨ĭä¸Ń": 2108,
      "åĽ½å®¶": 2109,
      "åģ¥åº·": 2110,
      "èĤī": 2111,
      "å¾½": 2112,
      "çŃĽ": 2113,
      "29": 2114,
      "è¿Ķ": 2115,
      "Ġ8": 2116,
      "åı³": 2117,
      "Ñģ": 2118,
      "çĽĽ": 2119,
      "çľŁç©º": 2120,
      "å¹¿æ³Ľ": 2121,
      "èĦļ": 2122,
      "æķ°åŃĹ": 2123,
      "éĽķ": 2124,
      "è®¡ç®Ĺ": 2125,
      "æ¬¢è¿İ": 2126,
      "æī§": 2127,
      "âĴ": 2128,
      "èĢĹ": 2129,
      "05": 2130,
      "é½¿": 2131,
      "ä¸¾": 2132,
      "our": 2133,
      "æ¨¡åħ·": 2134,
      "è¿Ļæł·": 2135,
      "Ġon": 2136,
      "ç¡«": 2137,
      "pa": 2138,
      "æ°Ķä½ĵ": 2139,
      "ä¸»é¡µ": 2140,
      "åŁºæľ¬": 2141,
      "æıĲç¤º": 2142,
      "Ġ.": 2143,
      "é¡µéĿ¢": 2144,
      "èĸĦ": 2145,
      "åħ«": 2146,
      "å¸ģ": 2147,
      "è¿ĻäºĽ": 2148,
      "å®£": 2149,
      "éĺ²èħĲ": 2150,
      "åĨ°": 2151,
      "è®¡åĪĴ": 2152,
      "æĹı": 2153,
      "çīĻ": 2154,
      "æ»ļ": 2155,
      "çĦĬæİ¥": 2156,
      "ç§»åĬ¨": 2157,
      "Ġtr": 2158,
      "Ġ9": 2159,
      "åİŁåĽł": 2160,
      "ord": 2161,
      "åĬ¨æĢģ": 2162,
      "æľºçļĦ": 2163,
      "\"]": 2164,
      "éĴ»": 2165,
      "æĭ¥": 2166,
      "åĲĥ": 2167,
      "æĿİ": 2168,
      "è¸": 2169,
      "éĥ½æĺ¯": 2170,
      "å°¾": 2171,
      "èĭ±è¯Ń": 2172,
      "Ġ7": 2173,
      "ç¬¬äºĮ": 2174,
      "ish": 2175,
      "ine": 2176,
      "ç¨ĭåºı": 2177,
      "èį·": 2178,
      "åĺī": 2179,
      "éĢłæĪĲ": 2180,
      "æĹ©": 2181,
      "è®¨": 2182,
      "è¿ĲåĬ¨": 2183,
      "02": 2184,
      "æĹ¥æľŁ": 2185,
      "å¸Į": 2186,
      "ç¼ĺ": 2187,
      "åľ°åĿĢ": 2188,
      "ä¸ĥ": 2189,
      "iz": 2190,
      "sk": 2191,
      "éĻįä½İ": 2192,
      "ç»ĺ": 2193,
      "æ¦Ĥ": 2194,
      "åĪ¶åĵģ": 2195,
      "ç²¾åº¦": 2196,
      "æĪĸèĢħ": 2197,
      "æ¶²åİĭ": 2198,
      "æ³ī": 2199,
      "è¾¾åĪ°": 2200,
      "åķĨåĵģ": 2201,
      "Ġstring": 2202,
      "å®ĺæĸ¹": 2203,
      "æĪĲæľ¬": 2204,
      "çĻ»å½ķ": 2205,
      "âĪł": 2206,
      "åİ¨": 2207,
      "è´¢": 2208,
      "æĤ¨çļĦä½įç½®": 2209,
      "çĽĲ": 2210,
      "Ġby": 2211,
      "åłĤ": 2212,
      "ä½Ĩæĺ¯": 2213,
      "ist": 2214,
      "èĩªçĦ¶": 2215,
      "åĿı": 2216,
      "ä¸ĵçĶ¨": 2217,
      "æĭ·": 2218,
      "çŃĶ": 2219,
      "Ġå°ı": 2220,
      "è§Ħæł¼": 2221,
      "ç¼ģ": 2222,
      "ç´«": 2223,
      "åŃ¦ä¹ł": 2224,
      "åĽĽå·Ŀ": 2225,
      "äºķ": 2226,
      "Ġ2020": 2227,
      "æ°¨": 2228,
      "èĢĥè¯ķ": 2229,
      "Ġ[\"": 2230,
      "åľ¾": 2231,
      "æĮĤ": 2232,
      "è®¿éĹ®": 2233,
      "éŁ³ä¹Ĳ": 2234,
      "æĭį": 2235,
      "çĶŁa": 2236,
      "ä»¤": 2237,
      "\"]=>": 2238,
      "çļĦæĺ¯": 2239,
      "æĺĮ": 2240,
      "å¿ħé¡»": 2241,
      "ä¾§": 2242,
      "ãĦ¥": 2243,
      "å±Ĭ": 2244,
      "æ£®": 2245,
      "å¹¿ä¸ľ": 2246,
      "æ·»": 2247,
      "æħ§": 2248,
      "åŀĥ": 2249,
      "åĩĢåĮĸ": 2250,
      "è¯Ħè®º": 2251,
      "æĿĲè´¨": 2252,
      "Ġz": 2253,
      "åŀĥåľ¾": 2254,
      "åĪļ": 2255,
      "å¹¿åĳĬ": 2256,
      "88": 2257,
      "åĿĬ": 2258,
      "å¤§åŀĭ": 2259,
      "æĬĢg": 2260,
      "éĤ£ä¹Ī": 2261,
      "çĶµåĬĽ": 2262,
      "ç§ģ": 2263,
      "åľ£": 2264,
      "åı¯éĿł": 2265,
      "æĬ¤æłı": 2266,
      "æĶ»": 2267,
      "åĮ»çĸĹ": 2268,
      "æľ«": 2269,
      "æį·": 2270,
      "ç§ĳåŃ¦": 2271,
      "Ġit": 2272,
      "æ¯ķ": 2273,
      "Ġ)": 2274,
      "ä¸½": 2275,
      "pr": 2276,
      "éħįç½®": 2277,
      "æ°´å¹³": 2278,
      "æµģéĩıè®¡": 2279,
      "çº¤ç»´": 2280,
      "æĬĺ": 2281,
      "åŃĺåľ¨": 2282,
      "éĶĮ": 2283,
      "è£Ĥ": 2284,
      "art": 2285,
      "Ġ//": 2286,
      "æĿ¥æºĲ": 2287,
      "èĥ½æºĲ": 2288,
      "ç½ĳç«Ļé¦ĸé¡µ": 2289,
      "ai": 2290,
      "æ´Ľ": 2291,
      "æĥł": 2292,
      "åĽºå®ļ": 2293,
      "é¦Ļæ¸¯": 2294,
      "age": 2295,
      "ä»»ä½ķ": 2296,
      "éĶ¡": 2297,
      "âĨ": 2298,
      "çĶŁäº§åİĤå®¶": 2299,
      "ä¼´": 2300,
      "é£İæł¼": 2301,
      "èİ·å¾Ĺ": 2302,
      "2019": 2303,
      "åĲ¬": 2304,
      "ä¼ģi": 2305,
      "âĳ": 2306,
      "åįķä½į": 2307,
      "çĶ·": 2308,
      "å©ļ": 2309,
      "åį°åĪ·": 2310,
      "é©±": 2311,
      "åħ¶å®ĥ": 2312,
      "å¤ļå°ĳ": 2313,
      "åĨł": 2314,
      "ä¸ºäºĨ": 2315,
      "ith": 2316,
      "35": 2317,
      "èĭ¥": 2318,
      "åĲ¨": 2319,
      "åĮ»éĻ¢": 2320,
      "çĶµåĻ¨": 2321,
      "å¼¯": 2322,
      "99": 2323,
      "èĭĹ": 2324,
      "è¯¦ç»Ĩ": 2325,
      "å¯»": 2326,
      "è¯ķéªĮæľº": 2327,
      "ç«¹": 2328,
      "å®ĩ": 2329,
      "åĲ§": 2330,
      "eb": 2331,
      "çĸ«": 2332,
      "Ġ20": 2333,
      "ä¸įä¼ļ": 2334,
      "Ġäº§åĵģå±ķç¤º": 2335,
      "æĸ¤æĭ·": 2336,
      "ç¹": 2337,
      "æ´ĭ": 2338,
      "ight": 2339,
      "æµ®": 2340,
      "cm": 2341,
      "éħ¯": 2342,
      "çī©æĸĻ": 2343,
      "åįł": 2344,
      "æīĵåį°": 2345,
      "é¥ŃåºĹ": 2346,
      "éĶħçĤī": 2347,
      "æĪĲéĥ½": 2348,
      "å¤©æ´¥": 2349,
      "ç¹ģ": 2350,
      "åħ¶ä¸Ń": 2351,
      "æ¢¯": 2352,
      "ug": 2353,
      "å¾ħ": 2354,
      "æĺŁæľŁ": 2355,
      "èĢĮä¸Ķ": 2356,
      "ss": 2357,
      "ãĥ»": 2358,
      "é¢Ŀ": 2359,
      "å°½": 2360,
      "2017": 2361,
      "éħĴåºĹ": 2362,
      "å®¹æĺĵ": 2363,
      "åĪĨéĴŁ": 2364,
      "äº²": 2365,
      ")ãĢģ": 2366,
      "éŁ©": 2367,
      "ç»§": 2368,
      "ä¸Ĭä¸ĢæĿ¡": 2369,
      "è±Ĩ": 2370,
      "é¢Ĺ": 2371,
      "éĻ¶çĵ·": 2372,
      "æµİ": 2373,
      "æĢ¥": 2374,
      "ç»Ħç»ĩ": 2375,
      "Ġse": 2376,
      "ä¸ĭä¸ĢæĿ¡": 2377,
      "äº§åĵģä¸Ńå¿ĥ": 2378,
      "ä¹ĭéĹ´": 2379,
      "å®īå¾½": 2380,
      "ç¬¦åĲĪ": 2381,
      "ä¸įæĺ¯": 2382,
      "è®¾å¤ĩæľīéĻĲåħ¬åı¸": 2383,
      "å¾ģ": 2384,
      "æľºæŀĦ": 2385,
      "åİŁçĲĨ": 2386,
      "ew": 2387,
      "åŁºéĩĳ": 2388,
      "ä¹ħ": 2389,
      "ä¼¤": 2390,
      "æİĪ": 2391,
      "åħįè´¹": 2392,
      "éģ¿åħį": 2393,
      "æĻ®éĢļ": 2394,
      "éŀĭ": 2395,
      "å¤ľ": 2396,
      "çī§": 2397,
      "è¯¯": 2398,
      "å¯¿åĳ½": 2399,
      "äº§ä¸ļ": 2400,
      "Ġan": 2401,
      "çĵ¶": 2402,
      "æµģç¨ĭ": 2403,
      "æ±¡æŁĵ": 2404,
      "è¯´æĺİ": 2405,
      ")ãĢĤ": 2406,
      "éĺ²æĬ¤": 2407,
      "éĻĪ": 2408,
      "Ġé«ĺ": 2409,
      "åĬ¨åĬĽ": 2410,
      "éļĲ": 2411,
      "éĢĤåĲĪ": 2412,
      "å¹´åº¦": 2413,
      "æķħéļľ": 2414,
      "çĮª": 2415,
      "å¯Ł": 2416,
      "åŃ©": 2417,
      "åħ¨çĲĥ": 2418,
      "æµª": 2419,
      "åĩıå°ĳ": 2420,
      "çĶ³è¯·": 2421,
      "åĦ¿ç«¥": 2422,
      "ç§Ģ": 2423,
      "ç²¾å¯Ĩ": 2424,
      "èĪŀ": 2425,
      "éĿ¢ç§¯": 2426,
      "æĿŁ": 2427,
      "äº¤æµģ": 2428,
      "æī©": 2429,
      "çģĮ": 2430,
      "å¼Ģå§ĭ": 2431,
      "è°±": 2432,
      "æľīæľº": 2433,
      "æĤŃ": 2434,
      "ĠæľĢ": 2435,
      "åĪĨäº«": 2436,
      "Ġcon": 2437,
      "è½»æĿ¾": 2438,
      "æĪĲåĬŁ": 2439,
      "å½¢æĪĲ": 2440,
      "ä½ľä¸ļ": 2441,
      "å¾ª": 2442,
      "åĬŀåħ¬": 2443,
      "èħ¾": 2444,
      "ä¼łç»Ł": 2445,
      "æĹ§": 2446,
      "æŃ£å¸¸": 2447,
      "çºª": 2448,
      "åĻ¨çļĦ": 2449,
      "èĪ¹": 2450,
      "çł´ç¢İ": 2451,
      "æ»¡è¶³": 2452,
      "min": 2453,
      "åªĴ": 2454,
      "å¾ĭ": 2455,
      "æŁĲ": 2456,
      "è·¨": 2457,
      "èĴĻ": 2458,
      "æĸĹ": 2459,
      "ç³ĸ": 2460,
      "æľ¬æĸĩ": 2461,
      "çĩ¥": 2462,
      "45": 2463,
      "é¢ľèī²": 2464,
      "Ġus": 2465,
      "éº»": 2466,
      "è·Ł": 2467,
      "å§Ķ": 2468,
      "åĬłçĥŃ": 2469,
      "ity": 2470,
      "cc": 2471,
      "èĢ³": 2472,
      "åıī": 2473,
      "çĶ¨éĢĶ": 2474,
      "ä¸ģ": 2475,
      "é½Ĳ": 2476,
      "Ðº": 2477,
      "åĨĽ": 2478,
      "é²ľ": 2479,
      "Ġbe": 2480,
      "éľ²": 2481,
      "çļĦäºº": 2482,
      "èİŀ": 2483,
      "è¿Ļç§į": 2484,
      "æĤ¨å½ĵåīį": 2485,
      "Ġif": 2486,
      "ä¼ļè®®": 2487,
      "è´Ŀ": 2488,
      "è¿Ĳè¾ĵ": 2489,
      "çħ§æĺİ": 2490,
      "å¤ªéĺ³": 2491,
      "åĨ·åį´": 2492,
      "ass": 2493,
      "æŃ£åľ¨": 2494,
      "åĪĽæĸ°": 2495,
      "è¿ĺæĺ¯": 2496,
      "æ¢¦": 2497,
      "æĩ": 2498,
      "äºĮæīĭ": 2499,
      "æĤ£": 2500,
      "å·§": 2501,
      "ive": 2502,
      "åį±": 2503,
      "ue": 2504,
      "500": 2505,
      "èĩªåĬ¨åĮĸ": 2506,
      "').": 2507,
      "Ġcom": 2508,
      "èĢĲç£¨": 2509,
      "èĻ«": 2510,
      "æ¡Ĩ": 2511,
      "ore": 2512,
      "å¹¼": 2513,
      "éĶŁ": 2514,
      "éĻ¤å°ĺ": 2515,
      "çİ°ä»£": 2516,
      "çĶ¨çļĦ": 2517,
      "æ¡ĥ": 2518,
      "æĺ¯ä»Ģä¹Ī": 2519,
      "å¥¥": 2520,
      "æ¤įçī©": 2521,
      "phone": 2522,
      "çªģ": 2523,
      "é¸¡": 2524,
      "å®¸": 2525,
      "è½¨": 2526,
      "unction": 2527,
      "ud": 2528,
      "é«ĺçļĦ": 2529,
      "è¿ĶåĽŀ": 2530,
      "éĥĳ": 2531,
      "ä¼ĺåĬ¿": 2532,
      "çĦ¶åĲİ": 2533,
      "????": 2534,
      "éĤ¦": 2535,
      "åīª": 2536,
      "åħ³éĶ®è¯į": 2537,
      "æ¹ĸåįĹ": 2538,
      "ä¸Ģæ¬¡": 2539,
      "mè¡Į": 2540,
      "æ¯«": 2541,
      "è¤": 2542,
      "ä»ĺ": 2543,
      "Ġä¸į": 2544,
      "Ð°": 2545,
      "of": 2546,
      "æıı": 2547,
      "åĴ¨": 2548,
      "çī¹åĪ«": 2549,
      "åĵģè´¨": 2550,
      "pc": 2551,
      "éª¨": 2552,
      "Ġ]": 2553,
      "å¼Ģåħ³": 2554,
      "ä¿ĿæĮģ": 2555,
      "éĺ²æŃ¢": 2556,
      "èĻ¹": 2557,
      "å¤«": 2558,
      "ä¸ĭä¸Ģä¸ª": 2559,
      "ack": 2560,
      "æĬ½": 2561,
      "æ¡Į": 2562,
      "å¹²çĩ¥": 2563,
      "æ¨¡åĿĹ": 2564,
      "èħĲèļĢ": 2565,
      "ä½ĵéªĮ": 2566,
      "æ°Ł": 2567,
      "åŀĭåı·": 2568,
      "é«ĺéĢŁ": 2569,
      "æ´¾": 2570,
      "è¹": 2571,
      "å®¿": 2572,
      "æŁĶ": 2573,
      "åĵĦ": 2574,
      "æĭĨ": 2575,
      "ä¸įåĲĮçļĦ": 2576,
      "è§£åĨ³æĸ¹æ¡Ī": 2577,
      "end": 2578,
      "ç§ĭ": 2579,
      "ix": 2580,
      "pt": 2581,
      "æīĢåľ¨": 2582,
      "å¹¶ä¸Ķ": 2583,
      "Ġle": 2584,
      "æ¤ħ": 2585,
      "æĹłç¼Ŀ": 2586,
      "300": 2587,
      "æ¶Ķ": 2588,
      "ly": 2589,
      "ãĦ¦": 2590,
      "rom": 2591,
      "æ·»åĬł": 2592,
      "ç»ĦæĪĲ": 2593,
      "ä¸Ģä¸ĭ": 2594,
      "åģı": 2595,
      "å¸®åĬ©": 2596,
      "çĶŁäº§çº¿": 2597,
      "åĹ": 2598,
      "æķ´ä½ĵ": 2599,
      "èģĶç½ĳ": 2600,
      "èª": 2601,
      "åı°æ¹¾": 2602,
      "æµĵ": 2603,
      "åıĳçİ°": 2604,
      "ain": 2605,
      "æ¢ħ": 2606,
      "è°·": 2607,
      "éĵº": 2608,
      "Ġåľ¨": 2609,
      "è´£ä»»": 2610,
      "ç½ĳé¡µ": 2611,
      "ak": 2612,
      "ck": 2613,
      "ä»ĸä»¬": 2614,
      "Ġvar": 2615,
      "æĸ°åŀĭ": 2616,
      "ä¸Ĭä¸Ģä¸ª": 2617,
      "æ°¯": 2618,
      "çī¹æĢ§": 2619,
      "æĻ¯è§Ĥ": 2620,
      "è¶£": 2621,
      "ide": 2622,
      "æµ¼": 2623,
      "çļĦä½¿çĶ¨": 2624,
      "è·º": 2625,
      "æī¾åĪ°": 2626,
      "çĬ¶æĢģ": 2627,
      "è´¸": 2628,
      "ps": 2629,
      "åĽ½å¤ĸ": 2630,
      "ice": 2631,
      "ame": 2632,
      "çĽĳæİ§": 2633,
      "è¿ª": 2634,
      "æĶ¿åºľ": 2635,
      "æ°¢": 2636,
      "åĬŁçİĩ": 2637,
      "ata": 2638,
      "é«ĺåº¦": 2639,
      "è´Ńä¹°": 2640,
      "çĶµæ°Ķ": 2641,
      "ost": 2642,
      "æ®Ĭ": 2643,
      "æ·±åľ³å¸Ĥ": 2644,
      "Ġex": 2645,
      "çĦ¦": 2646,
      "æĤ¨çİ°åľ¨": 2647,
      "æ¯ĶèµĽ": 2648,
      "ç¼ĸè¾ĳ": 2649,
      "éĶŁæĸ¤æĭ·": 2650,
      "æ¶Īè´¹": 2651,
      "è¾ĵåĩº": 2652,
      "åıĳè¡¨": 2653,
      "éĹ²": 2654,
      "çģı": 2655,
      "æĬ¥åĳĬ": 2656,
      "æī£": 2657,
      "()": 2658,
      "Ð¸": 2659,
      "è¯Ńè¨Ģ": 2660,
      "å½Ĵ": 2661,
      "çłĶåıĳ": 2662,
      "å»ºè®®": 2663,
      "çĭŀ": 2664,
      "ook": 2665,
      "è¾ħ": 2666,
      "çĽŁ": 2667,
      "å°ıæĹ¶": 2668,
      "ver": 2669,
      "æĿŃ": 2670,
      "ä¸ľèİŀ": 2671,
      "Ġ<": 2672,
      "é©¾": 2673,
      "ä¸Ģç§į": 2674,
      "ç¬¬ä¸ī": 2675,
      "æ¡´": 2676,
      "ä»ªè¡¨": 2677,
      "Ġ200": 2678,
      "åĶĲ": 2679,
      "éļĨ": 2680,
      "åķĨä¸ļ": 2681,
      "æĪĲä¸º": 2682,
      "è®¾æĸ½": 2683,
      "ower": 2684,
      "äºī": 2685,
      "gb": 2686,
      "éĽĦ": 2687,
      "çĶµç£ģ": 2688,
      "æ¯Ľ": 2689,
      "èªī": 2690,
      "æĹłæ³ķ": 2691,
      "éĩİ": 2692,
      "æķ°æİ§": 2693,
      "ç©ºè°ĥ": 2694,
      "äº§åĵģå±ķç¤º": 2695,
      "2016": 2696,
      "æĲ½": 2697,
      "æĲħ": 2698,
      "çİ»çĴĥéĴ¢": 2699,
      "æŁ´": 2700,
      "çīĪæĿĥ": 2701,
      "åĨ¬": 2702,
      "åĩ¯": 2703,
      "è¯º": 2704,
      "åĪ¸": 2705,
      "éĢļçŁ¥": 2706,
      "è¿½": 2707,
      "æłĳèĦĤ": 2708,
      "te": 2709,
      "ä¼łå¥ĩ": 2710,
      "éĽ¾": 2711,
      "æĽ´åĬł": 2712,
      "åĮĢ": 2713,
      "Ġåħ¨": 2714,
      "æĪĳä»¬çļĦ": 2715,
      "éĥ¨ä»¶": 2716,
      "éĻĨ": 2717,
      "èĥľ": 2718,
      "è°¢": 2719,
      "ä¼ļåĳĺ": 2720,
      "çĴģ": 2721,
      "ç¡®ä¿Ŀ": 2722,
      "èĪĴ": 2723,
      "åıĺåĮĸ": 2724,
      "åĬ³": 2725,
      "çĨĶ": 2726,
      "Ġwith": 2727,
      "åºĶè¯¥": 2728,
      "çĮ«": 2729,
      "é©±åĬ¨": 2730,
      "å¾ĹåĪ°": 2731,
      "æ½Ń": 2732,
      "å®ŀéĻħ": 2733,
      "è·³": 2734,
      "æ¬¡æķ°": 2735,
      "è±ª": 2736,
      "ÑĢ": 2737,
      "æ±¤": 2738,
      "ä¸Ģèµ·": 2739,
      "lå±ķ": 2740,
      "èĽĭ": 2741,
      "ä»ģ": 2742,
      "èģĮä¸ļ": 2743,
      "æĿĢ": 2744,
      "åĽłç´ł": 2745,
      "çŁ¥éģĵ": 2746,
      "ç¤¾ä¼ļ": 2747,
      "out": 2748,
      "æ¾³": 2749,
      "ies": 2750,
      "å¸¸è§ģ": 2751,
      "ä¸ĭä¸Ģé¡µ": 2752,
      "æĸ¹åĲĳ": 2753,
      "cæ¢°": 2754,
      "æĬ¥ä»·": 2755,
      "æĸ¹éĥ½": 2756,
      "éĢĢ": 2757,
      "31": 2758,
      "ç®Ģä»ĭ": 2759,
      "é¢Ĺç²Ĵ": 2760,
      "Ġad": 2761,
      "äºĭé¡¹": 2762,
      "ä¿Ŀåħ»": 2763,
      "Ġäºº": 2764,
      "ä¸Ļ": 2765,
      "æ··åĲĪ": 2766,
      "åĢį": 2767,
      "du": 2768,
      "éĵ¶è¡Į": 2769,
      "ç»ĦåĲĪ": 2770,
      "æĻļ": 2771,
      "è¾Ĩ": 2772,
      "åį«çĶŁ": 2773,
      "çīĪæľ¬": 2774,
      "éĳ": 2775,
      "éĳ«": 2776,
      "ment": 2777,
      "ick": 2778,
      "èİ±": 2779,
      "çī¹æ®Ĭ": 2780,
      "éĩıçļĦ": 2781,
      "æĤ¨å½ĵåīįçļĦä½įç½®": 2782,
      "åĮºåŁŁ": 2783,
      "ç»ĵåĲĪ": 2784,
      "å¯¼èĩ´": 2785,
      "æĮ¯åĬ¨": 2786,
      "ãĥ¥": 2787,
      "âĨĴ": 2788,
      "è°Ī": 2789,
      "å¼Ģå±ķ": 2790,
      "è°ĥèĬĤ": 2791,
      "ä»¿": 2792,
      "æĺ¯ä¸Ģç§į": 2793,
      "lish": 2794,
      "è°ĥæķ´": 2795,
      "Ġ&": 2796,
      "ese": 2797,
      "ĠåįĹ": 2798,
      "log": 2799,
      "48": 2800,
      "å¤ĦçĲĨè®¾å¤ĩ": 2801,
      "å°ıåŀĭ": 2802,
      "å½¢å¼ı": 2803,
      "éĿ¢çļĦ": 2804,
      "ä¸ļåĬ¡": 2805,
      "Ġfr": 2806,
      "æľĢåĲİ": 2807,
      "Ġun": 2808,
      "æĸ°çļĦ": 2809,
      "åĵ¥": 2810,
      "ç½©": 2811,
      "ç°¿": 2812,
      "æµ´": 2813,
      "ä¹ĭåĲİ": 2814,
      "éĩĩè´Ń": 2815,
      "æºª": 2816,
      "sc": 2817,
      "æĿ¥çļĦ": 2818,
      "åıįåºĶ": 2819,
      "åİĭç¼©": 2820,
      "åĻª": 2821,
      "éĶ¦": 2822,
      "ä¿¡åı·": 2823,
      "ant": 2824,
      "åĲĦæĸ¹éĥ½": 2825,
      "åħ±æľīåĽĽä¸ª": 2826,
      "Ġæĸ°éĹ»": 2827,
      "åĲĦæĸ¹éĥ½æľīåĽĽä¸ª": 2828,
      "ä»¥ä¸Ĭé¥ŃåºĹ": 2829,
      "åĲĦæĸ¹éĥ½æľīåĽĽä¸ªä»¥ä¸Ĭé¥ŃåºĹ": 2830,
      "åħ±æľīåĽĽä¸ªåĽĽ": 2831,
      "åĲĦæĸ¹éĥ½æľīåĽĽä¸ªä»¥ä¸Ĭé¥ŃåºĹåħ±æľīåĽĽä¸ªåĽĽ": 2832,
      "vc": 2833,
      "é¸¿": 2834,
      "è¥¿å®ī": 2835,
      "åĲĦæĸ¹éĥ½æľīåĽĽä¸ªä»¥ä¸Ĭé¥ŃåºĹåħ±æľīåĽĽä¸ªåĽĽåĲĦæĸ¹éĥ½æľīåĽĽä¸ªä»¥ä¸Ĭé¥ŃåºĹåħ±æľīåĽĽä¸ªåĽĽ": 2836,
      "ext": 2837,
      "ä»Ĭå¤©": 2838,
      "åįĪ": 2839,
      "å®ı": 2840,
      "çĤŃ": 2841,
      "å¼±": 2842,
      "æĿ¨": 2843,
      "è®¤è¯ģ": 2844,
      "åĽ¢éĺŁ": 2845,
      "ç³»y": 2846,
      "åĨ»": 2847,
      "æľĭ": 2848,
      "æĲħæĭĮ": 2849,
      "åį¸": 2850,
      "âī": 2851,
      "é¼ĵ": 2852,
      "å¤©æ°Ķ": 2853,
      "åĩºç§Ł": 2854,
      "æĭ¥æľī": 2855,
      "æĲ¬": 2856,
      "æĭĵ": 2857,
      "ard": 2858,
      "åı¥": 2859,
      "å¤©çĦ¶": 2860,
      "åĲĪçĲĨ": 2861,
      "èĬĤèĥ½": 2862,
      "ite": 2863,
      "ä¸Ĭä¸Ģé¡µ": 2864,
      "æ¡¶": 2865,
      "æĲ´": 2866,
      "éģĩ": 2867,
      "Ġä¸ĭä¸Ģç¯ĩ": 2868,
      "æ¨ª": 2869,
      "ma": 2870,
      "ç¨¿": 2871,
      "æŃ»": 2872,
      "ill": 2873,
      "ç¼¸": 2874,
      "çŁ©": 2875,
      "çĽĳæµĭ": 2876,
      "è½¦éĹ´": 2877,
      "åħĥç´ł": 2878,
      "ç¼ĵ": 2879,
      "ĠæĹł": 2880,
      "åĿ¡": 2881,
      "co": 2882,
      "æĺĨ": 2883,
      "Ġwh": 2884,
      "æ²Ł": 2885,
      "oun": 2886,
      "Ġä¸ª": 2887,
      "=\"": 2888,
      "åįĩéĻį": 2889,
      "æīįèĥ½": 2890,
      "å¹¿å·ŀ": 2891,
      "38": 2892,
      "èĩªå·±çļĦ": 2893,
      "åĳĺå·¥": 2894,
      "æĪª": 2895,
      "èµģ": 2896,
      "è¿·": 2897,
      "df": 2898,
      "é«ĺæķĪ": 2899,
      "æħ¢": 2900,
      "ç¾İåĽ½": 2901,
      "ç§Łèµģ": 2902,
      "æī§è¡Į": 2903,
      "æĶ¯åº§": 2904,
      "æŃ¦æ±ī": 2905,
      "ä¼¼": 2906,
      "èĿ": 2907,
      "çĴĩ": 2908,
      "ä½ĵç³»": 2909,
      "çĶµåİĭ": 2910,
      "æ²ī": 2911,
      "æģ©": 2912,
      "Ġ::": 2913,
      "å·¥ç¨ĭæľīéĻĲåħ¬åı¸": 2914,
      "åĿļ": 2915,
      "english": 2916,
      "çģ¾": 2917,
      "éĶŁæĸ¤æĭ·éĶŁæĸ¤æĭ·": 2918,
      "æĢ§çļĦ": 2919,
      "çŃĭ": 2920,
      "ĠæĪĳ": 2921,
      "æĲº": 2922,
      "æ¹ĸåĮĹ": 2923,
      "æİª": 2924,
      "ok": 2925,
      "çģŃ": 2926,
      "å¹ħ": 2927,
      "çŁ³æ²¹": 2928,
      "å¸ĮæľĽ": 2929,
      "Ġdis": 2930,
      "åį§": 2931,
      "çĶµå½±": 2932,
      "æķı": 2933,
      "æĹĹ": 2934,
      "éĿĴå²Ľ": 2935,
      "è¦Ĩ": 2936,
      "èģĬ": 2937,
      "å¯®": 2938,
      "æ»¨": 2939,
      "éŃĶ": 2940,
      "å¤ļç§į": 2941,
      "éĴ¢æĿ¿": 2942,
      "ä¹Ļçĥ¯": 2943,
      "ty": 2944,
      "è´Ńçī©": 2945,
      "éģĵè·¯": 2946,
      "ä¸¹": 2947,
      "å®ħ": 2948,
      "éº¦": 2949,
      "å»ºæĿĲ": 2950,
      "łæĤŃ": 2951,
      "90": 2952,
      "èŀºæĹĭ": 2953,
      "åī¯": 2954,
      "æ°²": 2955,
      "æ²Ī": 2956,
      "çĶµè§Ĩ": 2957,
      "è¯ļ": 2958,
      "çĶµæµģ": 2959,
      "%,": 2960,
      "çĶĺ": 2961,
      "ç°§": 2962,
      "çļĦåľ°": 2963,
      "ä¿ĥ": 2964,
      "è·ĳ": 2965,
      "æ¨¡åŀĭ": 2966,
      "è¾ĵåħ¥": 2967,
      "ox": 2968,
      "åŁºåľ°": 2969,
      "çĨŁ": 2970,
      "çĴĲ": 2971,
      "70": 2972,
      "Ġåħ¬åı¸": 2973,
      "åĴ¨è¯¢": 2974,
      "Ġ$('": 2975,
      "ãĦ§": 2976,
      "ä½İæ¸©": 2977,
      "è¡¨ç¤º": 2978,
      "å¾ªçİ¯": 2979,
      "ä¼ĺè´¨": 2980,
      "éĢĲ": 2981,
      "ba": 2982,
      "äºĳåįĹ": 2983,
      "\").": 2984,
      "éªŀ": 2985,
      "æĳĺ": 2986,
      "èī¯å¥½çļĦ": 2987,
      "å¢ħ": 2988,
      "ä»£è¡¨": 2989,
      "æµĭå®ļ": 2990,
      "æĢİä¹Īçľĭ": 2991,
      "indow": 2992,
      "br": 2993,
      "ure": 2994,
      "å®¡": 2995,
      "åıĳçĶµæľº": 2996,
      "Ġ?": 2997,
      "ä½ĵä¸Ńæĸĩ": 2998,
      "è¯¦æĥħ": 2999,
      "é¡¾": 3000,
      "ect": 3001,
      "æĿ°": 3002,
      "åŃ©åŃĲ": 3003,
      "æĬ±": 3004,
      "ç»¿èī²": 3005,
      "äººçļĦ": 3006,
      "ä»İèĢĮ": 3007,
      "Ġä¸Ģ": 3008,
      "Ġhe": 3009,
      "æ°ı": 3010,
      "éĿ©": 3011,
      "æĸľ": 3012,
      "çļĦäº§åĵģ": 3013,
      "ä¼ĺçĤ¹": 3014,
      "åºĶçĶ¨äºİ": 3015,
      "å®Įåħ¨": 3016,
      "å·¥åİĤ": 3017,
      "æ´»æĢ§": 3018,
      "åĤ¬": 3019,
      "çī©æµģ": 3020,
      "ç»©": 3021,
      "èĢĥèĻĳ": 3022,
      "ä¹ĭä¸Ģ": 3023,
      "æĤ¨çİ°åľ¨çļĦä½įç½®": 3024,
      "å·¦åı³": 3025,
      "ina": 3026,
      "çĽ¸ç°¿": 3027,
      "çŁ³æĿĲ": 3028,
      "çĶŁæĢģ": 3029,
      "è¿Ľåı£": 3030,
      "åĪĨä¸º": 3031,
      "æĮĳ": 3032,
      "Ġor": 3033,
      "ial": 3034,
      "æľĿ": 3035,
      "ä»į": 3036,
      "âĢ¦âĢ¦": 3037,
      "è®¨è®º": 3038,
      "è·Ŀç¦»": 3039,
      "éĺ¶": 3040,
      "åĨħéĥ¨": 3041,
      "ng": 3042,
      "Ġå¹´": 3043,
      "å±±å¸Ĥ": 3044,
      "de": 3045,
      "çļĩ": 3046,
      "åĩ¤": 3047,
      "è§£éĶģ": 3048,
      "çºº": 3049,
      "éĩĬ": 3050,
      "äº§åĵģçļĦ": 3051,
      "åħ¨åĽ½": 3052,
      "éķĢéĶĮ": 3053,
      "æĬĽ": 3054,
      "æķ¦": 3055,
      "æľĢå¤§": 3056,
      "è¶ħè¿ĩ": 3057,
      "åįĩçº§": 3058,
      "åħ¨èĩªåĬ¨": 3059,
      "æĭ¿": 3060,
      "æĦ¿": 3061,
      "å¹»": 3062,
      "éĶĭ": 3063,
      "act": 3064,
      "Ġro": 3065,
      "è¯ĳ": 3066,
      "æİ¥è§¦": 3067,
      "ode": 3068,
      "å¤§å°ı": 3069,
      "çĥ¤": 3070,
      "Ġ11": 3071,
      "æī«": 3072,
      "åĩıéĢŁ": 3073,
      "è¿Ľåħ¥": 3074,
      "ä¼Ļ": 3075,
      "æīĵéĢł": 3076,
      "æ·ĩ": 3077,
      "éĢļå¸¸": 3078,
      "è¯Ĭ": 3079,
      "è¯Ħä»·": 3080,
      "ä¼¦": 3081,
      "ast": 3082,
      "ä¹³": 3083,
      "Ġä¸ī": 3084,
      "æķĳ": 3085,
      "åģ¿": 3086,
      "æľĭåıĭ": 3087,
      "å°¤": 3088,
      "æĻºæħ§": 3089,
      "æĵ¦": 3090,
      "è¿ĺæľī": 3091,
      "èĭ¯": 3092,
      "æĭħ": 3093,
      "Ġes": 3094,
      "æ¶¦æ»ĳ": 3095,
      "åĪĺ": 3096,
      "Ġ16": 3097,
      "åİŁæĸĻ": 3098,
      "å®¶å±ħ": 3099,
      "ä½łçļĦ": 3100,
      "æ£ļ": 3101,
      "è®¾å¤ĩçļĦ": 3102,
      "åĬłåħ¥": 3103,
      "Ġpl": 3104,
      "ä¸ĢæŃ¥": 3105,
      "ah": 3106,
      "åľ°æĿ¿": 3107,
      "for": 3108,
      "èĴ¸æ±½": 3109,
      "äººæ°ĳ": 3110,
      "å§Ĩ": 3111,
      "æĮ¡": 3112,
      "ä¸įæĸŃ": 3113,
      "55": 3114,
      "åº¦çļĦ": 3115,
      "Ġyou": 3116,
      "',": 3117,
      "36": 3118,
      "ç»ķ": 3119,
      "åĽŃæŀĹ": 3120,
      "æł¸å¿ĥ": 3121,
      "ä¸įéĶĪéĴ¢ç®¡": 3122,
      "mp": 3123,
      "æ¸Ĺ": 3124,
      "åĭĴ": 3125,
      "±ä¹Ĳ": 3126,
      "éĢĤçĶ¨": 3127,
      "æĽ¿": 3128,
      "Ġal": 3129,
      "è¿ĻéĩĮ": 3130,
      "åį³åı¯": 3131,
      "åİ¦": 3132,
      "åµ": 3133,
      "Ġæ°´": 3134,
      "æİĴæ°´": 3135,
      "net": 3136,
      "éħįå¥Ĺ": 3137,
      "ä¸įä»ħ": 3138,
      "ä½įäºİ": 3139,
      "è¾½": 3140,
      "æĿ¥è¯´": 3141,
      "è§ĦåĪĴ": 3142,
      "io": 3143,
      "):": 3144,
      "åľ°åĽ¾": 3145,
      "æĮīçħ§": 3146,
      "åİ¨æĪ¿": 3147,
      "æľºåĻ¨äºº": 3148,
      "ans": 3149,
      "èŁ": 3150,
      "ç§Ĵ": 3151,
      "æ¶²ä½ĵ": 3152,
      "æľµ": 3153,
      "ç»Łè®¡": 3154,
      "ç¯®": 3155,
      "ç¦»å¿ĥ": 3156,
      "Ġcl": 3157,
      "èµı": 3158,
      "è¡Įæĥħ": 3159,
      "int": 3160,
      "ä¸¤ä¸ª": 3161,
      "å®¶åºŃ": 3162,
      "åºĦ": 3163,
      "ä¸Ĭçº¿": 3164,
      "åİĨåı²": 3165,
      "æĤ¬": 3166,
      "çĲĽ": 3167,
      "åŁºäºİ": 3168,
      "Ðµ": 3169,
      "æĿŃå·ŀ": 3170,
      "èĭıå·ŀ": 3171,
      "åĪĨåŃĲ": 3172,
      "éĽĨæĪĲ": 3173,
      "æļĤ": 3174,
      "ä¼°": 3175,
      "çŀ": 3176,
      "åĲ¯åĬ¨": 3177,
      "çīĪæĿĥæīĢæľī": 3178,
      "åĨ¶": 3179,
      "éĤ¢": 3180,
      "æ°®": 3181,
      "æĺ¯åľ¨": 3182,
      "ä¸ļæľīéĻĲåħ¬åı¸": 3183,
      "æĪ·å¤ĸ": 3184,
      "ld": 3185,
      "åłµ": 3186,
      "æĭ¼": 3187,
      "åıĤèĢĥ": 3188,
      "Ġpr": 3189,
      "æĪ¿å±ĭ": 3190,
      "æİĮ": 3191,
      "åĪĽæĦı": 3192,
      "çĮ®": 3193,
      "æ¸ħæ´ģ": 3194,
      "æ³ķåħ°": 3195,
      "è½¦è¾Ĩ": 3196,
      "ä¸įåı¯": 3197,
      "é©¶": 3198,
      "Ġéĩĳ": 3199,
      "Ð¾": 3200,
      "ç¦»åŃĲ": 3201,
      "åĮĸçļĦ": 3202,
      "è§ĦèĮĥ": 3203,
      "Ġsu": 3204,
      "å·¨": 3205,
      "éĢļé£İ": 3206,
      "è¾¨": 3207,
      "Ġé¦ĸ": 3208,
      "æł·çļĦ": 3209,
      "æ¨¡æĭŁ": 3210,
      "åħ¬è·¯": 3211,
      "çĥŃéĹ¨": 3212,
      "åįĵ": 3213,
      "å§ĺ": 3214,
      "éĩįéĩı": 3215,
      "æĪĲåŀĭ": 3216,
      "();": 3217,
      "åıĺå½¢": 3218,
      "Ġ14": 3219,
      "æ¦ľ": 3220,
      "æ¶¨": 3221,
      "æĳ©çĺ": 3222,
      "åľ¨åĽ½å¤ĸ": 3223,
      "é¤Ĳåİħ": 3224,
      "æİªæĸ½": 3225,
      "å®ŀéªĮå®¤": 3226,
      "çĽ®æłĩ": 3227,
      "åĪĽå»º": 3228,
      "âĢķ": 3229,
      "åįıä¼ļ": 3230,
      "2014": 3231,
      "èĩªçĶ±": 3232,
      "éĵ¸éĵģ": 3233,
      "åĨľä¸ļ": 3234,
      "å®ĥçļĦ": 3235,
      "åħ·ä½ĵ": 3236,
      "æ£Ģæµĭä»ª": 3237,
      "éĢłåŀĭ": 3238,
      "Ġä¸ŃåĽ½": 3239,
      "pro": 3240,
      "å®ł": 3241,
      "åĪ«å¢ħ": 3242,
      "æłĵ": 3243,
      "æĶ¹éĢł": 3244,
      "æĳĦå½±": 3245,
      "æĹ¥å¸¸": 3246,
      "åĤ¬åĮĸ": 3247,
      "æİ§åĪ¶åĻ¨": 3248,
      "åħ³éĹŃ": 3249,
      "Ġ--": 3250,
      "åľ°åĿª": 3251,
      "ç§ĺ": 3252,
      "è¿ŀç»Ń": 3253,
      "ĠæľĪ": 3254,
      "ä»£çłģ": 3255,
      "å®Ī": 3256,
      "åĳĪ": 3257,
      "æ´ª": 3258,
      "å®ļä½į": 3259,
      "æĶ¶èĹı": 3260,
      "ç¥¥": 3261,
      "ÃĹ": 3262,
      "ræł¼": 3263,
      "åŁĭ": 3264,
      "çĻ»è®°": 3265,
      "è¡Įi": 3266,
      "èİ²": 3267,
      "å²Ĺ": 3268,
      "çİ¯æ°§": 3269,
      "ä¹ĭåīį": 3270,
      "æľºæ¢°æľīéĻĲåħ¬åı¸": 3271,
      "äº§åĵģåĲįç§°": 3272,
      "Ġpower": 3273,
      "å½±çīĩ": 3274,
      "çģŀ": 3275,
      "åĲ´": 3276,
      "è¯ģä¹¦": 3277,
      "39": 3278,
      "éĴĪå¯¹": 3279,
      "åħ³ç³»": 3280,
      "éĤ®": 3281,
      "åĳ¼": 3282,
      "è¿ĲçĶ¨": 3283,
      "æ½ľ": 3284,
      "åģļå¥½": 3285,
      "å±ķè§Ī": 3286,
      "çĶ¨åĵģ": 3287,
      "èĲ¨": 3288,
      "af": 3289,
      "ä»·åĢ¼": 3290,
      "åĿĩåĮĢ": 3291,
      "åĪ¤": 3292,
      "éĵħ": 3293,
      "ik": 3294,
      "åĪĨç¦»": 3295,
      "å¦Ĩ": 3296,
      "åŃĺåĤ¨": 3297,
      "èĥİ": 3298,
      "ä¼ĳéĹ²": 3299,
      "æĮ¥": 3300,
      "æĮĸ": 3301,
      "çĩĥçĥ§": 3302,
      "Ġ15": 3303,
      "çļĦå·¥ä½ľ": 3304,
      "34": 3305,
      "éĨĩ": 3306,
      "ä¸ĵå®¶": 3307,
      "åĿĲ": 3308,
      "å¤§åħ¨": 3309,
      "ell": 3310,
      "304": 3311,
      "æľįåĬ¡åĻ¨": 3312,
      "çī¹èī²": 3313,
      "å¹¿è¥¿": 3314,
      "æľªæĿ¥": 3315,
      "åħĪè¿Ľ": 3316,
      "ç¦ģ": 3317,
      "ä¸ĭéĿ¢": 3318,
      "æĪĳçļĦ": 3319,
      "æķĻå¸Ī": 3320,
      "å»ºç«ĭ": 3321,
      "ç»Ŀç¼ĺ": 3322,
      "åŀĤ": 3323,
      "gr": 3324,
      "çĥĺå¹²": 3325,
      "ize": 3326,
      "åıªæľī": 3327,
      "å¹³æĸ¹": 3328,
      "çĶµéĺ»": 3329,
      "èľĤ": 3330,
      "åĮħåĲ«": 3331,
      "ace": 3332,
      "æİī": 3333,
      "çļĦä½ľçĶ¨": 3334,
      "âĺ": 3335,
      "'s": 3336,
      "æł¼å¼ı": 3337,
      "çĳķ": 3338,
      "è¿Ļæĺ¯": 3339,
      "åıĹåĪ°": 3340,
      "çļĦé«ĺ": 3341,
      "èģĶç³»": 3342,
      "èĻļ": 3343,
      "ä»ĭè´¨": 3344,
      "æĴŀ": 3345,
      "åĬ¨çī©": 3346,
      "æĹłçº¿": 3347,
      "å¾·åĽ½": 3348,
      "å®¶åºĦ": 3349,
      "åĲĮæŃ¥": 3350,
      "æĳĨ": 3351,
      "è´§æŀ¶": 3352,
      "åħ¬åĽŃ": 3353,
      "32": 3354,
      "å¹³è¡¡": 3355,
      "æ³¨åĨĮ": 3356,
      "Ġåıĳå¸ĥ": 3357,
      "åĪĬ": 3358,
      "éĢīçĶ¨": 3359,
      "Ġnew": 3360,
      "ä¸įè¦ģ": 3361,
      "mo": 3362,
      "å®£ä¼ł": 3363,
      "åİļåº¦": 3364,
      "å¯Ĩåº¦": 3365,
      "è®¸å¤ļ": 3366,
      "çī©è´¨": 3367,
      "75": 3368,
      "æľīçļĦ": 3369,
      "æĮ¤": 3370,
      "æ¡¥æ¢ģ": 3371,
      "åħ¬åħ±": 3372,
      "é½¿è½®": 3373,
      "åŁŁåĲį": 3374,
      "Ġapp": 3375,
      "Ġä½ľèĢħ": 3376,
      "æĥħåĨµä¸ĭ": 3377,
      "éļĻ": 3378,
      "Ġas": 3379,
      "å®¾": 3380,
      "ä¼¸ç¼©": 3381,
      "è¡¬": 3382,
      "çļĦè®¾è®¡": 3383,
      "åĪº": 3384,
      "Ġåı°": 3385,
      "Ð½": 3386,
      "çŁ³å®¶åºĦ": 3387,
      "ä¼ĺåĮĸ": 3388,
      "are": 3389,
      "ä½¿çĶ¨çļĦ": 3390,
      "éĵĿåĲĪéĩĳ": 3391,
      "æķ´ä¸ª": 3392,
      "æ¶Īæ¯Ĵ": 3393,
      "éĴ¢ç»ĵæŀĦ": 3394,
      "ä¾ĽåºĶåķĨ": 3395,
      "æĥ§": 3396,
      "å»Ĭ": 3397,
      "æłĩå¿Ĺ": 3398,
      "åĢĴ": 3399,
      "çĽĨ": 3400,
      "ork": 3401,
      "ä¹Łåı¯ä»¥": 3402,
      "é²ģ": 3403,
      "æĿ¥èĩª": 3404,
      "ç¨ĭåº¦": 3405,
      "Ġfunction": 3406,
      "çĹĩ": 3407,
      "vs": 3408,
      "åīĳ": 3409,
      "ile": 3410,
      "åŁ¹åħ»": 3411,
      "è½»æĿ¾è§£åĨ³": 3412,
      "åĩºçļĦ": 3413,
      "æŁ´æ²¹": 3414,
      "èĦī": 3415,
      "ä¸Ģä½ĵåĮĸ": 3416,
      "æ±Łè¥¿": 3417,
      "çİ°è±¡": 3418,
      "ign": 3419,
      "ys": 3420,
      "æ³¨æĦıäºĭé¡¹": 3421,
      "ç²ª": 3422,
      "æķ¬": 3423,
      "æµħ": 3424,
      "æĬ¥èŃ¦": 3425,
      "ä¿Ŀéļľ": 3426,
      "åĩºåı£": 3427,
      "æĽ´æį¢": 3428,
      "åĽ½åĨħåºĶçĶ¨": 3429,
      "æ´ŀ": 3430,
      "èĨ¨": 3431,
      "æķ°éĩı": 3432,
      "çļĦæĹ¶åĢĻæıĲç¤º": 3433,
      "âĹı": 3434,
      "åľ¨åĽ½å¤ĸä½¿çĶ¨": 3435,
      "çĻ½èī²": 3436,
      "è½»æĿ¾è§£åĨ³åľ¨åĽ½å¤ĸä½¿çĶ¨": 3437,
      "å®ļçļĦ": 3438,
      "ĠæĺŁæľŁ": 3439,
      "éĽ¶ä»¶": 3440,
      "ome": 3441,
      "lc": 3442,
      "æķĻç¨ĭ": 3443,
      "åĽ½åĨħåºĶçĶ¨çļĦæĹ¶åĢĻæıĲç¤º": 3444,
      "è§£éĶģåĽ½åĨħåºĶçĶ¨çļĦæĹ¶åĢĻæıĲç¤º": 3445,
      "è½»æĿ¾è§£åĨ³åľ¨åĽ½å¤ĸä½¿çĶ¨è§£éĶģåĽ½åĨħåºĶçĶ¨çļĦæĹ¶åĢĻæıĲç¤º": 3446,
      "æĹĭè½¬": 3447,
      "æŃ£ç¡®": 3448,
      "æĬĢèĥ½": 3449,
      "ĠæĹ¥": 3450,
      "cu": 3451,
      "Ġph": 3452,
      "Ġ...": 3453,
      "ase": 3454,
      "ä¸²": 3455,
      "æ²»çĸĹ": 3456,
      "æµıè§ĪåĻ¨": 3457,
      "è£ħå¤ĩ": 3458,
      "æĽ¼": 3459,
      "æİ¥å¤´": 3460,
      "åłĨ": 3461,
      "èį£èªī": 3462,
      "iew": 3463,
      "æµİåįĹ": 3464,
      "æłħ": 3465,
      "åħħåĪĨ": 3466,
      "åıĬæĹ¶": 3467,
      "ge": 3468,
      "åĴĸ": 3469,
      "ire": 3470,
      "çĳĻ": 3471,
      "åİĭåĻ¨": 3472,
      "å¦Ī": 3473,
      "arch": 3474,
      "éĿĻçĶµ": 3475,
      "èĤ¤": 3476,
      "çĵľ": 3477,
      "è¾ĵéĢģæľº": 3478,
      "çĶľ": 3479,
      "ult": 3480,
      "æ²ĥ": 3481,
      "æĿ¿çļĦ": 3482,
      "åŀ®": 3483,
      "ç¦ıå»º": 3484,
      "äºĶéĩĳ": 3485,
      "rg": 3486,
      "è½¬æį¢": 3487,
      "ä»Ļ": 3488,
      "é¤Ĳé¥®": 3489,
      "æľºåºĬ": 3490,
      "çĽ¸å¯¹": 3491,
      "å¼¹ç°§": 3492,
      "æĳĺè¦ģ": 3493,
      "so": 3494,
      "èĸ°": 3495,
      "åħ¼": 3496,
      "å®Įæķ´": 3497,
      "åĩºåĶ®": 3498,
      "èĢģå¸Ī": 3499,
      "æľĢä½³": 3500,
      "æľīåħ³": 3501,
      "çĶµè·¯": 3502,
      "éĻ¤äºĨ": 3503,
      "åľ°éĿ¢": 3504,
      "å¾Ĳ": 3505,
      "çĢĽ": 3506,
      "æĮģç»Ń": 3507,
      "æµ©": 3508,
      "ä¸ºæĤ¨": 3509,
      "æ¬£": 3510,
      "Ġè¥¿": 3511,
      "åĨ²åĩ»": 3512,
      "ç¾İé£Ł": 3513,
      "å¤ĸè§Ĥ": 3514,
      "çĸĨ": 3515,
      "600": 3516,
      "ä¸»æľº": 3517,
      "çĤ¼": 3518,
      "ana": 3519,
      "éħįåĲĪ": 3520,
      "str": 3521,
      "Ġæµ·": 3522,
      "æł¡åĽŃ": 3523,
      "able": 3524,
      "éĢļçĶ¨": 3525,
      "Ġä¸ĭä¸Ģé¡µ": 3526,
      "åĸľæ¬¢": 3527,
      "çıį": 3528,
      "è¡¥åģ¿": 3529,
      "Ġser": 3530,
      "çĭ¬ç«ĭ": 3531,
      "èĥŀ": 3532,
      "æĹ¢": 3533,
      "æľĹ": 3534,
      "æ®ĸ": 3535,
      "åĵªå®¶": 3536,
      "æı¡": 3537,
      "ä¹Į": 3538,
      "åĿª": 3539,
      "dr": 3540,
      "å±ŀäºİ": 3541,
      "fr": 3542,
      "æ¸£": 3543,
      "ä¸ºä»Ģä¹Ī": 3544,
      "çĢµ": 3545,
      "æ°´ç®±": 3546,
      "olor": 3547,
      "æķ²": 3548,
      "ç¡ķ": 3549,
      "èģļæ°¨": 3550,
      "Ġat": 3551,
      "çĽ®çļĦ": 3552,
      "èĩŃ": 3553,
      "ĠæĬĢæľ¯": 3554,
      "lect": 3555,
      ")-": 3556,
      "æīĢå±ŀ": 3557,
      "èĥĢ": 3558,
      "cs": 3559,
      "é¦ĸåħĪ": 3560,
      "å¸¦æĿ¥": 3561,
      "æĢ§åĴĮ": 3562,
      "Ġthis": 3563,
      "ä¸Ĭå¸Ĥ": 3564,
      "èĹ": 3565,
      "æĪĴ": 3566,
      "åıł": 3567,
      "å¹¸": 3568,
      "æııè¿°": 3569,
      "çļĦéĹ®é¢ĺ": 3570,
      "åı«": 3571,
      "Ġ});": 3572,
      "33": 3573,
      "ink": 3574,
      "éĢıæĺİ": 3575,
      "åįģåĪĨ": 3576,
      "ĠåĴĮ": 3577,
      "æ£Ĵ": 3578,
      "çķĻè¨Ģ": 3579,
      "ç²®": 3580,
      "çŃīçº§": 3581,
      "px": 3582,
      "49": 3583,
      "Ġu": 3584,
      "ç³»ç»ŁçļĦ": 3585,
      "Ġæľ¬": 3586,
      "å¸ĸ": 3587,
      "æ²¿": 3588,
      "æĹ¶å°ļ": 3589,
      "äºĴèģĶç½ĳ": 3590,
      "ä¼ı": 3591,
      "cn": 3592,
      "åĩĨç¡®": 3593,
      "æ³³": 3594,
      "èħ¾è®¯": 3595,
      "pvc": 3596,
      "å¹¼åĦ¿": 3597,
      "çĶļ": 3598,
      "ç¬¼": 3599,
      "èĳ¡": 3600,
      "å¤ªéĺ³èĥ½": 3601,
      "äººä»¬": 3602,
      "åįĹäº¬": 3603,
      "this": 3604,
      "çĭĲ": 3605,
      "ç»§ç»Ń": 3606,
      "Ġ2018": 3607,
      "éĥĳå·ŀ": 3608,
      "åĲİçļĦ": 3609,
      "ç±»åĪ«": 3610,
      "æ·ĭ": 3611,
      "çĤİ": 3612,
      "éĩįçĤ¹": 3613,
      "ä»Ķ": 3614,
      "æĮĩåįĹ": 3615,
      "éĹª": 3616,
      "å¤ļåĬŁèĥ½": 3617,
      "2015": 3618,
      "èģļæ°¨éħ¯": 3619,
      "æ¥®": 3620,
      "çī©çĲĨ": 3621,
      "æŃī": 3622,
      "æŀĿ": 3623,
      "æĶ¿çŃĸ": 3624,
      "æķ°æį®åºĵ": 3625,
      "æ¶ĵæ¶ĵ": 3626,
      "Ġåħ±": 3627,
      "å¿¾": 3628,
      "å®Ĺ": 3629,
      "æ²Īéĺ³": 3630,
      "åı¦å¤ĸ": 3631,
      "é¸Ł": 3632,
      "æĺł": 3633,
      "é»ĺ": 3634,
      "å»ºo": 3635,
      "ãĥ¤": 3636,
      "äººå·¥": 3637,
      "å¤§åĪ©": 3638,
      "èĩĤ": 3639,
      "è´µå·ŀ": 3640,
      "1000": 3641,
      "èµ·éĩį": 3642,
      "èĻ½": 3643,
      "æĤ¼": 3644,
      "éĻķ": 3645,
      "val": 3646,
      "å±±è¥¿": 3647,
      "ç´¯": 3648,
      "46": 3649,
      "å¥¶": 3650,
      "çĸĳ": 3651,
      "ä¼łåĬ¨": 3652,
      "éŁ©åĽ½": 3653,
      "æľīä»Ģä¹Ī": 3654,
      "Ġä¸ľ": 3655,
      "å¹³éĿ¢": 3656,
      "ç¬ĳ": 3657,
      "èĤ¡ç¥¨": 3658,
      "è¯ĨåĪ«": 3659,
      "%ãĢĤ": 3660,
      "æīĵå¼Ģ": 3661,
      "æĢĢ": 3662,
      "å®ĺæĸ¹ç½ĳç«Ļ": 3663,
      "ÑĤ": 3664,
      "é»ĳèī²": 3665,
      "åıĤåĬł": 3666,
      "ç¡®å®ļ": 3667,
      "åĲīæŀĹ": 3668,
      "è·Į": 3669,
      "è®¾å®ļ": 3670,
      "Ġå¼ł": 3671,
      "å£¤": 3672,
      "éª¤": 3673,
      "éĺ³åħī": 3674,
      "Ġte": 3675,
      "è®ºæĸĩ": 3676,
      "è¯įåħ¸": 3677,
      "æĶ¯æŀ¶": 3678,
      "æľīéĻĲè´£ä»»": 3679,
      "Â°": 3680,
      "ail": 3681,
      "æ·¡": 3682,
      "çĥĪ": 3683,
      "Ġli": 3684,
      "æĿĲæĸĻæľīéĻĲåħ¬åı¸": 3685,
      "èı²": 3686,
      "37": 3687,
      "Ġ@": 3688,
      "éĩĳèŀį": 3689,
      "Ġenglish": 3690,
      "è£ģ": 3691,
      "å¥¹": 3692,
      "éĺĢéĹ¨": 3693,
      "å®¹åĻ¨": 3694,
      "æķ´å½¢": 3695,
      "per": 3696,
      "å¼¹æĢ§": 3697,
      "æı´": 3698,
      "Ġone": 3699,
      "ãĦ¤": 3700,
      "è¿ħ": 3701,
      "ach": 3702,
      "å§¹": 3703,
      "ä¸ĢçĽ´": 3704,
      "é¼İ": 3705,
      "ve": 3706,
      "Ġ$(\"": 3707,
      "åĩī": 3708,
      "å¦Ĥä¸ĭ": 3709,
      "äºŃ": 3710,
      "èĶ¬": 3711,
      "âĺħ": 3712,
      "èİ¹": 3713,
      "éģį": 3714,
      "æ·®": 3715,
      "we": 3716,
      "å¼§": 3717,
      "ç³ķ": 3718,
      "è¡¨çİ°": 3719,
      "æ³Ħ": 3720,
      "æµ¸": 3721,
      "é¡¿": 3722,
      "ç¾Ĭ": 3723,
      "åľ°äº§": 3724,
      "ere": 3725,
      "åķĨåĬ¡": 3726,
      "åĪ°äºĨ": 3727,
      "><": 3728,
      "æīĩ": 3729,
      "æľīéĻĲè´£ä»»åħ¬åı¸": 3730,
      "åĲĪæĪĲ": 3731,
      "Ġ2019": 3732,
      "å«": 3733,
      "çº¿è·¯": 3734,
      "ä¾ĭå¦Ĥ": 3735,
      "èĴĻåı¤": 3736,
      "Ãª": 3737,
      "æ¯ıä¸ª": 3738,
      "æĲŃéħį": 3739,
      "éĢĴ": 3740,
      "æĴĳ": 3741,
      "è¾ī": 3742,
      "ber": 3743,
      "å¯°": 3744,
      "ç²Ĺ": 3745,
      "éĺµ": 3746,
      "42": 3747,
      "ms": 3748,
      "cçļĦ": 3749,
      "è¾Ĭ": 3750,
      "ç»ī": 3751,
      "æĤ£èĢħ": 3752,
      "å¢ŀå¼º": 3753,
      "çĭĹ": 3754,
      "ao": 3755,
      "ç¢±": 3756,
      "èĭ±æĸĩ": 3757,
      "æĿĲæĸĻçļĦ": 3758,
      "è§Ĩè§ī": 3759,
      "ark": 3760,
      "æļ¨": 3761,
      "å¨±ä¹Ĳ": 3762,
      "æīŃ": 3763,
      "Ġ$('.": 3764,
      "åıĤä¸İ": 3765,
      "æĬĵ": 3766,
      "éļıçĿĢ": 3767,
      "èĪĴéĢĤ": 3768,
      "è®¡ç®Ĺæľº": 3769,
      "éĺ´": 3770,
      "è®¾è®¡å¸Ī": 3771,
      "???": 3772,
      "own": 3773,
      "ĠçĶµ": 3774,
      "ĠåĨħ": 3775,
      "æ¹«": 3776,
      "åĲ«éĩı": 3777,
      "åľ°ä¸ĭ": 3778,
      "ax": 3779,
      "éĥ½æľī": 3780,
      "äºĪ": 3781,
      "æ²«": 3782,
      "æĬ±æŃī": 3783,
      "ç§¤": 3784,
      "çĩĥæ°Ķ": 3785,
      "åĪ¶åĨ·": 3786,
      "æĹħè¡Į": 3787,
      "ux": 3788,
      "å¹³æĿ¿": 3789,
      "ĠæłĩçŃ¾": 3790,
      "ãĦ©": 3791,
      "åĪĨå¸ĥ": 3792,
      "æ¹¿åº¦": 3793,
      "paol": 3794,
      "åĪ¶éĢłæľīéĻĲåħ¬åı¸": 3795,
      "Ġsp": 3796,
      "æŃ¥éª¤": 3797,
      "åīĬ": 3798,
      "âĹ": 3799,
      "åĩĨå¤ĩ": 3800,
      "çļĦæĸ¹æ³ķ": 3801,
      "æīĭåĬ¨": 3802,
      "çĸ¾": 3803,
      "æĿ¿æĿĲ": 3804,
      "åħģ": 3805,
      "çº¿ä¸Ĭ": 3806,
      "data": 3807,
      "65": 3808,
      "æ³½": 3809,
      "è´¹çĶ¨": 3810,
      "åªĴä½ĵ": 3811,
      "ä¸ĵåĪ©": 3812,
      "ç¾İåħĥ": 3813,
      "ĠæĹ¥æľ¬": 3814,
      "éĹ¸": 3815,
      "æģĴæ¸©": 3816,
      "åķ¡": 3817,
      "ens": 3818,
      "Ã©": 3819,
      "è¿Ļä¸Ģ": 3820,
      "èµĦè´¨": 3821,
      "èĥĮæĻ¯": 3822,
      "èĵĦ": 3823,
      "Ġcont": 3824,
      "æ¶Į": 3825,
      "\"ãĢĤ": 3826,
      ",@": 3827,
      "æ»´": 3828,
      "Ġ17": 3829,
      "çĽ¸åħ³çļĦ": 3830,
      "å·¥ç¨ĭæ¡Īä¾ĭ": 3831,
      "åĬ¨æ¼«": 3832,
      "ä¹ĺ": 3833,
      "ç¥Ŀ": 3834,
      "æŃ£å¼ı": 3835,
      "å¨´": 3836,
      "Ġel": 3837,
      "å°±ä¼ļ": 3838,
      "');": 3839,
      "äºĨä¸Ģ": 3840,
      "to": 3841,
      "æ¶²ä½į": 3842,
      "å¤®": 3843,
      "ĠãĢģ": 3844,
      "åħ·å¤ĩ": 3845,
      "éĩįæĸ°": 3846,
      "åı¬": 3847,
      "çĽ®å½ķ": 3848,
      "ä¸ĭçļĦ": 3849,
      "ĠæľĢè¿ĳ": 3850,
      "ime": 3851,
      "éĻĲåĪ¶": 3852,
      "æİ¥åı£": 3853,
      "æĺ¯ä¸Ģä¸ª": 3854,
      "Ġæµıè§Ī": 3855,
      "Ġ19": 3856,
      "æ£ĢéªĮ": 3857,
      "ä»ĬæĹ¥": 3858,
      "kg": 3859,
      "ii": 3860,
      "åıĬåħ¶": 3861,
      "æµĩ": 3862,
      "è¶³çĲĥ": 3863,
      "æĲľå¯»": 3864,
      "indows": 3865,
      "44": 3866,
      "ĠãĢĬ": 3867,
      "çļĦå°ı": 3868,
      "com": 3869,
      "ç£·": 3870,
      "åİŁåĪĽ": 3871,
      "old": 3872,
      "éĥ¨éĹ¨": 3873,
      "æģ¶": 3874,
      "èĥº": 3875,
      "èĥ¡": 3876,
      "èī¾": 3877,
      "inese": 3878,
      "ft": 3879,
      "éķ¿æľŁ": 3880,
      "ä¸¤ç§į": 3881,
      "æ³¢çº¹": 3882,
      "åľŁå£¤": 3883,
      "åĽ°": 3884,
      "èµ·æĿ¥": 3885,
      "éĶĻè¯¯": 3886,
      "éĻ¤å°ĺåĻ¨": 3887,
      "ä¹Łæľī": 3888,
      "aw": 3889,
      "åħ³æ³¨": 3890,
      "ery": 3891,
      "åħ¨éĿ¢": 3892,
      "éĤ¢èĸ°": 3893,
      "å®ļä¹ī": 3894,
      "èĩªè¡Į": 3895,
      "ç¿ł": 3896,
      "çĸı": 3897,
      "çłĶç©¶æīĢ": 3898,
      "åĪ®": 3899,
      "get": 3900,
      "æ¡´çĳ°": 3901,
      "ç»Ĩèĥŀ": 3902,
      "å°±åı¯ä»¥": 3903,
      "span": 3904,
      "ç¿»è¯ĳ": 3905,
      "åĪł": 3906,
      "æĪĲç«ĭ": 3907,
      "ll": 3908,
      "æģ¢": 3909,
      "æĹłéĶ¡": 3910,
      "æ¸ħçĲĨ": 3911,
      "Ġä¸Ńæĸĩ": 3912,
      "å¼ĢæĶ¾": 3913,
      "èķ": 3914,
      "çİ©å®¶": 3915,
      "å½¢è±¡": 3916,
      "éħ±": 3917,
      "ä¼Ł": 3918,
      "è¯²": 3919,
      "è¿ĩæ»¤åĻ¨": 3920,
      "æķ£çĥŃ": 3921,
      "è®Ńç»ĥ": 3922,
      "çĲ´": 3923,
      "æ¯ķä¸ļ": 3924,
      "äº¦": 3925,
      "çĭŀèĻĳ": 3926,
      "Ġcan": 3927,
      "çĴ§": 3928,
      "çļĦå½±åĵį": 3929,
      "åĲĦç±»": 3930,
      "æĮĩæłĩ": 3931,
      "çłĤæµĨ": 3932,
      "åĬ±": 3933,
      "åįķåħĥ": 3934,
      "ãĢĳ-": 3935,
      "ä¸įp": 3936,
      "çļĦè¦ģæ±Ĥ": 3937,
      "åıĳåĬ¨": 3938,
      "è¶ĭ": 3939,
      "åĩ½": 3940,
      "åıĺåİĭåĻ¨": 3941,
      "èģĶåĲĪ": 3942,
      "åľºæīĢ": 3943,
      "ä»Ĭå¹´": 3944,
      "ä¸Ģæł·": 3945,
      "éĢĤåºĶ": 3946,
      "çļĦåºĶçĶ¨": 3947,
      "æĶ¹åĸĦ": 3948,
      "æĪĳåħ¬åı¸": 3949,
      "Ġåı¯": 3950,
      "ç²īç¢İ": 3951,
      "ãĦ¨": 3952,
      "æİĴè¡Į": 3953,
      "ä¸ľèİŀå¸Ĥ": 3954,
      "Ġ_": 3955,
      "çĽ¸åĲĮ": 3956,
      "æµĭè¯ķä»ª": 3957,
      "éĢĨ": 3958,
      "åºŁæ°Ķ": 3959,
      "éĨĴ": 3960,
      "èŀºæłĵ": 3961,
      "ood": 3962,
      "fl": 3963,
      "åĲ¸æĶ¶": 3964,
      "æ¤Ń": 3965,
      "sch": 3966,
      "æįŁåĿı": 3967,
      "å¯Ĵ": 3968,
      "åĩºçīĪ": 3969,
      "Ġpowered": 3970,
      "åİĤæĪ¿": 3971,
      "ç»³": 3972,
      "mov": 3973,
      "æĮĩæķ°": 3974,
      "hå¢ĥ": 3975,
      "åĶ±": 3976,
      "éĢļè®¯": 3977,
      "ä¸įéĶĪéĴ¢æĿ¿": 3978,
      "éĻķè¥¿": 3979,
      "å¤§éĩı": 3980,
      "æķħäºĭ": 3981,
      "èĲ¥åħ»": 3982,
      "å¸½": 3983,
      "æĮĩå¯¼": 3984,
      "ä½ıå®ħ": 3985,
      "èĨı": 3986,
      "son": 3987,
      "åĩıéĢŁæľº": 3988,
      "çĪ¶": 3989,
      "å®īb": 3990,
      "å²ģ": 3991,
      "åĴĸåķ¡": 3992,
      "så®¶": 3993,
      "åĿĢ": 3994,
      "çĨĬ": 3995,
      "html": 3996,
      "ç»¿åĮĸ": 3997,
      "è¾½å®ģ": 3998,
      "åĮ»åŃ¦": 3999,
      "èµŀ": 4000,
      "å¡ĳèĥ¶": 4001,
      "ç§įç±»": 4002,
      "è¦ģæ³¨æĦı": 4003,
      "ç«ĭå¼ı": 4004,
      "åĮ»èį¯": 4005,
      "éĩįè¦ģçļĦ": 4006,
      "Ġen": 4007,
      "åĩ¡": 4008,
      "å¹¿åľº": 4009,
      "ä¸ªäººèµĦæĸĻ": 4010,
      "å´ĩ": 4011,
      "åħĥä»¶": 4012,
      "åºŁæ°´": 4013,
      "å¼ķèµ·": 4014,
      "Ġé»Ħ": 4015,
      "èĪį": 4016,
      "åĽĬ": 4017,
      "å¿ħè¦ģ": 4018,
      "éĴī": 4019,
      "æª": 4020,
      "ĠÐ": 4021,
      "Ġ100": 4022,
      "æ°´åĪĨ": 4023,
      "åĮºåĪ«": 4024,
      "æĶ¹åıĺ": 4025,
      "Ġ2017": 4026,
      "åħ¬éĩĮ": 4027,
      "ãĢĤ\"": 4028,
      "åł¡": 4029,
      "åĲĽ": 4030,
      "è½»æĿ¾è§£åĨ³åľ¨åĽ½å¤ĸä½¿çĶ¨è§£éĶģåĽ½åĨħåºĶçĶ¨çļĦæĹ¶åĢĻæıĲç¤ºåľ¨": 4031,
      "é¼ł": 4032,
      "åĮ»çĶ¨": 4033,
      "å®ŀæĹ¶": 4034,
      "çķħ": 4035,
      "Ġwe": 4036,
      "æ¸Ĳ": 4037,
      "è¶ĬæĿ¥": 4038,
      "ä¸°å¯Į": 4039,
      "è¤°": 4040,
      "é¥¼": 4041,
      "2000": 4042,
      "åĬ¨çĶ»": 4043,
      "ory": 4044,
      "Ġåħ³äºİ": 4045,
      "æ¡Ĥ": 4046,
      "åĪĨåĪ«": 4047,
      "ff": 4048,
      "æĤ¨çļĦå½ĵåīįä½įç½®": 4049,
      "ÑģÐº": 4050,
      "dn": 4051,
      "zy": 4052,
      "å¤ļå°ĳéĴ±": 4053,
      "ĠãĢĤ": 4054,
      "æ¸ł": 4055,
      "è¶ĬæĿ¥è¶Ĭ": 4056,
      "å§Ŀ": 4057,
      "ç§ĳçłĶ": 4058,
      "æ¬§æ´²": 4059,
      "Ġthat": 4060,
      "âĢ³": 4061,
      "åĲ¹": 4062,
      "Ġ*": 4063,
      "Ġqu": 4064,
      "åĵªéĩĮ": 4065,
      "ä¼Ĭ": 4066,
      "çļĦæĸ°": 4067,
      "èĭ±åĽ½": 4068,
      "èĬ±åĽŃ": 4069,
      "æĢ§å¥½": 4070,
      "ä¸Ģå®ļçļĦ": 4071,
      "çĶŁåĳ½": 4072,
      "çİ«": 4073,
      "éĵ¾æİ¥": 4074,
      "æĪ´": 4075,
      "åĵĪå°Ķ": 4076,
      "con": 4077,
      "çĸ«æĥħ": 4078,
      "åĨħçļĦ": 4079,
      "åľŁå·¥": 4080,
      "Ġres": 4081,
      "su": 4082,
      "Ġ->": 4083,
      "duct": 4084,
      "é¥²": 4085,
      "ç»¾": 4086,
      "ä¸Ļçĥ¯": 4087,
      "éī": 4088,
      "éī´": 4089,
      "æ±©": 4090,
      "ä¸ĭéĻį": 4091,
      "åĽ¾ä¹¦": 4092,
      "æ°´æ³µ": 4093,
      "æ°´æľº": 4094,
      "400": 4095,
      "ary": 4096,
      "çķĮéĿ¢": 4097,
      "èĲĦ": 4098,
      "å¡«æĸĻ": 4099,
      "und": 4100,
      "åħ¥åı£": 4101,
      "çľĭåĪ°": 4102,
      "æ¿Ĥ": 4103,
      "å¸Ŀ": 4104,
      "yle": 4105,
      "æ¯Ķå¦Ĥ": 4106,
      "é£İéĻ©": 4107,
      "è´¦": 4108,
      "Ġq": 4109,
      "æįĲ": 4110,
      "éĽĨf": 4111,
      "ç»Ľ": 4112,
      "éķ¿åº¦": 4113,
      "Ġ13": 4114,
      "è®¾è®¡çļĦ": 4115,
      "Ġbr": 4116,
      "æķ°åŃ¦": 4117,
      "éĻ·": 4118,
      "éĽĨåĽ¢æľīéĻĲåħ¬åı¸": 4119,
      "éĥ½ä¼ļ": 4120,
      "å°ıåŃ¦": 4121,
      "çĲĨå¿µ": 4122,
      "èĳ£": 4123,
      "çĤ¸": 4124,
      "Ġä¸Ĭä¸Ģé¡µ": 4125,
      "çī©çļĦ": 4126,
      "æĶ¯æĴĳ": 4127,
      "ä¸¸": 4128,
      "pdf": 4129,
      "zh": 4130,
      "é¬": 4131,
      "çĿ£": 4132,
      "ä¸ĩåħĥ": 4133,
      "æĭĶ": 4134,
      "æ¥Ĥ": 4135,
      "èĢģåĮĸ": 4136,
      "Ġç®Ģ": 4137,
      "ç¨Ģ": 4138,
      "åľ¨ä½¿çĶ¨": 4139,
      "ĠåĮĹäº¬": 4140,
      "æµ¦": 4141,
      "å±±åĮº": 4142,
      "çļĦè¯Ŀ": 4143,
      "èĲ¥éĶĢ": 4144,
      "èĭ¹": 4145,
      "ãĥ¦": 4146,
      "form": 4147,
      "ä¼º": 4148,
      "Ġare": 4149,
      "åĮħè£ħæľº": 4150,
      "å¸ĤæĶ¿": 4151,
      "çļĦä¸»è¦ģ": 4152,
      "åķĨåŁİ": 4153,
      "word": 4154,
      "Ãł": 4155,
      "è§Ħå®ļ": 4156,
      "ä¹İ": 4157,
      "Ġå®ī": 4158,
      "åĨ¶éĩĳ": 4159,
      "view": 4160,
      "è·µ": 4161,
      "è¯ķéªĮç®±": 4162,
      "ä¸Ĭçº¿æĹ¶éĹ´": 4163,
      "æĢİæł·": 4164,
      "å¤ĸå¢Ļ": 4165,
      "çĽ´æµģ": 4166,
      "æ¡¥æŀ¶": 4167,
      "çļĦåİŁåĽł": 4168,
      "æ¶Īæģ¯": 4169,
      "ä»ĵåºĵ": 4170,
      "2012": 4171,
      "ortug": 4172,
      "ç¾İè§Ĥ": 4173,
      "æĩĪ": 4174,
      "èĿ¶": 4175,
      "äººæīį": 4176,
      "800": 4177,
      "æŁ³": 4178,
      "è¯ģåĪ¸": 4179,
      "wç«Ļ": 4180,
      "Ġä¼ģä¸ļ": 4181,
      "ven": 4182,
      "urn": 4183,
      "Ġåĳ¨": 4184,
      "Ġå¤©": 4185,
      "çī©åĵģ": 4186,
      "èī²å½©": 4187,
      "çº±": 4188,
      "==": 4189,
      ":\"": 4190,
      "è¿Ľä¸ĢæŃ¥": 4191,
      "ãĥ§": 4192,
      "ä¸įå¾Ĺ": 4193,
      "éĢļä¿¡": 4194,
      "ung": 4195,
      "2013": 4196,
      "éĽĨä¸Ń": 4197,
      "åĺ´": 4198,
      "æľºçĶµ": 4199,
      "Ġsc": 4200,
      "ĠæľĢè¿ĳä¸Ĭçº¿æĹ¶éĹ´": 4201,
      "éĻµ": 4202,
      "å®«": 4203,
      "æĦıæĢĿ": 4204,
      "å¹´çº§": 4205,
      "èĻİ": 4206,
      "ree": 4207,
      "é³": 4208,
      "æ¶Īè´¹èĢħ": 4209,
      "èĩªèº«": 4210,
      "çģ«çģ¾": 4211,
      "è¯ī": 4212,
      "è´¡": 4213,
      "å°¤åħ¶": 4214,
      "å²¸": 4215,
      "éĢļéģĵ": 4216,
      "åĬŀæ³ķ": 4217,
      "Ġåħ¶ä»ĸ": 4218,
      "æ³¡æ²«": 4219,
      "æİ¨åĩº": 4220,
      "vi": 4221,
      "åħ¶å®ŀ": 4222,
      "å¼ĢåĲ¯": 4223,
      "ä¼ĺç§Ģ": 4224,
      "å¤ļçļĦ": 4225,
      "åĲĪèĤ¥": 4226,
      "è¯Ĺ": 4227,
      "æ½į": 4228,
      "ä¸¾åĬŀ": 4229,
      "çŁ³å¢¨": 4230,
      "ä½¿çĶ¨å¯¿åĳ½": 4231,
      "æ¸ļ": 4232,
      "pu": 4233,
      "æĹ¶ä»£": 4234,
      "ppt": 4235,
      "ä½ĵç§¯": 4236,
      "éķ¿æ²Ļ": 4237,
      "åģľè½¦": 4238,
      "Ġæľī": 4239,
      "ç´łæĿĲ": 4240,
      "å¹³åĿĩ": 4241,
      "ä»»åĬ¡": 4242,
      "æĭĸ": 4243,
      "çļĦå¤§": 4244,
      "æĥ³è¦ģ": 4245,
      "åıĸå¾Ĺ": 4246,
      "æļĹ": 4247,
      "ä¸Ĭä¸ĭ": 4248,
      "Ġdes": 4249,
      "ç¨İ": 4250,
      "ä½ĵçļĦ": 4251,
      "ç´«å¤ĸ": 4252,
      "èĻ½çĦ¶": 4253,
      "é¢ģ": 4254,
      "å®¹éĩı": 4255,
      "æĺ¯çĶ±": 4256,
      "èĪµ": 4257,
      "å®ĮåĸĦ": 4258,
      "çĶļèĩ³": 4259,
      "æ¤¤": 4260,
      "ust": 4261,
      "éĿ¢æĿ¿": 4262,
      "çĽĪ": 4263,
      "è§Ĵåº¦": 4264,
      "ition": 4265,
      "ä¼Ļä¼´": 4266,
      "èĳ¡èĲĦ": 4267,
      "çº¢èī²": 4268,
      "èĤ¯": 4269,
      "èĬ¦": 4270,
      "æĿŀ": 4271,
      "è§£æŀĲ": 4272,
      "ä¼Ĳ": 4273,
      "èĭ¹æŀľ": 4274,
      "ç¼ĥ": 4275,
      "ç¬Ķè®°": 4276,
      "Ġfrom": 4277,
      "çŃīçŃī": 4278,
      "ç§¯æŀģ": 4279,
      "çĽ¸æ¯Ķ": 4280,
      "èĢĮæĪĲ": 4281,
      "çĲĨæĥ³": 4282,
      "é©¾é©¶": 4283,
      "è¿¹": 4284,
      "ä¼łè¾ĵ": 4285,
      "æİĴåĲį": 4286,
      "äºĮæ¬¡": 4287,
      "åĲĪæł¼": 4288,
      "ä¸įè¿ĩ": 4289,
      "çļ®å¸¦": 4290,
      "é¡µç¬¬": 4291,
      "47": 4292,
      "è½°": 4293,
      "ts": 4294,
      "ath": 4295,
      "è®¡éĩı": 4296,
      "æ®ĭ": 4297,
      "åħ±åĲĮ": 4298,
      "åįıè®®": 4299,
      "ä¹Łåı¯": 4300,
      "ql": 4301,
      "åĵªå®¶å¥½": 4302,
      "ĠâĨĴ": 4303,
      "ç¡¬åº¦": 4304,
      "èİ«": 4305,
      "åŁĥ": 4306,
      "åħ¨æĸĩ": 4307,
      "çĭ¬çī¹": 4308,
      "ä¹ĭéĹ´çļĦ": 4309,
      "Ġä¸Ĭæµ·": 4310,
      "èĢĲçģ«": 4311,
      "ç®¡çļĦ": 4312,
      "Ġ21": 4313,
      "me": 4314,
      "åĢ¾": 4315,
      "ance": 4316,
      "66": 4317,
      "the": 4318,
      "æ¥ļ": 4319,
      "ä»¶çļĦ": 4320,
      "çİĽ": 4321,
      "æĺİæĺ¾": 4322,
      "åı°åĮĹ": 4323,
      "å¨Į": 4324,
      "æłĩé¢ĺ": 4325,
      "Ġme": 4326,
      "ÑģÐºÐ¸": 4327,
      "pg": 4328,
      "çĲĥå¢¨": 4329,
      "åįŀ": 4330,
      "è¶ħçº§": 4331,
      "å¹´çļĦ": 4332,
      "å·¥ç¨ĭå¸Ī": 4333,
      "ç»µ": 4334,
      "éĺ»çĩĥ": 4335,
      "äº¿åħĥ": 4336,
      "è¿ĲèĲ¥": 4337,
      "ics": 4338,
      "å¤ļä¸ª": 4339,
      "Ġä¸Ĭ": 4340,
      "åĽºåĮĸ": 4341,
      "æ¶ī": 4342,
      "41": 4343,
      "éħįçĶµ": 4344,
      "å°ĸ": 4345,
      "éĺ¶æ®µ": 4346,
      "éĴĻ": 4347,
      "çĽĹ": 4348,
      "æĲŃå»º": 4349,
      "å¤§å¤§": 4350,
      "çĻ¾ç§ĳ": 4351,
      "æ¶¡": 4352,
      "å¤įæĿĤ": 4353,
      "Ġman": 4354,
      "èħĶ": 4355,
      "ds": 4356,
      "èĥ¶å¸¦": 4357,
      "åı¯ä»¥åľ¨": 4358,
      "anais": 4359,
      "çĬ¶åĨµ": 4360,
      "å¸ĺ": 4361,
      "éĴ¢çŃĭ": 4362,
      "åıªè¦ģ": 4363,
      "å¯ĵ": 4364,
      "2010": 4365,
      "åĲĪéĢĤ": 4366,
      "ä¸Ģå®ļè¦ģ": 4367,
      "æµĭå®ļä»ª": 4368,
      "åĩ¸": 4369,
      "è¹ĩ": 4370,
      "è¯ŀ": 4371,
      "åĬĽçļĦ": 4372,
      "å¯¹è±¡": 4373,
      "Ġnot": 4374,
      "ĠæŁ¥çľĭ": 4375,
      "Ġä¸įéĻĲ": 4376,
      "åħīçĶµ": 4377,
      "æ±¡æ¹«": 4378,
      "éĴ®": 4379,
      "å®ŀè·µ": 4380,
      "åļ": 4381,
      "Ġim": 4382,
      "æī°": 4383,
      "po": 4384,
      "ä¸¥éĩį": 4385,
      "åŀĤçĽ´": 4386,
      "æĹłç¼ĿéĴ¢ç®¡": 4387,
      "éĤ¢èĸ°åı¸": 4388,
      "ich": 4389,
      "nb": 4390,
      "Ġæ¬¡": 4391,
      "ui": 4392,
      "åºŃ": 4393,
      "ä¼¯": 4394,
      "æķ·": 4395,
      "æ¦Ĥå¿µ": 4396,
      "æĸ°èĥ½æºĲ": 4397,
      "èĨ¨èĥĢ": 4398,
      "çī§æķ´å½¢": 4399,
      "å¤§äºİ": 4400,
      "çī§æķ´å½¢æ±¡æ¹«": 4401,
      "85": 4402,
      "å®¶çĶ¨": 4403,
      "èĤĥ": 4404,
      "æĽ´å¥½çļĦ": 4405,
      "å®ģæ³¢": 4406,
      "çŃĶæ¡Ī": 4407,
      "è¾£": 4408,
      "åĲĦæĸ¹éĥ½æľīåĽĽä¸ªä»¥ä¸Ĭé¥ŃåºĹåħ±æľīåĽĽä¸ªåĽĽåĲĦæĸ¹éĥ½æľīåĽĽä¸ªä»¥ä¸Ĭé¥ŃåºĹåħ±æľīåĽĽä¸ªåĽĽåĲĦæĸ¹éĥ½æľīåĽĽä¸ªä»¥ä¸Ĭé¥ŃåºĹåħ±æľīåĽĽä¸ªåĽĽåĲĦæĸ¹éĥ½æľīåĽĽä¸ªä»¥ä¸Ĭé¥ŃåºĹåħ±æľīåĽĽä¸ªåĽĽ": 4409,
      "çŃĸåĪĴ": 4410,
      "æĪĲæŀľ": 4411,
      "ä¿Ĭ": 4412,
      "æī¬èĻĳ": 4413,
      "é»İ": 4414,
      "éģĹ": 4415,
      "ä¼ºæľį": 4416,
      "æľ¬èº«": 4417,
      "éĩĩéĽĨ": 4418,
      "æī¶": 4419,
      "æİ¥åľ°": 4420,
      "éķģ": 4421,
      "éļĶç¦»": 4422,
      "åĻªéŁ³": 4423,
      "çļĦéĩįè¦ģ": 4424,
      "éĶ»": 4425,
      "æĪĲåĪĨ": 4426,
      "å¿Ĩ": 4427,
      "èĬĿ": 4428,
      "ç»ĵæĿŁ": 4429,
      "mb": 4430,
      "gle": 4431,
      "ä¿Ħ": 4432,
      "åĬª": 4433,
      "å·¥i": 4434,
      "å¸Ń": 4435,
      "çħ§çīĩ": 4436,
      "150": 4437,
      "éĵ¸éĢł": 4438,
      "åħµ": 4439,
      "kw": 4440,
      "èİ·åıĸ": 4441,
      "........": 4442,
      "Ġchinese": 4443,
      "åħ¨æĸ°": 4444,
      "Ġ2016": 4445,
      "çī¢": 4446,
      "å¤ĸå£³": 4447,
      "å¨ī": 4448,
      "æĭīåĬĽ": 4449,
      "åĿĳ": 4450,
      "åıĳåĬ¨æľº": 4451,
      "å·¡": 4452,
      "çĥŃæ°´": 4453,
      "Ġdr": 4454,
      "æŃ¢æ°´": 4455,
      "åĲĪçī©": 4456,
      "æİĺ": 4457,
      "ãĥ¨": 4458,
      "Ġ\"\"": 4459,
      "Ġgr": 4460,
      "èĻļæĭŁ": 4461,
      "ä¼ĳæģ¯": 4462,
      "å®ļåģļ": 4463,
      "æĿ¥æī¬èĻĳ": 4464,
      "æĿ¥æī¬èĻĳæ¬¢": 4465,
      "class": 4466,
      "çļĦä¸Ģç§į": 4467,
      "æĽ¾": 4468,
      "æ¯Ķä¾ĭ": 4469,
      "å°ıç¼ĸ": 4470,
      "æİĴæĶ¾": 4471,
      "land": 4472,
      "ä¹Łä¸į": 4473,
      "èµ¢": 4474,
      "Ġä¸ĩ": 4475,
      "æĬĢå·§": 4476,
      "æīĭå·¥": 4477,
      "å²Ń": 4478,
      "åŀĭæĿĲ": 4479,
      "å±ĳ": 4480,
      "äºĭæķħ": 4481,
      "ä¸¥æł¼": 4482,
      "æĦł": 4483,
      "å¹³æĸ¹ç±³": 4484,
      "åĬłå¼º": 4485,
      "çººç»ĩ": 4486,
      "é«ĺçº§": 4487,
      "æİ¨å¹¿": 4488,
      "ä¸įåĪ°": 4489,
      "æµĵåº¦": 4490,
      "åĪ¶åĵģæľīéĻĲåħ¬åı¸": 4491,
      "åĪłéĻ¤": 4492,
      "Ġåīį": 4493,
      "ĠæŃ£": 4494,
      "é¹¿": 4495,
      "éħµ": 4496,
      "èĬ³": 4497,
      "ç«ŀäºī": 4498,
      "åħīçº¤": 4499,
      "bo": 4500,
      "120": 4501,
      "utsch": 4502,
      "çļĦå¥½": 4503,
      "æī®": 4504,
      "çĳģ": 4505,
      "Ġå¥½": 4506,
      "åĭĩ": 4507,
      "Ġ$(": 4508,
      "çļĦæĹ¶éĹ´": 4509,
      "æ²»çĲĨ": 4510,
      "äº©": 4511,
      "æĻ¨": 4512,
      "éŁ§": 4513,
      "Ġçİĭ": 4514,
      "æłĩè¯Ĩ": 4515,
      "fe": 4516,
      "å¨ĵ": 4517,
      "logo": 4518,
      "çªĿ": 4519,
      "çī¡": 4520,
      "ä¾¿æĲº": 4521,
      "Ġåľ¨çº¿": 4522,
      "æ¤Ĵ": 4523,
      "press": 4524,
      "æĭĵå±ķ": 4525,
      "load": 4526,
      "æĭĽæłĩ": 4527,
      "68": 4528,
      "æ²Ĥ": 4529,
      "çĤĴ": 4530,
      "çī¹å¾ģ": 4531,
      "éĶĤ": 4532,
      "åĳ¨æľŁ": 4533,
      "ç§¯åĪĨ": 4534,
      "ĠåĮĹ": 4535,
      "__": 4536,
      "è´·": 4537,
      "æīĺçĽĺ": 4538,
      "æĳ©æĵ¦": 4539,
      "è´¸æĺĵ": 4540,
      "å¯¼èĪª": 4541,
      "æĶ»çķ¥": 4542,
      "Ġco": 4543,
      "åįļå®¢": 4544,
      "ä¸¾è¡Į": 4545,
      "ortugu": 4546,
      "ä¸ŃéĹ´": 4547,
      "éħ·": 4548,
      "çĶŁäº§çļĦ": 4549,
      "æīİ": 4550,
      "åħħçĶµ": 4551,
      "ãĪł": 4552,
      "pi": 4553,
      "ä¿®æĶ¹": 4554,
      "æĿľ": 4555,
      "Ġ;": 4556,
      "å®ŀçĶ¨": 4557,
      "æİĪæĿĥ": 4558,
      "åĪĽéĢł": 4559,
      "æĻĵ": 4560,
      "å½©èī²": 4561,
      "51": 4562,
      "è¾Ĳ": 4563,
      "åĬłåĽº": 4564,
      "67": 4565,
      "çĶŁæĪĲ": 4566,
      "ĠçĤ¹åĩ»": 4567,
      "åģļåĪ°": 4568,
      "è´¥": 4569,
      "å®ļæľŁ": 4570,
      "be": 4571,
      "ä¸»è¦ģçĶ¨äºİ": 4572,
      "åµĮ": 4573,
      "æ¼Ķç¤º": 4574,
      "è¾ħåĬ©": 4575,
      "èĸĦèĨľ": 4576,
      "éĵ£": 4577,
      "åıĺé¢ĳ": 4578,
      "èģĬå¤©": 4579,
      "å¯Ĩçłģ": 4580,
      "æµ·åįĹ": 4581,
      "éĻĦè¿ĳ": 4582,
      "ä¹Łä¼ļ": 4583,
      "ç¬¬åĽĽ": 4584,
      "Ġåįģ": 4585,
      "ä¿ĿéĻ©": 4586,
      "ae": 4587,
      "Ġespaol": 4588,
      "Ġab": 4589,
      "èĢĢ": 4590,
      "ä½İåİĭ": 4591,
      "sl": 4592,
      "è¶ħå£°": 4593,
      "èŀºçº¹": 4594,
      "æ³ķåĽ½": 4595,
      "æĴķ": 4596,
      "åĶ®åĲİ": 4597,
      "Ġcomp": 4598,
      "æĳĩ": 4599,
      "æķ¦æ¡´çĳ°": 4600,
      "ical": 4601,
      "è¿ģ": 4602,
      "åľ°æĸ¹": 4603,
      "ep": 4604,
      "çĽ´å¾Ħ": 4605,
      "çĽ¸åºĶ": 4606,
      "ĠæĿ¡": 4607,
      "æĬµ": 4608,
      "å¸Ĳ": 4609,
      "Ġam": 4610,
      "æ¹ĺ": 4611,
      "åĩºäºĨ": 4612,
      "çº¢å¤ĸ": 4613,
      "å®īæİĴ": 4614,
      "éĶ¯": 4615,
      "åħ³éĶ®åŃĹ": 4616,
      "åĪ¶æĪĲ": 4617,
      "æ·±åº¦": 4618,
      "å©´": 4619,
      "æ°ĶåĬ¨": 4620,
      "å¯¹æ¯Ķ": 4621,
      "tw": 4622,
      "æİ§åĪ¶ç³»ç»Ł": 4623,
      "name": 4624,
      "alian": 4625,
      "fo": 4626,
      "è¾Ľ": 4627,
      "Ġè¡Įä¸ļ": 4628,
      "æĥ¯": 4629,
      "ous": 4630,
      "è½§": 4631,
      "åľºæĻ¯": 4632,
      "æ¸ħéĻ¤": 4633,
      "èĬ¥": 4634,
      "åĪĽä¸ļ": 4635,
      "æĬĽåħī": 4636,
      "?/": 4637,
      "Ġä»·æł¼": 4638,
      "éĺ³å¸Ĥ": 4639,
      "æŃ¤å¤ĸ": 4640,
      "Ġèĩª": 4641,
      "çŃĽéĢī": 4642,
      "è¶ĭåĬ¿": 4643,
      "æľįè£ħ": 4644,
      "æĲľçĭĲ": 4645,
      "éĢīè´Ń": 4646,
      "æ¡£æ¡Ī": 4647,
      "éĴĽ": 4648,
      "add": 4649,
      "åĬłéĢŁ": 4650,
      "åĳ¨è¾¹": 4651,
      "å½¢çĬ¶": 4652,
      "td": 4653,
      "åĽŁ": 4654,
      "ry": 4655,
      "æľŁéĹ´": 4656,
      "åĶ¯": 4657,
      "æ±¡æ°´å¤ĦçĲĨ": 4658,
      "è´Łè´£": 4659,
      "åĮĸå¦Ĩ": 4660,
      "æľĢè¿ĳ": 4661,
      "line": 4662,
      "cont": 4663,
      "110": 4664,
      "æĸĩæ¡£": 4665,
      "åĲĪåĲĮ": 4666,
      "çĥ·": 4667,
      "ç®¡æĿĲ": 4668,
      "æĹº": 4669,
      "ors": 4670,
      "åĪĩæį¢": 4671,
      "åħģè®¸": 4672,
      "æļ´": 4673,
      "åľ°çĤ¹": 4674,
      "åĬłçĽŁ": 4675,
      "ert": 4676,
      "fåľ¨": 4677,
      "æ½įåĿĬ": 4678,
      "64": 4679,
      "æ·Ģ": 4680,
      "æ£°": 4681,
      "man": 4682,
      "ipt": 4683,
      "çİīç±³": 4684,
      "å°ıäºİ": 4685,
      "åİĭæľº": 4686,
      "æ°Ľ": 4687,
      "ä¸»è¦ģæĺ¯": 4688,
      "åĽŃåĮº": 4689,
      "ç²īæľ«": 4690,
      "çºµ": 4691,
      "ĠäºĮ": 4692,
      "æł·åĵģ": 4693,
      "éģµ": 4694,
      "é¢Ĩå¯¼": 4695,
      "yn": 4696,
      "æĸ°çĸĨ": 4697,
      "95": 4698,
      "size": 4699,
      "é¹ı": 4700,
      "æīĭæľ¯": 4701,
      "åģ¶": 4702,
      "éĽķå¡ĳ": 4703,
      "cat": 4704,
      "ÏĦ": 4705,
      "æİ¥åıĹ": 4706,
      "cuz": 4707,
      "èĵĿèī²": 4708,
      "Ġ18": 4709,
      "è½¦åŀĭ": 4710,
      "æĦŁè§ī": 4711,
      "Ð»": 4712,
      "åľŃ": 4713,
      "éĺ¿éĩĮ": 4714,
      "åĽ¾åĥı": 4715,
      "èľľ": 4716,
      "ä¿¡çĶ¨": 4717,
      "åĮ¹": 4718,
      "ä½¿å¾Ĺ": 4719,
      "åĩłä¸ª": 4720,
      "äº¤æį¢": 4721,
      "hz": 4722,
      "æľĢé«ĺ": 4723,
      "åĪĩåī²æľº": 4724,
      "Ð¹": 4725,
      "æ¡Ĩæŀ¶": 4726,
      "ç£¨æįŁ": 4727,
      "è§Ħæ¨¡": 4728,
      "Ġ30": 4729,
      "éĻĦä»¶": 4730,
      "çļĦå®īåħ¨": 4731,
      "au": 4732,
      "é¢ĳéģĵ": 4733,
      "ä¸ĵé¢ĺ": 4734,
      "æ¼Ĥ": 4735,
      "play": 4736,
      "çļĦåľ°æĸ¹": 4737,
      "åĨħèĴĻåı¤": 4738,
      "èĭ¦": 4739,
      "çļĦåıĳå±ķ": 4740,
      "Ġåįķ": 4741,
      "æľīä¸Ģ": 4742,
      "éĴł": 4743,
      "èĽĭç³ķ": 4744,
      "å®Ŀå®Ŀ": 4745,
      "Ġall": 4746,
      "top": 4747,
      "Ġ03": 4748,
      "è£ħéħį": 4749,
      "åĲ¸éĻĦ": 4750,
      "âķģ": 4751,
      "å§ĵ": 4752,
      "æľīæīĢ": 4753,
      "ä¸ºä¸»": 4754,
      "æľºåľº": 4755,
      "åĻ¨æĿĲ": 4756,
      "Ġå¤ļ": 4757,
      "ç³»æķ°": 4758,
      "æ±¡æ°´å¤ĦçĲĨè®¾å¤ĩ": 4759,
      "åĨ³å®ļ": 4760,
      "åĬ¨ä½ľ": 4761,
      "Ġaåĵģ": 4762,
      "ä¿®å¤į": 4763,
      "çļĦçī¹çĤ¹": 4764,
      "ws": 4765,
      "æĻ¯åĮº": 4766,
      "åľŁåľ°": 4767,
      "Ġyour": 4768,
      "ç§¦": 4769,
      "èĪªç©º": 4770,
      "æģ¢å¤į": 4771,
      "åħĪçĶŁ": 4772,
      "æĳ¸": 4773,
      "å¿ĥçĲĨ": 4774,
      "é»Ħéĩĳ": 4775,
      "éĶĽæ¶ĵ": 4776,
      "æľ¬ç«Ļ": 4777,
      "éľĢè¦ģæ³¨æĦı": 4778,
      ",\"": 4779,
      "å±ķå¼Ģ": 4780,
      "èĮĤ": 4781,
      "ãĢĤ(": 4782,
      "æĥħr": 4783,
      "****": 4784,
      "å¤§å¤ļ": 4785,
      "æĿ¿åİĤå®¶": 4786,
      "å¾®åįļ": 4787,
      "åĪĨæŀĲä»ª": 4788,
      "åį±éĻ©": 4789,
      "æĿĪ": 4790,
      "âĸ": 4791,
      "åŃ¦ç³»": 4792,
      "ä¸ĵä¸ļçļĦ": 4793,
      "ç»ĨèĬĤ": 4794,
      "èĥ½éĩı": 4795,
      "ç¨ĭå¼ı": 4796,
      "èĢĲé«ĺæ¸©": 4797,
      "åĲĮr": 4798,
      "çĶ¨æ°´": 4799,
      "é«ĺç«¯": 4800,
      "å¡ĺ": 4801,
      "Ġdiscuz": 4802,
      "èµµ": 4803,
      "å¼Ĺ": 4804,
      "èĶ¬èıľ": 4805,
      "dc": 4806,
      "æľīäºĽ": 4807,
      "çĶµè¯Ŀ": 4808,
      "icp": 4809,
      "å®Įç¾İ": 4810,
      "ä½ĵèĤ²å®ĺç½ĳ": 4811,
      "æł¼æłħ": 4812,
      "å®ĭ": 4813,
      "å¸¸çĶ¨": 4814,
      "Ñħ": 4815,
      "ãĪ¡": 4816,
      "ave": 4817,
      "å¢ŀéķ¿": 4818,
      "æ¶²æĻ¶": 4819,
      "èģļä¹Ļçĥ¯": 4820,
      "æ²¥": 4821,
      "æľºç»Ħ": 4822,
      "ç§įæ¤į": 4823,
      "èĦ¸": 4824,
      "åĿ¦": 4825,
      "åĭ¤": 4826,
      "ç¨į": 4827,
      "è¿ľç¨ĭ": 4828,
      "oogle": 4829,
      "ç²¾ç¥ŀ": 4830,
      "èī¯å¥½": 4831,
      "éĥ¨ä½į": 4832,
      "yt": 4833,
      "ash": 4834,
      "æ»ļçŃĴ": 4835,
      "2011": 4836,
      "ĠæĿ¥æºĲ": 4837,
      "Ġinter": 4838,
      "è¸ª": 4839,
      "Ġ#": 4840,
      "åĢº": 4841,
      "ne": 4842,
      "æ¶µ": 4843,
      "è°ĥæŁ¥": 4844,
      "å®ĥä»¬": 4845,
      "çĶŁéķ¿": 4846,
      "åĵĪå°Ķæ»¨": 4847,
      "Ġ09": 4848,
      "å¹¼åĦ¿åĽŃ": 4849,
      "åħ¬ç¤º": 4850,
      "æĪĳåĽ½": 4851,
      "åıĺéĢģ": 4852,
      "æ°´æĢ§": 4853,
      "å°ıåĮº": 4854,
      "ç½²": 4855,
      "ç¾İå®¹": 4856,
      "æ¡©": 4857,
      "æĻĭ": 4858,
      "å®ŀæĸ½": 4859,
      "æ¯ıä¸Ģ": 4860,
      "çģµæ´»": 4861,
      "æĭīä¼¸": 4862,
      "Ġéĺ²": 4863,
      "Ġfl": 4864,
      "æĿ¥çľĭ": 4865,
      "52": 4866,
      "color": 4867,
      "function": 4868,
      "çł´ç¢İæľº": 4869,
      "è²": 4870,
      "itle": 4871,
      "æĪĲåĵģ": 4872,
      "æķ°çłģ": 4873,
      "tv": 4874,
      "æĮĩç¤º": 4875,
      "ç«łèĬĤ": 4876,
      "å»ºéĢł": 4877,
      "¦æ½Ń": 4878,
      "è¦ĨçĽĸ": 4879,
      "Ġå·²": 4880,
      "èµĸ": 4881,
      "ence": 4882,
      "è§Ĥå¯Ł": 4883,
      "æł½": 4884,
      "57": 4885,
      "54": 4886,
      "æĽ´å¥½": 4887,
      "æĤī": 4888,
      "ä¾Ľæ°´": 4889,
      "åºĶæĢ¥": 4890,
      "ç«Ł": 4891,
      "å¾¡": 4892,
      "èŀįåĲĪ": 4893,
      "bt": 4894,
      "ä¿Ĺ": 4895,
      "æľ¬æ¬¡": 4896,
      "ç½ĳä¸Ĭ": 4897,
      "æľ¬æĸĩæĳĺè¦ģ": 4898,
      "éĨĽ": 4899,
      "é¥²æĸĻ": 4900,
      "æĤ¦": 4901,
      "é¸Ń": 4902,
      "ç»ł": 4903,
      "ç«ĭåį³": 4904,
      "èį¤": 4905,
      "æ±ª": 4906,
      "å¸Ĩ": 4907,
      "åĨįçĶŁ": 4908,
      "ç¢Ĺ": 4909,
      "éģ®": 4910,
      "æĽĿ": 4911,
      "ated": 4912,
      "ç¨³å®ļæĢ§": 4913,
      "é¢ĳçİĩ": 4914,
      "Ãªs": 4915,
      "\");": 4916,
      "åħ¬å¼Ģ": 4917,
      "æĲŀ": 4918,
      "åħ¬å¸ĥ": 4919,
      "çį": 4920,
      "æĺĨæĺİ": 4921,
      "Ġup": 4922,
      "æİĮæı¡": 4923,
      "æŀĦæĪĲ": 4924,
      "æ¯ıå¤©": 4925,
      "æ±¡æ³¥": 4926,
      "å¹¿æ³ĽåºĶçĶ¨äºİ": 4927,
      "åīģ": 4928,
      "Ġpol": 4929,
      "ä¸ªæľĪ": 4930,
      "æİĴè¡Įæ¦ľ": 4931,
      "èĤĮ": 4932,
      "ĠåıĮ": 4933,
      "çļĦæ°´": 4934,
      "æī³": 4935,
      "ject": 4936,
      "æīĢå±ŀåĪĨç±»": 4937,
      "roid": 4938,
      "æ²§": 4939,
      "å¸ĥå±Ģ": 4940,
      "åĽŀå¤į": 4941,
      "ca": 4942,
      "çķª": 4943,
      "åıªæĺ¯": 4944,
      "ĠæĹ¥æľ¬è¯Ń": 4945,
      "åľĨå½¢": 4946,
      "ä½ľæĸĩ": 4947,
      "åħīåŃ¦": 4948,
      "ä½Ľå±±": 4949,
      "ä¾¿äºİ": 4950,
      "çĻ¾åº¦": 4951,
      "æµģåĬ¨": 4952,
      "åĮ»çĶŁ": 4953,
      "cy": 4954,
      "çļĦéĢļçŁ¥": 4955,
      "58": 4956,
      "éĶ¥": 4957,
      "æŁĶæĢ§": 4958,
      "æķĪæŀľåĽ¾": 4959,
      "ç»ĥä¹ł": 4960,
      "å±ķä¼ļ": 4961,
      "åıīè½¦": 4962,
      "Ġpre": 4963,
      "ĠäºĶ": 4964,
      "æĮİ": 4965,
      "èĭĳ": 4966,
      "çĶĺèĤĥ": 4967,
      "éľ¸": 4968,
      "å°Ĭ": 4969,
      "key": 4970,
      "åİ¦éĹ¨": 4971,
      "çļĦæĸ¹å¼ı": 4972,
      "43": 4973,
      "åĤ¬åĮĸåīĤ": 4974,
      "lçĶŁ": 4975,
      "çĸ¾çĹħ": 4976,
      "æĤ¨åı¯ä»¥": 4977,
      "fer": 4978,
      "è®¤ä¸º": 4979,
      "cript": 4980,
      "åħ±æľī": 4981,
      "è¶ħå£°æ³¢": 4982,
      "å¾Īå¥½çļĦ": 4983,
      "æĬ¢": 4984,
      "åĩºæĿ¥": 4985,
      "æĮīéĴ®": 4986,
      "ype": 4987,
      "è´º": 4988,
      "çĹħæ¯Ĵ": 4989,
      "Ġfranais": 4990,
      "ç¢°": 4991,
      "!!": 4992,
      "æīĢåľ¨ä½įç½®": 4993,
      "vent": 4994,
      "ç¡ķå£«": 4995,
      "æ¾ľ": 4996,
      "æīĵåį°æľº": 4997,
      "çĶµçº¿": 4998,
      "è¯Ħä¼°": 4999,
      "èŀºæĿĨ": 5000,
      "æį¢çĥŃ": 5001,
      "çº³ç±³": 5002,
      "ç¬¬åįģ": 5003,
      "éĥŃ": 5004,
      "ä¿ĥè¿Ľ": 5005,
      "ĠçĻ½": 5006,
      "ç²¾åĵģ": 5007,
      "Ġè¿ĶåĽŀ": 5008,
      "é«ĺç²¾åº¦": 5009,
      "ç½ĳè·¯": 5010,
      "ç®¡çĲĨç³»ç»Ł": 5011,
      "Ġmod": 5012,
      "par": 5013,
      "Ġret": 5014,
      "å¿«ä¹Ĳ": 5015,
      "åĲ«æľī": 5016,
      "Ġé¦Ļæ¸¯": 5017,
      "Ġå°¾": 5018,
      "å®¤å¤ĸ": 5019,
      "æ¶Ĥå±Ĥ": 5020,
      "éĿĽ": 5021,
      "')": 5022,
      "53": 5023,
      "ä¼ĺèī¯": 5024,
      "ä»ĵåĤ¨": 5025,
      "èĢĲèħĲèļĢ": 5026,
      "56": 5027,
      "æĢİä¹Īæł·": 5028,
      "éĶĲ": 5029,
      "åĵįåºĶ": 5030,
      "èµĦäº§": 5031,
      "bl": 5032,
      "è½¨éģĵ": 5033,
      "åºĶåĬĽ": 5034,
      "çľŁæŃ£": 5035,
      "æĸĩåŃĹ": 5036,
      "èµĦéĩĳ": 5037,
      "ortuguÃªs": 5038,
      "åİĤåķĨ": 5039,
      "è®°èĢħ": 5040,
      "æķ´çĲĨ": 5041,
      "çº½": 5042,
      "æīĢéľĢ": 5043,
      "éªĮè¯ģ": 5044,
      "é¢Ħæµĭ": 5045,
      "èĲį": 5046,
      "æľ¬åľ°": 5047,
      "çĩĥæĸĻ": 5048,
      "æıĲè¦ģ": 5049,
      "å¸¸è§Ħ": 5050,
      "æµĳ": 5051,
      "åħ»æ®ĸ": 5052,
      "çĿ¡": 5053,
      "_(": 5054,
      "ç¼ĸç¨ĭ": 5055,
      "æĿ¿å¼ı": 5056,
      "ä¸ľè¥¿": 5057,
      "å°ıè¯´": 5058,
      "Ġä¸»é¡µ": 5059,
      "é¾Ļæ±Ł": 5060,
      "å±ķåİħ": 5061,
      "Ġå·´": 5062,
      "è·¯çģ¯": 5063,
      "ç§°ä¸º": 5064,
      "æĶ¶éĽĨ": 5065,
      "ä¸ĺ": 5066,
      "è¡Ĺéģĵ": 5067,
      "ç»Ħä»¶": 5068,
      "æĲ¬å®¶": 5069,
      "èĬĤçĽ®": 5070,
      "ç¿Ķ": 5071,
      "åĵģç§į": 5072,
      "è¾°": 5073,
      "åħīæºĲ": 5074,
      "æľĢå¥½": 5075,
      "çĲĥå¢¨éĵ¸éĵģ": 5076,
      "åĩ½æķ°": 5077,
      "ãĪ¢": 5078,
      "æ¸²": 5079,
      "Ġä¸»é¢ĺ": 5080,
      "77": 5081,
      "æłª": 5082,
      "éļĶçĥŃ": 5083,
      "ç¬ĶçĶ»": 5084,
      "css": 5085,
      "æī©å±ķ": 5086,
      "è¿ħéĢŁ": 5087,
      "éģ¥": 5088,
      "ä¿ĿåŃĺ": 5089,
      "èµ¤": 5090,
      "éĺģ": 5091,
      "ä¼į": 5092,
      "é¢ĸ": 5093,
      "98": 5094,
      "åıĳè¡Į": 5095,
      "yth": 5096,
      "å²©æ£ī": 5097,
      "ater": 5098,
      "Ġåįİ": 5099,
      "ç²¾éĢī": 5100,
      "Ġdo": 5101,
      "ock": 5102,
      "éĥ½å¸Ĥ": 5103,
      "yst": 5104,
      "æīĭæ¸¸": 5105,
      "çŁ¥åĲį": 5106,
      "æľĪä»½": 5107,
      "æĹ¶åĪ»": 5108,
      "è¯¸": 5109,
      "æ°´è´¨": 5110,
      "æ²¡æľīæī¾åĪ°": 5111,
      "æ¨±": 5112,
      "æ´»æĢ§çĤŃ": 5113,
      "çī©ä¸ļ": 5114,
      "Ġéĺħè¯»": 5115,
      "åħīä¼ı": 5116,
      "éĴ¢ä¸Ŀ": 5117,
      "åĤ¨åŃĺ": 5118,
      "æıŃ": 5119,
      "ç¢ĳ": 5120,
      "åĨ·åį´å¡Ķ": 5121,
      "å»¶éķ¿": 5122,
      "éļ§": 5123,
      "æĪĲéķ¿": 5124,
      "ç²ªæ±ł": 5125,
      "èĩŃæ°§": 5126,
      "æĹ¶çļĦ": 5127,
      "eth": 5128,
      "Ġåıĳå¸ĥæĹ¶éĹ´": 5129,
      "é©°": 5130,
      "è¡Įä¸º": 5131,
      "Ġdeutsch": 5132,
      "åıĳçĶµæľºç»Ħ": 5133,
      "é¡ºåĪ©": 5134,
      "éªĮæĶ¶": 5135,
      "Ã¡": 5136,
      "url": 5137,
      "æ³ķå¾ĭ": 5138,
      "åħ¬åı¸çļĦ": 5139,
      "Ġind": 5140,
      "æµģæ°´": 5141,
      "åıĳæĮ¥": 5142,
      "æ´ģåĩĢ": 5143,
      "Ġæ±½è½¦": 5144,
      "æĻ¯çĤ¹": 5145,
      "æĮĿ": 5146,
      "è¿ĺåı¯ä»¥": 5147,
      "\">": 5148,
      "ä»İäºĭ": 5149,
      "å½°": 5150,
      "Ġzh": 5151,
      "èĤ©": 5152,
      "æĥĬ": 5153,
      "è¸ı": 5154,
      "li": 5155,
      "å½ĵçĦ¶": 5156,
      "æĤł": 5157,
      "åĮĸç²ªæ±ł": 5158,
      "åħ½": 5159,
      "Ġ00": 5160,
      "æķĻæİĪ": 5161,
      "èľ¡": 5162,
      "æĻĴ": 5163,
      "ä¸įè¶³": 5164,
      "pre": 5165,
      "çĶ¨æĿ¥": 5166,
      "ĠçĥŃ": 5167,
      "click": 5168,
      "æĦŁåºĶ": 5169,
      "èµ·åĪ°": 5170,
      "ti": 5171,
      "é¢Ħéĺ²": 5172,
      "æĽ´æĸ°æĹ¶éĹ´": 5173,
      "åĩĮ": 5174,
      "åıĺéĢģåĻ¨": 5175,
      "æĹģ": 5176,
      "è¾Ĳå°Ħ": 5177,
      "éĶŁæĸ¤æĭ·éĶŁæĸ¤æĭ·éĶŁæĸ¤æĭ·éĶŁæĸ¤æĭ·": 5178,
      "cd": 5179,
      "go": 5180,
      "æĵİ": 5181,
      "çŃĸçķ¥": 5182,
      "å§Ĳ": 5183,
      "Ġé©¬": 5184,
      "çĮ´": 5185,
      "åħ¬å¯ĵ": 5186,
      "æĦıå¤§åĪ©": 5187,
      "æĬĳ": 5188,
      "ç¡®è®¤": 5189,
      "çĶµæ¢¯": 5190,
      "åīįä½įç½®": 5191,
      "æĻ´": 5192,
      "Ġ23": 5193,
      "åĩŃ": 5194,
      "æıĲä¾ĽäºĨ": 5195,
      "æĳ©çĺ¾": 5196,
      "å§Ķåĳĺ": 5197,
      "Ġæĺ¯": 5198,
      "ç»Ķ": 5199,
      "884": 5200,
      "Ġä¸įéĶĪéĴ¢": 5201,
      "æĸ°éĹ»ä¸Ńå¿ĥ": 5202,
      "Ġfil": 5203,
      "é£Łçī©": 5204,
      "æĬĢæľ¯æľīéĻĲåħ¬åı¸": 5205,
      "è¡ĮåĬ¨": 5206,
      "çĩķ": 5207,
      "ãĤħ": 5208,
      "æ±ģ": 5209,
      "åŃ¦æľ¯": 5210,
      "éĵĿåįķ": 5211,
      "çīµ": 5212,
      "Ġed": 5213,
      "åİĭç¼©æľº": 5214,
      "é¦Ī": 5215,
      "æĺ¯ä¸Ģå®¶": 5216,
      "Ġæīĭ": 5217,
      "Ġæ¯ı": 5218,
      "che": 5219,
      "Ġ2014": 5220,
      "yr": 5221,
      "è§Ĵèī²": 5222,
      "ç¨»": 5223,
      "å¸¸å·ŀ": 5224,
      "ç²īå°ĺ": 5225,
      "å°ģéĹŃ": 5226,
      "éĢīé¡¹": 5227,
      "æ´Ĺè¡£": 5228,
      "åı°ä¸Ń": 5229,
      "çĽ¸æľº": 5230,
      "åĬªåĬĽ": 5231,
      "éĹ¨çªĹ": 5232,
      "åį§å¼ı": 5233,
      "æĶ¯ä»ĺ": 5234,
      "çģ¯åħī": 5235,
      "åĩ°": 5236,
      "ĠçīĪæĿĥæīĢæľī": 5237,
      "è·¯éĿ¢": 5238,
      "å¯Ħ": 5239,
      "åħ»æĬ¤": 5240,
      "äºĴåĬ¨": 5241,
      "æĢª": 5242,
      "åĨĴ": 5243,
      "åłķ": 5244,
      "äººt": 5245,
      "æ¿¡": 5246,
      "æľĢç»Ī": 5247,
      "åŃĹä½ĵ": 5248,
      "åĬĽéĩı": 5249,
      "db": 5250,
      "è®¨è®ºåĮº": 5251,
      "dis": 5252,
      "æľ¨æĿĲ": 5253,
      "åĲĮåŃ¦": 5254,
      "å°¿": 5255,
      "ç½ĳç«Ļå»ºè®¾": 5256,
      "ç¡«åĮĸ": 5257,
      "Ġne": 5258,
      "uv": 5259,
      "çıłå®Ŀ": 5260,
      "èĻ¾": 5261,
      "sf": 5262,
      "vip": 5263,
      "ĠåĬł": 5264,
      "çĹĽ": 5265,
      "ä»¥åĲİ": 5266,
      "pen": 5267,
      "è°Ĳ": 5268,
      "è·³è½¬": 5269,
      "åĲįåįķ": 5270,
      "åĻ¨æ¢°": 5271,
      "å¥Ķ": 5272,
      "æĪĲç»©": 5273,
      "è§Ĩè®¯": 5274,
      "éħįå¤ĩ": 5275,
      "çĶµç¼ĨåĽŀæĶ¶": 5276,
      "æ©¡èĥ¶æĶ¯åº§": 5277,
      "æ£®æŀĹ": 5278,
      "å°ıçļĦ": 5279,
      "éĢĽ": 5280,
      "åĳĪçİ°": 5281,
      "å®łçī©": 5282,
      "çŁ³èĭ±": 5283,
      "å·¾": 5284,
      "åķĨæłĩ": 5285,
      "åĪĨæķ£": 5286,
      "è¿ĩåİ»": 5287,
      "å°Ŀ": 5288,
      "az": 5289,
      "ç¨ĭä¸Ń": 5290,
      "æ²¥éĿĴ": 5291,
      "å¿ł": 5292,
      "Ġstyle": 5293,
      "ann": 5294,
      "è¾ĵéĢģå¸¦": 5295,
      "èł": 5296,
      "é»ĳé¾Ļæ±Ł": 5297,
      "æ¯ĶåĪĨ": 5298,
      "æŃ¤æ¬¡": 5299,
      "Ġpe": 5300,
      "aliano": 5301,
      "çĶ²åŁº": 5302,
      "æİĴåºı": 5303,
      "æĹłè®º": 5304,
      "ä¹±": 5305,
      "åĪĽä½ľ": 5306,
      "ä¸įå°ĳ": 5307,
      "å¸ĥç½®": 5308,
      "ç±į": 5309,
      "ä½İäºİ": 5310,
      "inux": 5311,
      "ĠéĻĪ": 5312,
      "ä¸Ĭä¼ł": 5313,
      "éĩĩåıĸ": 5314,
      "Ġæĸ°éĹ»ä¸Ńå¿ĥ": 5315,
      "æħķ": 5316,
      "å·¥ä»¶": 5317,
      "å§£": 5318,
      "type": 5319,
      "pm": 5320,
      "æĳ©çĺłæĤŃ": 5321,
      "éĦ": 5322,
      "æĸĳ": 5323,
      "å±ŀæĢ§": 5324,
      "ä¾¿åĪ©": 5325,
      "Ġæĺ¾ç¤º": 5326,
      "å¨ľ": 5327,
      "è§ĦåĪĻ": 5328,
      "éľį": 5329,
      "ÑĦ": 5330,
      "åĬŀåħ¬å®¤": 5331,
      "æĹłéľĢ": 5332,
      "çħ®": 5333,
      "âķĤ": 5334,
      "åıĳçĶµ": 5335,
      "çħİ": 5336,
      "oy": 5337,
      "ç¹ģä½ĵä¸Ńæĸĩ": 5338,
      "æµ·æ´ĭ": 5339,
      "æıĲé«ĺäºĨ": 5340,
      "èĬĤçľģ": 5341,
      "ä¸Ńå¤®": 5342,
      "ç®Ģçº¦": 5343,
      "å¨²": 5344,
      "æ¯«ç±³": 5345,
      "åĮĻ": 5346,
      "ä¾¿æĲºå¼ı": 5347,
      "çĽ¸å½ĵ": 5348,
      "æĺ¯æĮĩ": 5349,
      ")(": 5350,
      "åľºåľ°": 5351,
      "èµĭ": 5352,
      "å°¼äºļ": 5353,
      "hä¿Ŀ": 5354,
      "æĢ§è´¨": 5355,
      "ä¸įæĺĵ": 5356,
      "Ġéķ¿": 5357,
      "ica": 5358,
      "é«ĺæ¸ħ": 5359,
      "éĴ¢éĵģ": 5360,
      "è¿Ŀ": 5361,
      "åĢ¼å¾Ĺ": 5362,
      "ä¾µ": 5363,
      "åıĳåħī": 5364,
      "çģ¯åħ·": 5365,
      "69": 5366,
      "ull": 5367,
      "åħ±äº«": 5368,
      "èº«ä½ĵ": 5369,
      "åģľæŃ¢": 5370,
      "ä¸Ģèĩ´": 5371,
      "Ġå¤ĸ": 5372,
      "cp": 5373,
      "ç£ħ": 5374,
      "æĹ¦": 5375,
      "å¹¶ä¸į": 5376,
      "åĨįæ¬¡": 5377,
      "èĲĮ": 5378,
      "ç¡«éħ¸": 5379,
      "è£¤": 5380,
      "ĠæĿİ": 5381,
      "åĪ¶çłĤ": 5382,
      "æĶ¾åľ¨": 5383,
      "Ġfont": 5384,
      "Ġbl": 5385,
      "åıĳçĶŁåĻ¨": 5386,
      "éĩľ": 5387,
      "é«ĺæĸ°": 5388,
      "çĶµç«ŀ": 5389,
      "lic": 5390,
      "çĽ´éĶĢ": 5391,
      "èĲ¥ä¸ļ": 5392,
      "èĦīåĨ²": 5393,
      "ç»Łä¸Ģ": 5394,
      "çļĦæĬĢæľ¯": 5395,
      "æ·Ħ": 5396,
      "éĽķåĪ»": 5397,
      "åŁĶ": 5398,
      "æģĭ": 5399,
      "ĠçĶµåŃĲ": 5400,
      "èµ«": 5401,
      "è¢ĸ": 5402,
      "æĭįåįĸ": 5403,
      "ç§°éĩį": 5404,
      "åľ£è¯ŀ": 5405,
      "é¢ĨåħĪ": 5406,
      "ĠçļĦè¯Ħè®º": 5407,
      "éĵģè·¯": 5408,
      "ä½ĵèĤ²app": 5409,
      "mod": 5410,
      "èĤº": 5411,
      "å¿ĺ": 5412,
      "å®¢éĤ¦": 5413,
      "å¹´æĿ¥": 5414,
      "ä½Ľå±±å¸Ĥ": 5415,
      "åı¦ä¸Ģ": 5416,
      "å¹¸ç¦ı": 5417,
      "æľ±": 5418,
      "ç»ŀ": 5419,
      "åĲĦn": 5420,
      "å·¥åľ°": 5421,
      "åĪ©äºİ": 5422,
      "äºĭåĬ¡": 5423,
      "bs": 5424,
      "æ°´çļĦ": 5425,
      "èĮ¨": 5426,
      "å»ī": 5427,
      "å¦Ļ": 5428,
      "360": 5429,
      "æİ¥çº¿": 5430,
      "æķ°ä½į": 5431,
      "ĠçĹ": 5432,
      "å¸ĥè¢ĭ": 5433,
      "èĩ´åĬĽ": 5434,
      "èĩªä¸»": 5435,
      "åĪ¤æĸŃ": 5436,
      "éļ§éģĵ": 5437,
      "æĮĳæĪĺ": 5438,
      "çİ«çĳ°": 5439,
      "æĦĪ": 5440,
      "2022": 5441,
      "hd": 5442,
      "æľīæķĪçļĦ": 5443,
      "err": 5444,
      "æĮĸæİĺ": 5445,
      "éĽ¶éĥ¨ä»¶": 5446,
      "æıĲåıĸ": 5447,
      "Ġ24": 5448,
      "ç®¡åİĤå®¶": 5449,
      "mt": 5450,
      "å¼ĥ": 5451,
      "é¹ħ": 5452,
      "Ð²": 5453,
      "èĽĭçĻ½": 5454,
      "æº¶åīĤ": 5455,
      "ç¢ĵ": 5456,
      "ä½©": 5457,
      "æĺı": 5458,
      "Ġlv": 5459,
      "ç¡ħèĥ¶": 5460,
      "èĶ½": 5461,
      "æĺ¾ç¤ºå±ı": 5462,
      "çĤ¬": 5463,
      "åıªèĥ½": 5464,
      "æĬķåħ¥": 5465,
      "åħĨ": 5466,
      "éĶ¤": 5467,
      "box": 5468,
      "æ²¹æ¼Ĩ": 5469,
      "çĲĨè§£": 5470,
      "è¿Ī": 5471,
      "ç¤ºèĮĥ": 5472,
      "åķĨå®¶": 5473,
      "åıĳè¡¨äºİ": 5474,
      "åĽĽæ°Ł": 5475,
      "è¿Ĳè½¬": 5476,
      "å½±åĥı": 5477,
      "ä¾Ŀæį®": 5478,
      "æº¶æ¶²": 5479,
      "çĶŁæĹ¥": 5480,
      "éĴ¥": 5481,
      "èĳ£äºĭ": 5482,
      "bç½®": 5483,
      "001": 5484,
      "è£ķ": 5485,
      "è·ĥ": 5486,
      "ä»¥æĿ¥": 5487,
      "ä½įç§»": 5488,
      "åİĭåĬĽè¡¨": 5489,
      "è¿ĳæľŁ": 5490,
      "ç¼ºéĻ·": 5491,
      "æĬ¹": 5492,
      "å¾Īå¤§": 5493,
      "è´Łèį·": 5494,
      "åĲĦä¸ª": 5495,
      "éĤ¯": 5496,
      "æ´Ľéĺ³": 5497,
      "vel": 5498,
      "bc": 5499,
      "ä¸ĵåĮº": 5500,
      "æĥ°": 5501,
      "çĽ´çº¿": 5502,
      "ä»»æĦı": 5503,
      "ãĥ©": 5504,
      "ä¸¨": 5505,
      "åŃĲçļĦ": 5506,
      "æĭįæĳĦ": 5507,
      "éĤ»": 5508,
      "idth": 5509,
      "æ¯įçº¿": 5510,
      "Ġpix": 5511,
      "ç§Łè½¦": 5512,
      "æĬĹéľĩ": 5513,
      "æ°´ç®¡": 5514,
      "ç¿¼": 5515,
      "èĪŁ": 5516,
      "èĬ¯çīĩ": 5517,
      "Ġä¸»": 5518,
      "é¥®æĸĻ": 5519,
      "59": 5520,
      "æĭľ": 5521,
      "åĨ·åĨ»": 5522,
      "Ġpar": 5523,
      "å¤§ä¼ļ": 5524,
      "ä¹Ķ": 5525,
      "åĸĿ": 5526,
      "æľŁåĪĬ": 5527,
      "order": 5528,
      "di": 5529,
      "æ¶¤": 5530,
      "ŀå®¢éĤ¦": 5531,
      "å¼ĺ": 5532,
      "åİŁåĪĻ": 5533,
      "æĪĲäº¤": 5534,
      "Ġ50": 5535,
      "çĲĨè´¢": 5536,
      "ç¾½": 5537,
      "ĠèĬ±": 5538,
      "è½¯ç®¡": 5539,
      "åī©": 5540,
      "){": 5541,
      "å½ĵåľ°": 5542,
      "æ°¯åĮĸ": 5543,
      "åı¯çĶ¨": 5544,
      "ç¼ł": 5545,
      "æĿĥéĻĲ": 5546,
      "çļĦåĬŁèĥ½": 5547,
      "å¯¤": 5548,
      "å¸ķ": 5549,
      "éĩįåŀĭ": 5550,
      "é¢ĦæĬ¥": 5551,
      "åĽŀè½¬": 5552,
      "åı¯åľ¨": 5553,
      "çªĳ": 5554,
      "mçļĦ": 5555,
      "250": 5556,
      "åĨľæĿĳ": 5557,
      "éĴ©": 5558,
      "Ġè½¦": 5559,
      "atch": 5560,
      "ake": 5561,
      "çļĦéľĢæ±Ĥ": 5562,
      "èĪ°": 5563,
      "æĭĽçĶŁ": 5564,
      "æĶ¶ç¼©": 5565,
      "ä»Ģä¹Īæĺ¯": 5566,
      "æĪ¿äº§": 5567,
      "ade": 5568,
      "åĪ°çļĦ": 5569,
      "éĽ¶åĶ®": 5570,
      "Ġreturn": 5571,
      "æİ¢æµĭ": 5572,
      "å±ıå¹ķ": 5573,
      "æĶĢ": 5574,
      "åĳ½ä»¤": 5575,
      "res": 5576,
      "ä½ĵä¼ļ": 5577,
      "åĻ¨ä»¶": 5578,
      "ç²ĺåº¦": 5579,
      "æĻºèĥ½åĮĸ": 5580,
      "æµľÑĥ": 5581,
      "å¼¯æĽ²": 5582,
      "éĵŃ": 5583,
      "å¹²åĩĢ": 5584,
      "è½¬è®©": 5585,
      "å¯¼ä½ĵ": 5586,
      "é¾Ħ": 5587,
      "æ¾³éĹ¨": 5588,
      "æµģè¡Į": 5589,
      "ç¢§": 5590,
      "éĩĳåĪļ": 5591,
      "ç½Ĺæĸ¯": 5592,
      "æ¸ħåįķ": 5593,
      "åķĨçĶ¨": 5594,
      "list": 5595,
      "åĽ¾ä¹¦é¦Ĩ": 5596,
      "æħĪ": 5597,
      "Ġé¾Ļ": 5598,
      "çĻĮ": 5599,
      "äºĮæ°§åĮĸ": 5600,
      "78": 5601,
      "èĩªæ²»": 5602,
      "äº§çĶŁçļĦ": 5603,
      "æīĢåľ¨çļĦä½įç½®": 5604,
      "éŀį": 5605,
      "æ°´åĪ©": 5606,
      "æ¡ĥåĽŃ": 5607,
      "æ¶¦æ»ĳæ²¹": 5608,
      "å®ŀåĬĽ": 5609,
      "çŁ¢": 5610,
      "éħ°": 5611,
      "Ġ$(\"#": 5612,
      "çī¦æ½Ń": 5613,
      "çģŃçģ«": 5614,
      "æĻ®çī¦æ½Ń": 5615,
      "font": 5616,
      "å¢ĻéĿ¢": 5617,
      "çĲĨè®º": 5618,
      "Ġinst": 5619,
      "åı¯èĥ½ä¼ļ": 5620,
      "é¹¤": 5621,
      "åĲ¸å¼ķ": 5622,
      "åĶĲå±±": 5623,
      "Ġæ´»åĬ¨": 5624,
      "no": 5625,
      "Ġç®Ģä½ĵä¸Ńæĸĩ": 5626,
      "è½®èĥİ": 5627,
      "æĸ¹å½¢": 5628,
      "æĨ": 5629,
      "éªĳ": 5630,
      "ĠçĪ±": 5631,
      "æĬķy": 5632,
      "æµ·å¤ĸ": 5633,
      "ä¸ĵéĹ¨": 5634,
      "ç»Īç«¯": 5635,
      "å®´": 5636,
      "èĪŀåı°": 5637,
      "åĸ·æ¶Ĥ": 5638,
      "èı±": 5639,
      "èģĶèµĽ": 5640,
      "ä¸īè§Ĵ": 5641,
      "åŀ¢": 5642,
      "æĸ°æµª": 5643,
      "åĲįåŃĹ": 5644,
      "ÑĨ": 5645,
      "æŁı": 5646,
      "Ġper": 5647,
      "ĠçĹŀå®¢éĤ¦": 5648,
      "è¾ĥå¤§": 5649,
      "æľ¬æĸĩåħ³éĶ®è¯į": 5650,
      "åĩ¤åĩ°": 5651,
      "åı¯æł¹æį®": 5652,
      "å¤Ħäºİ": 5653,
      "çıįçıł": 5654,
      "å®ģå¤ı": 5655,
      "èĬ¬": 5656,
      "åŃĹæ¯į": 5657,
      "åĬŀçĲĨ": 5658,
      "äº¡": 5659,
      "Ġitaliano": 5660,
      "å¤§è¿ŀ": 5661,
      "æĮĩå®ļ": 5662,
      "åİŁæĿĲæĸĻ": 5663,
      "Ġmore": 5664,
      "310": 5665,
      "ç®¡çĲĨæľīéĻĲåħ¬åı¸": 5666,
      "è½¯ä½ĵ": 5667,
      "æīĵåĮħ": 5668,
      "çĹķ": 5669,
      "Ġ22": 5670,
      "å®¢åİħ": 5671,
      "åĭŁ": 5672,
      "Ġweb": 5673,
      "èŀºä¸Ŀ": 5674,
      "èĴ¸åıĳ": 5675,
      "åħ¬æĸ¤": 5676,
      "å¥ı": 5677,
      "å®½åº¦": 5678,
      "olog": 5679,
      "å±¥": 5680,
      "èħĳ": 5681,
      "ä¸ĵæ³¨": 5682,
      "Î»": 5683,
      "Ġ==": 5684,
      "æĬĺåıł": 5685,
      "èµĽäºĭ": 5686,
      "èģĶè½´": 5687,
      "Ã¼": 5688,
      "iso": 5689,
      "ä¸īç»´": 5690,
      "çī©èģĶç½ĳ": 5691,
      "æĸ¹éĿ¢çļĦ": 5692,
      "ä¸ĭæĿ¥": 5693,
      "ÑĢÑĥ": 5694,
      "ä¸įéĶĻ": 5695,
      "çī¹ç§į": 5696,
      "ä¸ĸçºª": 5697,
      "æ¶²ä½įè®¡": 5698,
      "éĤĢ": 5699,
      "Ġæĸĩ": 5700,
      "Ġä¿Ŀ": 5701,
      "æĩĤ": 5702,
      "ä¸ľæĸ¹": 5703,
      "è´¤": 5704,
      "éĢıè¿ĩ": 5705,
      "ä¸įåŃĺåľ¨": 5706,
      "äºļæ´²": 5707,
      "oh": 5708,
      "å¼ºåĮĸ": 5709,
      "å°ĳå¹´": 5710,
      "ra": 5711,
      "çĭĤ": 5712,
      "Ġä¸ĭè½½": 5713,
      "å¼ºçļĦ": 5714,
      "æľīå¾Īå¤ļ": 5715,
      "Ġåľ°": 5716,
      "å±ķçİ°": 5717,
      "Ġke": 5718,
      "æ¸¡": 5719,
      "text": 5720,
      "ãĢĭ,": 5721,
      "èħ°": 5722,
      "é¢Ħè®¡": 5723,
      "èµł": 5724,
      "åį¢": 5725,
      "æ·±åħ¥": 5726,
      "æķ¦æ¡´çĳ°æĻ®çī¦æ½Ń": 5727,
      "æłĭ": 5728,
      "Ġ2015": 5729,
      "ĠçĤ¹": 5730,
      "ÏĨ": 5731,
      "è¯ķåīĤ": 5732,
      "ä¸ĢçĤ¹": 5733,
      "åŁİåĮº": 5734,
      "æĪ¿éĹ´": 5735,
      "ĠæľįåĬ¡": 5736,
      "åĩĳ": 5737,
      "},": 5738,
      "çĮİ": 5739,
      "Ġdata": 5740,
      "è½¬åŃĲ": 5741,
      "åı¯çĶ¨äºİ": 5742,
      "ĠæĺŁ": 5743,
      "åħ´è¶£": 5744,
      "å¼Ĥå¸¸": 5745,
      "Ġèĭ±": 5746,
      "çİĦ": 5747,
      "è¿Ļæł·çļĦ": 5748,
      "Ġä¸ĭä¸ĢæĿ¡": 5749,
      "èį¡": 5750,
      "ç§ĳæĬĢèĤ¡ä»½æľīéĻĲåħ¬åı¸": 5751,
      "å¥Ī": 5752,
      "ç²¾å½©": 5753,
      "ank": 5754,
      "ions": 5755,
      "åĨ¬åŃ£": 5756,
      "å¿«æį·": 5757,
      "ä¸īä¸ª": 5758,
      "çĽ¸p": 5759,
      "åŁ¹è®Ńè¯¾ç¨ĭ": 5760,
      "Ġelse": 5761,
      "å²³": 5762,
      "put": 5763,
      "æĻ°": 5764,
      "æĶ¾å¤§": 5765,
      "by": 5766,
      "åĪ¶èį¯": 5767,
      "éĿĴå¹´": 5768,
      "è¿ŀæİ¥åĻ¨": 5769,
      "éĩĮçļĦ": 5770,
      "æĹ¨": 5771,
      "ĠåĪĨ": 5772,
      "èĨľç»ĵæŀĦ": 5773,
      "éĿĸ": 5774,
      "èµ·éĩįæľº": 5775,
      "å°¼é¾Ļ": 5776,
      "ri": 5777,
      "äºĭä¸ļ": 5778,
      "Ġä½¿çĶ¨": 5779,
      "å¤§æķ°æį®": 5780,
      "çĽ¸äºĴ": 5781,
      "Ġchina": 5782,
      "ily": 5783,
      "ç®¡ä»¶": 5784,
      "ç¯®çĲĥ": 5785,
      "æ¡Īä¾ĭå±ķç¤º": 5786,
      "åºĵåŃĺ": 5787,
      "Ġå»ºçŃĳ": 5788,
      "ifi": 5789,
      "æķĻåŃ¦å½±çīĩ": 5790,
      "åįļå£«": 5791,
      "çļĦè´¨éĩı": 5792,
      "èģļä¸Ļçĥ¯": 5793,
      "ç¦ıå·ŀ": 5794,
      "æĸĻæľº": 5795,
      "Ġmin": 5796,
      "çİ©åħ·": 5797,
      "å§Ķåĳĺä¼ļ": 5798,
      "åİ»éĻ¤": 5799,
      "çģĮæµĨ": 5800,
      "è½©": 5801,
      "æĺ¯ä¸Ģæ¬¾": 5802,
      "è®°å¿Ĩ": 5803,
      "è§Ĥçľĭ": 5804,
      "æ³¢çº¹ç®¡": 5805,
      "ç»®": 5806,
      "èĬľ": 5807,
      "çĳŃ": 5808,
      "æ·¬": 5809,
      "æĸ°å¢ŀ": 5810,
      "åĩ¹": 5811,
      "åįĹéĢļ": 5812,
      "æĶ¾ç½®": 5813,
      "æįķ": 5814,
      "kv": 5815,
      "æ¥¼å±Ĥ": 5816,
      "èŀºæ¯į": 5817,
      "çļĦçĶŁäº§": 5818,
      "ç«ŀèµĽ": 5819,
      "ãģŁ": 5820,
      "å§ľ": 5821,
      "çĶŁçī©è´¨": 5822,
      "ä¼ĺæĥł": 5823,
      "ĠåĽĽ": 5824,
      "ĠæľĢæĸ°": 5825,
      "åĮ¹éħį": 5826,
      "ä¸ĭåįĪ": 5827,
      "åķ¦": 5828,
      "ĠportuguÃªs": 5829,
      "äºĮçº§": 5830,
      "è¯·æ±Ĥ": 5831,
      "å¤ĸå½¢": 5832,
      "è¶ĬåįĹ": 5833,
      "æ°´è®¾å¤ĩ": 5834,
      "å¼ķæĵİ": 5835,
      "åħĶ": 5836,
      "æİ¢ç´¢": 5837,
      "èį§": 5838,
      "ä¸´æ²Ĥ": 5839,
      "é¹°": 5840,
      "ç²¤": 5841,
      "çģ¸": 5842,
      "çł´åĿı": 5843,
      "Ñĩ": 5844,
      "èĴĤ": 5845,
      "æ¸ĹéĢı": 5846,
      "Ġæ²³åįĹ": 5847,
      "?-": 5848,
      "æĲ¬è¿Ĳ": 5849,
      "åį±å®³": 5850,
      "æīģ": 5851,
      "xx": 5852,
      "æĸĩæĺİ": 5853,
      "ä¼łæĴŃ": 5854,
      "è¿Ľè¡ĮäºĨ": 5855,
      "ç«ĭä½ĵ": 5856,
      "çļĨ": 5857,
      "å¸¸è§ģçļĦ": 5858,
      "åĮħè£ħè®¾è®¡": 5859,
      "Ġåı°æ¹¾": 5860,
      "nbsp": 5861,
      "hy": 5862,
      "çĶŁçļĦ": 5863,
      "\")": 5864,
      "å°¼æĸ¯": 5865,
      "ç¬¬äºĶ": 5866,
      "çıŃçīĻ": 5867,
      "ython": 5868,
      "åıĳæ³¡": 5869,
      "æ¥¼çĽĺ": 5870,
      "åĲĦåľ°": 5871,
      "æĬ¥åĲį": 5872,
      "Ġ25": 5873,
      "icpå¤ĩ": 5874,
      "ä¾ł": 5875,
      "Ġno": 5876,
      "åĨĪ": 5877,
      "å®¤åĨħè®¾è®¡": 5878,
      "......": 5879,
      "item": 5880,
      "çĭ®": 5881,
      "æºĲçłģ": 5882,
      "é«ĺç©º": 5883,
      "çļĦéĢīæĭ©": 5884,
      "æıĲéĨĴ": 5885,
      "å£ģçº¸": 5886,
      "å¢ĵ": 5887,
      "åı¯éĿłæĢ§": 5888,
      "æ¶īåıĬ": 5889,
      "è´µéĺ³": 5890,
      "Ġå±±ä¸ľ": 5891,
      "ç±»ä¼¼": 5892,
      "search": 5893,
      "æĪĸæĺ¯": 5894,
      "å¤§æ°Ķ": 5895,
      "é«ĺèĢĥ": 5896,
      "åĬ£": 5897,
      "çŃīçī¹çĤ¹": 5898,
      "æī¿åıĹ": 5899,
      "åĽºä½ĵ": 5900,
      "å®¶çĶµ": 5901,
      "move": 5902,
      "316": 5903,
      "Ġå¾®": 5904,
      "è¡¨æ¼Ķ": 5905,
      "éļĲç§ģ": 5906,
      "wçļĦ": 5907,
      "ron": 5908,
      "ç»ĭ": 5909,
      "Ġ2010": 5910,
      "è°ģ": 5911,
      "ç¥ĸ": 5912,
      "çŀ¬": 5913,
      "éķį": 5914,
      "fa": 5915,
      "éľī": 5916,
      "è¾©": 5917,
      "---": 5918,
      "è¯ĦåĪĨ": 5919,
      "æķĪçİĩé«ĺ": 5920,
      "96": 5921,
      "æĦıä¹ī": 5922,
      "({": 5923,
      "åĨ·åºĵ": 5924,
      "ni": 5925,
      "åħĭåĬĽ": 5926,
      "çºªå¿µ": 5927,
      "Ġä»¥": 5928,
      "éĩįå¤į": 5929,
      "Â±": 5930,
      "ĠæµĻæ±Ł": 5931,
      "sol": 5932,
      "2008": 5933,
      "æįŁå¤±": 5934,
      "çĲĥéĺĢ": 5935,
      "æŁ¯": 5936,
      "å¹³ç±³": 5937,
      "çŃ¹": 5938,
      "ç¡Ŀ": 5939,
      "æ°´å¤ĦçĲĨ": 5940,
      "Ġcol": 5941,
      "ĠçŁ³": 5942,
      "dm": 5943,
      "ski": 5944,
      "æŀ¶æŀĦ": 5945,
      "æĺĤ": 5946,
      "Ġè½¬": 5947,
      "Ġæ±Łèĭı": 5948,
      "çº¸ç®±": 5949,
      "tag": 5950,
      "her": 5951,
      "åħ¥å¼ı": 5952,
      "Ġmy": 5953,
      "èĢĲçĶ¨": 5954,
      "Ġæ¬§": 5955,
      "æ¢¨": 5956,
      "ÑģÐºÐ¸Ð¹": 5957,
      "è¶ħå¸Ĥ": 5958,
      "Ġå¼Ģ": 5959,
      "å¾Īå¥½": 5960,
      "åħ¬çĽĬ": 5961,
      "æŀ£": 5962,
      "çļĦä¸ªäººèµĦæĸĻ": 5963,
      "å·®å¼Ĥ": 5964,
      "éĤ£äºĽ": 5965,
      "åŃ£åº¦": 5966,
      ")_": 5967,
      "ä¸Ńæľī": 5968,
      "éĥ½åı¯ä»¥": 5969,
      "ä¸ŃåŃ¦": 5970,
      "è®³": 5971,
      ",_": 5972,
      "éĵĿåįķæĿ¿": 5973,
      "çłĶç£¨": 5974,
      "å¿§": 5975,
      "æľĢå¤§çļĦ": 5976,
      "è¯¯å·®": 5977,
      "åįī": 5978,
      "å¤©ä¸ĭ": 5979,
      "çĪ±çļĦ": 5980,
      "ä¸įçĶ¨": 5981,
      "çĽ¸åħ³æłĩçŃ¾": 5982,
      "è¿ĳæĹ¥": 5983,
      "åłµå¡ŀ": 5984,
      "ç®ĢåįķçļĦ": 5985,
      "èħ»": 5986,
      "uc": 5987,
      "ond": 5988,
      "æ¤ĭ": 5989,
      "ystem": 5990,
      "å¿Ļ": 5991,
      "æ´Ĵ": 5992,
      "åĵªä¸ª": 5993,
      "çĪ¬": 5994,
      "âī¤": 5995,
      "éĴ»çŁ³": 5996,
      "å¿½": 5997,
      "iss": 5998,
      "åģļæ³ķ": 5999,
      "Ġcomm": 6000,
      "å¹¿å¤§": 6001,
      "97": 6002,
      "æķ´åĲĪ": 6003,
      "æ³µç«Ļ": 6004,
      "è¡¨è¾¾": 6005,
      "ãĢĭãĢĬ": 6006,
      "çīĽçļ®": 6007,
      "è´¯": 6008,
      "æ·Ħåįļ": 6009,
      "éŃĤ": 6010,
      "çŃīè¡Įä¸ļ": 6011,
      "è²Į": 6012,
      "æ©¹": 6013,
      "enter": 6014,
      "Ġå°¾é¡µ": 6015,
      "å¦ĤæŃ¤": 6016,
      "Ġå·¥ä¸ļ": 6017,
      "ount": 6018,
      "ä¹ĭå¤ĸ": 6019,
      "zæŁ¥": 6020,
      ",,": 6021,
      "ÑĮ": 6022,
      "å¡«åħħ": 6023,
      "éªĦ": 6024,
      "èĩ´åĬĽäºİ": 6025,
      "æĶ»åĩ»": 6026,
      "attr": 6027,
      "é£İéĩĩ": 6028,
      "é½Ĳåħ¨": 6029,
      "åį¡éĢļ": 6030,
      "port": 6031,
      "ä»ĸçļĦ": 6032,
      "è§Ĥåħī": 6033,
      "ç»£": 6034,
      "åŃĻ": 6035,
      "æıĲä¾ĽçļĦ": 6036,
      "éĺ²æĴŀ": 6037,
      "åĲĪä½ľä¼Ļä¼´": 6038,
      "äºĭæĥħ": 6039,
      "ĠæŀĹ": 6040,
      "è®¤è¯Ĩ": 6041,
      "windows": 6042,
      "æ¾¶Ñĥ": 6043,
      "çģ«éĶħ": 6044,
      "æĢ»ç»ĵ": 6045,
      "ear": 6046,
      "çĻ»éĻĨ": 6047,
      "åŀĭçļĦ": 6048,
      "ç©ºåİĭæľº": 6049,
      "éĥ½åľ¨": 6050,
      "å¤§åİ¦": 6051,
      "æĭĨéĻ¤": 6052,
      "les": 6053,
      "ä»·æł¼è¡Įæĥħ": 6054,
      "Ġnor": 6055,
      "å¸¸è§ģéĹ®é¢ĺ": 6056,
      "Ġvs": 6057,
      "æĮĳéĢī": 6058,
      "Ġpixnet": 6059,
      "Ġset": 6060,
      "å¸¦æľī": 6061,
      "ĠåĽ½": 6062,
      "å®īåħ¨æĢ§": 6063,
      "çķĻåŃ¦": 6064,
      "è£ħç®±": 6065,
      "éĢĤå½ĵ": 6066,
      "ument": 6067,
      "åľºåĲĪ": 6068,
      "yæºĲ": 6069,
      "^,": 6070,
      "åİį": 6071,
      "å¤§çĲĨ": 6072,
      "åĴ¸": 6073,
      "èĤł": 6074,
      "web": 6075,
      "ä¸ªæĢ§": 6076,
      "ÑģÑģÐºÐ¸Ð¹": 6077,
      "å¢ĻæĿ¿": 6078,
      "æľºæ¢°è®¾å¤ĩ": 6079,
      "æľŁè´§": 6080,
      "eder": 6081,
      "Ġ()": 6082,
      "æ³Ĭ": 6083,
      "ç»´åŁº": 6084,
      "icon": 6085,
      "å¦ĩ": 6086,
      "orld": 6087,
      "çļĦæĢ§èĥ½": 6088,
      "é¥±": 6089,
      "è¡ĮæĶ¿": 6090,
      "Ġéĺ¿": 6091,
      "å°±ä¸ļ": 6092,
      "å¾Ģå¾Ģ": 6093,
      "nåĶ®": 6094,
      "èĤĿ": 6095,
      "doc": 6096,
      "åİ¢": 6097,
      "çļĦä¸į": 6098,
      "çĵ·çłĸ": 6099,
      "ings": 6100,
      "æıĴä»¶": 6101,
      "å¤§éĥ¨åĪĨ": 6102,
      "ç®¡è·¯": 6103,
      "Ġåħ¨éĥ¨": 6104,
      "çĪ¸": 6105,
      "ale": 6106,
      "åĲİæľŁ": 6107,
      "crmo": 6108,
      "ta": 6109,
      "ç¾İæľ¯": 6110,
      "èĦı": 6111,
      "èħ¾è®¯è§Ĩé¢ĳ": 6112,
      "åĮĸå¦Ĩåĵģ": 6113,
      "åĿľ": 6114,
      "å¾ĭå¸Ī": 6115,
      "ä¸Ģå¹´": 6116,
      "Ġwas": 6117,
      "é£İç®¡": 6118,
      "æ²Ļåıĳ": 6119,
      "åĪ¶åº¦": 6120,
      "æĲľç´¢ç»ĵæŀľ": 6121,
      "ä¼łéĢĴ": 6122,
      "wj": 6123,
      "Ġcr": 6124,
      "å¹³ç¨³": 6125,
      "uan": 6126,
      "æľĢå¥½çļĦ": 6127,
      "å°±èĥ½": 6128,
      "è®²è§£": 6129,
      "Ġäºĳ": 6130,
      "åŀĭéĴ¢": 6131,
      "æĪĲåĳĺ": 6132,
      "æĳĦåĥı": 6133,
      "èį§åħī": 6134,
      "æĢķ": 6135,
      "æĽ²çº¿": 6136,
      "éĩįc": 6137,
      "æ°´æŀľ": 6138,
      "ä¸ĬéĿ¢": 6139,
      "åį³å°Ĩ": 6140,
      "é¼»": 6141,
      "icro": 6142,
      "æ³Ħæ¼ı": 6143,
      "è½¬éĢŁ": 6144,
      "æķ°æĺ¾": 6145,
      "æ£Ģç´¢": 6146,
      "åı°åįĹ": 6147,
      "</": 6148,
      "å¤ĸéĥ¨": 6149,
      "å¯¹åºĶ": 6150,
      "æī¿åĮħ": 6151,
      "æĮł": 6152,
      "ç¾İä¸½": 6153,
      "çľī": 6154,
      "Ġlo": 6155,
      "ls": 6156,
      "å¯º": 6157,
      "å¤ĦçĲĨåĻ¨": 6158,
      "å¦ĤæŀľæĤ¨": 6159,
      "ä¸Ĭåįĩ": 6160,
      "fs": 6161,
      "çļ®èĤ¤": 6162,
      "å®¢æĪ·ç«¯": 6163,
      "å¯¼çĥŃ": 6164,
      "çłĶç©¶çĶŁ": 6165,
      "èŀįèµĦ": 6166,
      "].": 6167,
      "Ġcar": 6168,
      "çĽ¸ä¿¡": 6169,
      "éĶĽæµł": 6170,
      "rs": 6171,
      "æŀĦå»º": 6172,
      "éĿĴæµ·": 6173,
      "ä¼łåªĴ": 6174,
      "çº·": 6175,
      "å¿ĹæĦ¿": 6176,
      "title": 6177,
      "æ¶ĪèĢĹ": 6178,
      "tp": 6179,
      "å®¶éķ¿": 6180,
      "çĸ²": 6181,
      "é¢ĦåĪ¶": 6182,
      "çŁ¿å±±": 6183,
      "æĽ´å¤ļçļĦ": 6184,
      "å±¯": 6185,
      "ĠæĢ»": 6186,
      "ä¸įéľĢè¦ģ": 6187,
      "æŀª": 6188,
      "çľ¼éķľ": 6189,
      "äººåĬĽ": 6190,
      "Ġled": 6191,
      "lock": 6192,
      "âĢķâĢķ": 6193,
      "wh": 6194,
      "è´¢åĬ¡": 6195,
      "åģ¥èº«": 6196,
      "è¦ģçĤ¹": 6197,
      "åĮĹå¸Ĥ": 6198,
      "æĸ¹ä½į": 6199,
      "ĠèĩªåĬ¨": 6200,
      "ther": 6201,
      "æ²¹å¢¨": 6202,
      "Ġçº¢": 6203,
      "åķĬ": 6204,
      "åĪĨåħ¬åı¸": 6205,
      "å¤§ä¼Ĺ": 6206,
      "âħ": 6207,
      "é«ĺä¸Ń": 6208,
      "æĶ¯æı´": 6209,
      "åĪĨç«Ļ": 6210,
      "é¬¼": 6211,
      "ç®Ģç¬ĶçĶ»": 6212,
      "ä¾¿æį·": 6213,
      "èĢħçļĦ": 6214,
      "çī¹c": 6215,
      "å¤§èµĽ": 6216,
      "èĥĨ": 6217,
      "ç¯·": 6218,
      "ä¸Ńåįİ": 6219,
      "æµģä½ĵ": 6220,
      "æ¡ĳ": 6221,
      "çłĮ": 6222,
      "èģĶè½´åĻ¨": 6223,
      "ä¸ľé£İ": 6224,
      "Ġbu": 6225,
      "çģ«è½¦": 6226,
      "éĴ¢æĿĲ": 6227,
      "Ġç¬¬ä¸Ģ": 6228,
      "Ġå¹³": 6229,
      "æĺ¯ä»¥": 6230,
      "wr": 6231,
      "gro": 6232,
      "Ġpost": 6233,
      "èĢĮè¨Ģ": 6234,
      "ĠæĻºèĥ½": 6235,
      "æºĨ": 6236,
      "ava": 6237,
      "è¯¾åłĤ": 6238,
      "è¡¥åģ¿åĻ¨": 6239,
      "çļĦæķĪæŀľ": 6240,
      "æ¸ħæĻ°": 6241,
      "è´§å¸ģ": 6242,
      "ĠæĪĳåľ¨": 6243,
      "jpg": 6244,
      "ĠåħŃ": 6245,
      "éħļ": 6246,
      "ç¦¾": 6247,
      "è¿Ļæ¬¾": 6248,
      "åķ¤": 6249,
      "åĨ·s": 6250,
      "åĨħç½®": 6251,
      "çİ°è´§": 6252,
      "æŀĦéĢł": 6253,
      "é»ĺè®¤": 6254,
      "ä¹ĭå®¶": 6255,
      "çļĦæĥħåĨµä¸ĭ": 6256,
      "ä¼ļæľī": 6257,
      "ĠéĩįåºĨ": 6258,
      "][": 6259,
      "çªģçł´": 6260,
      "ä½ĵçİ°": 6261,
      "æ¸Ķ": 6262,
      "çļĦå¤ļ": 6263,
      "ä½¿åħ¶": 6264,
      "åĨ·åĩĿ": 6265,
      "è½¦åºĬ": 6266,
      "çĽ¾": 6267,
      "å°½éĩı": 6268,
      "ä¸»èĲ¥": 6269,
      "è§£q": 6270,
      "æ´»å¡ŀ": 6271,
      "çĿ¿": 6272,
      "æ»¡æĦı": 6273,
      "æĬ¼": 6274,
      "çļĦçĥŃ": 6275,
      "åļİ": 6276,
      "çķ´": 6277,
      "mg": 6278,
      "mpa": 6279,
      "æĹ¥å¿Ĺ": 6280,
      "åĬłä¸Ĭ": 6281,
      "æīĭè¡¨": 6282,
      "ations": 6283,
      "èĮĦ": 6284,
      "day": 6285,
      "å¹³æķ´": 6286,
      "åĪĨéħį": 6287,
      "åį°åº¦": 6288,
      "å»ĬåĿĬ": 6289,
      "hs": 6290,
      "èĳ«": 6291,
      "cb": 6292,
      "éĺ²æ»ĳ": 6293,
      "æĪĲè¯Ń": 6294,
      "çĥŁåı°": 6295,
      "çĮľ": 6296,
      "\":": 6297,
      "çĶµéķĢ": 6298,
      "æĹŃ": 6299,
      "æ°ĳæĹı": 6300,
      "èĬĤçĤ¹": 6301,
      "ä¸īçĽ¸": 6302,
      "å¨Ĩ": 6303,
      "äººä½ĵ": 6304,
      "Ġmar": 6305,
      "æ·¼": 6306,
      "ç¼ĸç»ĩ": 6307,
      "çī¯": 6308,
      "Ġcre": 6309,
      "ound": 6310,
      "ä¿Ħç½Ĺæĸ¯": 6311,
      "åĳĬè¯ī": 6312,
      "væ³Ľ": 6313,
      "ç²īä¸Ŀ": 6314,
      "Ġæ±Ł": 6315,
      "åİĺ": 6316,
      "é£ŁçĶ¨": 6317,
      "éļıæĹ¶": 6318,
      "èıľåįķ": 6319,
      "åĬ²": 6320,
      "çĺ¤": 6321,
      "åĮĸå·¥æľīéĻĲåħ¬åı¸": 6322,
      "ä¾ĽçĶµ": 6323,
      "æľºåİĤå®¶": 6324,
      "çļĦçİ¯å¢ĥ": 6325,
      "èħ¿": 6326,
      "ä¸ĩèĥ½": 6327,
      "èĤ¿": 6328,
      "éĥ¸": 6329,
      "Ġç½ĳç«Ļ": 6330,
      "éĩĮéĿ¢": 6331,
      "é¦¨": 6332,
      "çŁ³åĮĸ": 6333,
      "å¹²æī°": 6334,
      "æĶ¶çº³": 6335,
      "èĬĤçº¦": 6336,
      "Ġwill": 6337,
      "ä¹ĲåĽŃ": 6338,
      "å½»": 6339,
      "åĬ³åĬ¨": 6340,
      "å¤ļéĢī": 6341,
      "æŀ«": 6342,
      "éĵĿæĿ¿": 6343,
      "å¯¼è½¨": 6344,
      "æ¬²": 6345,
      "å¤ªåİŁ": 6346,
      "âĹĨ": 6347,
      "æİĴçĥŁ": 6348,
      "work": 6349,
      "æīĭæľºçīĪ": 6350,
      "åĮł": 6351,
      "è§¦æĳ¸": 6352,
      "çħĮ": 6353,
      "éĽ·è¾¾": 6354,
      "ç»Ĵ": 6355,
      "âĦĥ,": 6356,
      "ek": 6357,
      "åİįæĩĪ": 6358,
      "åįļçī©": 6359,
      "Ġout": 6360,
      "è°ĥè¯ķ": 6361,
      "å¯»æī¾": 6362,
      "æ¦Ĩ": 6363,
      "ç´«å¤ĸçº¿": 6364,
      "åĻªå£°": 6365,
      "åħ¹": 6366,
      "æĤ¼åİįæĩĪ": 6367,
      "ual": 6368,
      "anc": 6369,
      "ÑĢÑĥÑģÑģÐºÐ¸Ð¹": 6370,
      "Ġget": 6371,
      "Ġwindows": 6372,
      "éĺľ": 6373,
      "æ¯¯": 6374,
      "å¾Īå¤§çļĦ": 6375,
      "æ¶ĪéĻ¤": 6376,
      "info": 6377,
      "Ġtech": 6378,
      "æĪĲå¥Ĺ": 6379,
      "æĿĢèıĮ": 6380,
      "åºŁæĹ§": 6381,
      "å¦Īå¦Ī": 6382,
      "ĠåŁİå¸Ĥ": 6383,
      "åħĳ": 6384,
      "ç²¾ç¡®": 6385,
      "å¤º": 6386,
      "å¨ĳ": 6387,
      "éĢĥ": 6388,
      "rc": 6389,
      "éŁµ": 6390,
      "æ¶ŀ": 6391,
      "ä¼ļè®¡": 6392,
      "äº§éĩı": 6393,
      "è½»è´¨": 6394,
      "ä¹Łèĥ½": 6395,
      "ĠæĪĳåľ¨ä¼ĳæģ¯": 6396,
      "igh": 6397,
      "å·¥ä½ľåİŁçĲĨ": 6398,
      "çŁ¢éĩı": 6399,
      "æī«æıı": 6400,
      "çľŁç©ºæ³µ": 6401,
      "è§īå¾Ĺ": 6402,
      "ä½ıå®¿": 6403,
      "èĦ±ç¡«": 6404,
      "86": 6405,
      "76": 6406,
      "ç®Ķ": 6407,
      "éĹ¹": 6408,
      "hu": 6409,
      "Ġproduct": 6410,
      "æĪĳåı¸": 6411,
      "åĿĿ": 6412,
      "éĢĲæ¸Ĳ": 6413,
      "çº²": 6414,
      "éĺ²éĿĻçĶµ": 6415,
      "åİŁåĪĽæ¼«çĶ»": 6416,
      "æ°Ķè±¡": 6417,
      "ä¸Ģæ¬¡æĢ§": 6418,
      "Ġgu": 6419,
      "èº«ä»½": 6420,
      "åį³ä½¿": 6421,
      "åĮħb": 6422,
      "å½±è§Ĩ": 6423,
      "åįģå¤§": 6424,
      "åįłåľ°": 6425,
      "Ġ2012": 6426,
      "è®¢åįķ": 6427,
      "ĠæĬĢæľ¯æĶ¯æĮģ": 6428,
      "âĢ²": 6429,
      "äººæķ°": 6430,
      "å®ĿçŁ³": 6431,
      "åı¯è¾¾": 6432,
      "æľĢä½İ": 6433,
      "ĠçĶŁæ´»": 6434,
      "åħ¼å®¹": 6435,
      "è´·æ¬¾": 6436,
      "ĠåĲİ": 6437,
      "mat": 6438,
      "éĤ¯éĥ¸": 6439,
      "é«ĺæĢ§èĥ½": 6440,
      "width": 6441,
      "ç«ĻåĨħ": 6442,
      "åĩºf": 6443,
      "æļĤæĹł": 6444,
      "æ¸ħæ°´": 6445,
      "æĶ¹æĢ§": 6446,
      "é¢Ħè®¢": 6447,
      "éª¨æŀ¶": 6448,
      "ä¸»åĬ¨": 6449,
      "æłıæĿĨ": 6450,
      "lement": 6451,
      "è®¾æľī": 6452,
      "æłĩçīĮ": 6453,
      "äº«åıĹ": 6454,
      "è¡Įç¨ĭ": 6455,
      "åŃĹç¬¦": 6456,
      "å·¥ä½ľå®¤": 6457,
      "ĠåŃ¦": 6458,
      "å±ħæ°ĳ": 6459,
      "Ġwork": 6460,
      "içļĦ": 6461,
      "å±ĭéĿ¢": 6462,
      "Ġip": 6463,
      "çĲĥéĺŁ": 6464,
      "sw": 6465,
      "æĢİä¹Īçľĭpp": 6466,
      "å·¥ç¨ĭæĸ½å·¥": 6467,
      "Ġgen": 6468,
      "ãģĩ": 6469,
      "åľĨæŁ±": 6470,
      "éĢ¸": 6471,
      "å°Ĩä¼ļ": 6472,
      "ä¾¿å®ľ": 6473,
      "æ¾§": 6474,
      "æŁĦ": 6475,
      "æĢİä¹Īçľĭèħ¾è®¯è§Ĩé¢ĳ": 6476,
      "æľīäºĨ": 6477,
      "éĽĨè£ħç®±": 6478,
      "æĦŁè°¢": 6479,
      "ä¿Ŀc": 6480,
      "çłĶç©¶éĻ¢": 6481,
      "åį¤": 6482,
      "èĵĦçĶµæ±ł": 6483,
      "è¿½æ±Ĥ": 6484,
      "nm": 6485,
      "urr": 6486,
      "nba": 6487,
      "seo": 6488,
      "è´Łè½½": 6489,
      "æĪ¿åľ°äº§": 6490,
      "çĴº": 6491,
      "å¤©æ°Ķé¢ĦæĬ¥": 6492,
      "çĸ¯": 6493,
      "åĭĺ": 6494,
      "åı¯éĢī": 6495,
      "åĳ¨åĽ´": 6496,
      "èĪ¶": 6497,
      "Ġ2013": 6498,
      "åĪĤ": 6499,
      "æĸĩåŃ¦": 6500,
      "å¥Ĺç®¡": 6501,
      "è¦ģæ±ĤçļĦ": 6502,
      "æ¿®": 6503,
      "ĠåĪĨç±»": 6504,
      "åĭ¾": 6505,
      "bm": 6506,
      "çİ¯èĬĤ": 6507,
      "åĿļæĮģ": 6508,
      "çļĦæĥħåĨµ": 6509,
      "éģĩåĪ°": 6510,
      "let": 6511,
      "æĢİä¹Īçľĭppè§Ĩé¢ĳ": 6512,
      "éķ¿æĹ¶éĹ´": 6513,
      "æľ¬åħ¬åı¸": 6514,
      "åı¬å¼Ģ": 6515,
      "è¹Ī": 6516,
      "ç»¯": 6517,
      "ç¢Ł": 6518,
      "åĲĪéĢĤçļĦ": 6519,
      "Ġä¸º": 6520,
      "æĶ¶åħ¥": 6521,
      "çłĶè®¨": 6522,
      "å¸¸çĶ¨çļĦ": 6523,
      "å¼ıçļĦ": 6524,
      "ãĢģ\"": 6525,
      "dt": 6526,
      "æīĳ": 6527,
      "è¾ĥé«ĺ": 6528,
      "éĢ»": 6529,
      "æīĢæľīçļĦ": 6530,
      "ç¬Ķè®°æľ¬": 6531,
      "éĺ²å°ĺ": 6532,
      "æĽ¿ä»£": 6533,
      "è¥¿äºļ": 6534,
      "è±ªåįİ": 6535,
      "åº¦åģĩ": 6536,
      "Ġche": 6537,
      "ç¿°": 6538,
      "fi": 6539,
      "çĦ°": 6540,
      "è¾ĥä¸º": 6541,
      "å£°æĺİ": 6542,
      "è§£éĩĬ": 6543,
      "ä¿Ŀo": 6544,
      "amp": 6545,
      "æĬ¤çĲĨ": 6546,
      "éŃħ": 6547,
      "åħ¬äº¤": 6548,
      "ç£ģæĢ§": 6549,
      "çĭ¬çī¹çļĦ": 6550,
      "é»ı": 6551,
      "å¹¿ä¸ľçľģ": 6552,
      "æĸ°æĿĲæĸĻ": 6553,
      "äººçī©": 6554,
      "Ġet": 6555,
      "air": 6556,
      "æĪĺçķ¥": 6557,
      "ict": 6558,
      "æĸ¯çī¹": 6559,
      "read": 6560,
      "ild": 6561,
      "æ»¤èĬ¯": 6562,
      "éĵ¬": 6563,
      "åĽłèĢĮ": 6564,
      "ä¼ģä¸ļçļĦ": 6565,
      "æĭĽåķĨ": 6566,
      "åıĳå¸ĥæĹ¶éĹ´": 6567,
      "éĶļ": 6568,
      "åıįé¦Ī": 6569,
      "çĶµç«Ļ": 6570,
      "çĶµåĬ¨æľº": 6571,
      "åºķéĥ¨": 6572,
      "çļĦä»·æł¼": 6573,
      "èİĵ": 6574,
      "æıĲåīį": 6575,
      "Ġdesign": 6576,
      "èµĽåŃ£": 6577,
      "æĬĢæľ¯æĶ¯æĮģ": 6578,
      "èĮĥåĽ´åĨħ": 6579,
      "å¾®åįļåĬ¨æ¼«": 6580,
      "å¦¹": 6581,
      "åķĨåºĹ": 6582,
      "äºļåįļ": 6583,
      "çº¿æĢ§": 6584,
      "å³¡": 6585,
      "Ġspe": 6586,
      "åıĸæ¶Ī": 6587,
      "è¯»ä¹¦": 6588,
      "æ²¹çĥŁ": 6589,
      "usb": 6590,
      "æ°´æĻ¶": 6591,
      "sub": 6592,
      "æ¥ł": 6593,
      "èī²çļĦ": 6594,
      "åıĳéħµ": 6595,
      "çĻ¾åĪĨ": 6596,
      "å»ºçŃĳçī©": 6597,
      "çĦĬç®¡": 6598,
      "æķĮ": 6599,
      "é¹Ĭ": 6600,
      "åİļå£ģ": 6601,
      "æ¬£èµı": 6602,
      "ç§ģæľį": 6603,
      "çļĦåĨħå®¹": 6604,
      "èĳ«èĬ¦": 6605,
      "çľŁå®ŀ": 6606,
      "amily": 6607,
      "çľĭçľĭ": 6608,
      "æģĲ": 6609,
      "ç¼łç»ķ": 6610,
      "Ġé»ĳ": 6611,
      "å£®": 6612,
      "ins": 6613,
      "æĸ°å»º": 6614,
      "Ġopen": 6615,
      "çļĦä¸Ģä¸ª": 6616,
      "åľ¨äºİ": 6617,
      "å¾®çĶŁçī©": 6618,
      "ç¤¼åĵģ": 6619,
      "over": 6620,
      "ä¸Ĭè¿°": 6621,
      "è´¡çĮ®": 6622,
      "ä¹ĥ": 6623,
      "ational": 6624,
      "åľ°çĲĨ": 6625,
      "äº®åĮĸ": 6626,
      "æĹłç¼Ŀç®¡": 6627,
      "Ġac": 6628,
      "89": 6629,
      "å¹ķå¢Ļ": 6630,
      "Ġç¾İ": 6631,
      "éĵĥ": 6632,
      "åĸĤ": 6633,
      "æŀĦä»¶": 6634,
      "å¤©çĦ¶æ°Ķ": 6635,
      "åĪ¶åĬ¨": 6636,
      "æĺĵäºİ": 6637,
      "Ġå½ĵåīį": 6638,
      "ç»Ħè£ħ": 6639,
      "yl": 6640,
      "fc": 6641,
      "æĹłéĻĲ": 6642,
      "Ġadmin": 6643,
      "Ġè¯·": 6644,
      "å¢Ļä½ĵ": 6645,
      "æĶ¹è¿Ľ": 6646,
      "æ³³æ±ł": 6647,
      "jib": 6648,
      "çĪ½": 6649,
      "åģļçļĦ": 6650,
      "æĿ¡ä»¶ä¸ĭ": 6651,
      "é¸£": 6652,
      "ific": 6653,
      "å¤ıåŃ£": 6654,
      "éľľ": 6655,
      "çļĦåŁºç¡Ģ": 6656,
      "åįµ": 6657,
      "çļ®éĿ©": 6658,
      "åħ°å·ŀ": 6659,
      "å¤ļæł·": 6660,
      "é©»": 6661,
      "Ġchang": 6662,
      "ãĢĳãĢĲ": 6663,
      "å¼Ł": 6664,
      "å¤¸": 6665,
      "ç»Į": 6666,
      "çĤĶ": 6667,
      "Ġstr": 6668,
      "å¦Ĥä»Ĭ": 6669,
      "æŃĮæĽ²": 6670,
      "å¨ĩ": 6671,
      "ç«ĭæŁ±": 6672,
      "æĺĨå±±": 6673,
      "åįĬå¯¼ä½ĵ": 6674,
      "åŁºåĽł": 6675,
      "æĴŃæĶ¾": 6676,
      "æĦıè¯Ĩ": 6677,
      "èĦĨ": 6678,
      "éħįæĸ¹": 6679,
      "åĪĢçīĩ": 6680,
      "æıĲäº¤": 6681,
      "çıłæµ·": 6682,
      "èµĦæł¼": 6683,
      "å°¤åħ¶æĺ¯": 6684,
      "æĳ©æīĺ": 6685,
      "Ġ01": 6686,
      "æĿł": 6687,
      "æį¢çĥŃåĻ¨": 6688,
      "è®¸åı¯": 6689,
      "ederland": 6690,
      "Ġid": 6691,
      "è¯¦ç»Ĩä»ĭç»į": 6692,
      "çŁ¿çĶ¨": 6693,
      "åĽŀå¸ĸ": 6694,
      "jibie": 6695,
      "ãĢĤ@": 6696,
      "æľºä¼ļ": 6697,
      "æĹłäºº": 6698,
      "å£°éŁ³": 6699,
      "ç«ĻçĤ¹": 6700,
      "å½±éŁ³": 6701,
      "èĩªè¡Įè½¦": 6702,
      "å°Ĩåľ¨": 6703,
      "å±ıèĶ½": 6704,
      "ç¼ºçĤ¹": 6705,
      "äºĮåįģ": 6706,
      "Ġtype": 6707,
      "æµİå®ģ": 6708,
      "æĽ´æĶ¹": 6709,
      "height": 6710,
      "æİ¨åĬ¨": 6711,
      "éĿŀæłĩ": 6712,
      "61": 6713,
      "ä¼ĺå¼Ĥ": 6714,
      "æĭ¿å¤§": 6715,
      "ä»ĭb": 6716,
      "alk": 6717,
      "åĽ±": 6718,
      "çł»": 6719,
      "ä¸ĢåĪĩ": 6720,
      "Ġsupp": 6721,
      "çºªå½ķ": 6722,
      "åįĬå¹´": 6723,
      "è°ĵ": 6724,
      "æľĢæĸ°ç«łèĬĤ": 6725,
      "åħĪè¿ĽçļĦ": 6726,
      "sm": 6727,
      "ç½ĳé¡µçīĪ": 6728,
      "èĬ±åįī": 6729,
      "åĪ¶éĢłåķĨ": 6730,
      "è¸Ĭ": 6731,
      "åľ¨æŃ¤": 6732,
      "å¤§å¹ħ": 6733,
      "ä¼łç»ŁçļĦ": 6734,
      "èĬ±çº¹": 6735,
      "ç»Ļå¤§å®¶": 6736,
      "æıĲåĩº": 6737,
      "çº¿æĿ¡": 6738,
      "âķĥ": 6739,
      "Ġacc": 6740,
      "å®ŀä¾ĭ": 6741,
      "åºĶçĶ¨ç¨ĭåºı": 6742,
      "çļĦåīį": 6743,
      "ç´§åĩĳ": 6744,
      "Ġlog": 6745,
      "2009": 6746,
      "çľŁçļĦ": 6747,
      "èĬ½": 6748,
      "aj": 6749,
      "Ġart": 6750,
      "å¥¢": 6751,
      "ç®¡çĲĨåĳĺ": 6752,
      "åĸĶ": 6753,
      "è¯±": 6754,
      "ec": 6755,
      "åĶ®ä»·": 6756,
      "ĠåİŁ": 6757,
      "æľºåĪ¶": 6758,
      "åĲĮæ¯Ķ": 6759,
      "åŃ¦ä¼ļ": 6760,
      "my": 6761,
      "åĵ²": 6762,
      "å¯¼çĶµ": 6763,
      "çĲĥå¢¨éĵ¸éĵģç®¡": 6764,
      "æĸ¹ç®¡": 6765,
      "Ġstud": 6766,
      "èģĮä½į": 6767,
      "ç½ĳå¸¦": 6768,
      "ä¸ºå¤§å®¶": 6769,
      "åºĶçĶ¨é¢ĨåŁŁ": 6770,
      "æģ¿": 6771,
      "å»ºç«Ļ": 6772,
      "æĿĤå¿Ĺ": 6773,
      "Ġæ²³åĮĹ": 6774,
      "èĪ¹èĪ¶": 6775,
      "çĶ¸": 6776,
      "åĬĽåŃ¦": 6777,
      "3000": 6778,
      "éļĶèĨľ": 6779,
      "åħįè´¹éĺħè¯»": 6780,
      "Ġdown": 6781,
      "æĶ¶è´¹": 6782,
      "éĢłä»·": 6783,
      "ä»¥åħį": 6784,
      "æ²³åįĹçľģ": 6785,
      "ating": 6786,
      "è¡¡æ°´": 6787,
      "æ¸ħæ¥ļ": 6788,
      "çĳŁ": 6789,
      "æĻ®éģį": 6790,
      "ĠåĪĺ": 6791,
      "tem": 6792,
      "Ġair": 6793,
      "é«ĺäºİ": 6794,
      "å°Ĩäºİ": 6795,
      "åĤħ": 6796,
      "å½ĵä¸Ń": 6797,
      "åħĦ": 6798,
      "æĲħæĭĮæľº": 6799,
      "æ¬ł": 6800,
      "éģŃ": 6801,
      "æī¿è½½": 6802,
      "æľįåĬ¡ä¸Ńå¿ĥ": 6803,
      "å±ĭé¡¶": 6804,
      "çļĦæķ°æį®": 6805,
      "æ²¡æľīæī¾åĪ°ä¸İ": 6806,
      "æĻŁ": 6807,
      "Ġå¾·": 6808,
      "éĥ½èĥ½": 6809,
      "ãĤĨ": 6810,
      "åĪ¹": 6811,
      "ĠâĢ¦": 6812,
      "æĦŁæŁĵ": 6813,
      "Ġå¹¿": 6814,
      "ç¢į": 6815,
      "çĽĳçĿ£": 6816,
      "åĴª": 6817,
      "show": 6818,
      "ä¸»è½´": 6819,
      "è§Ĩè®¯èģĬå¤©": 6820,
      "é£İæĻ¯": 6821,
      "çĹħä¾ĭ": 6822,
      "oft": 6823,
      "æ³¨å¡ĳ": 6824,
      "èľĹ": 6825,
      "Ġ$(\".": 6826,
      "èĹ¤": 6827,
      "è¡¥åħħ": 6828,
      "æ¹Ľ": 6829,
      "ä¸Ĭæ¶¨": 6830,
      "ä¸Ńå°ı": 6831,
      "ç«ĭæĸ¹": 6832,
      "ä¼ª": 6833,
      "ä¸įå¥½": 6834,
      "åıĮéĿ¢": 6835,
      "æīĵæłĩ": 6836,
      "ivers": 6837,
      "æ»ĭ": 6838,
      "å¹½": 6839,
      "æķ£çĥŃåĻ¨": 6840,
      "Ġfe": 6841,
      "æ©±": 6842,
      "ns": 6843,
      "ä¸»ä»»": 6844,
      "æĶ¶çĽĬ": 6845,
      "ç§»éĻ¤": 6846,
      "ä¸ĵè¾ĳ": 6847,
      "ton": 6848,
      "åĽ¾å½¢": 6849,
      "éĢīåŀĭ": 6850,
      "å±Ģéĥ¨": 6851,
      "Ġåı¤": 6852,
      "hk": 6853,
      "æĬ¥éģĵ": 6854,
      "Ġtrans": 6855,
      "æĪªæŃ¢": 6856,
      "çĻ«": 6857,
      "éķľå¤´": 6858,
      "åŃķ": 6859,
      "èĲĿ": 6860,
      "åħĭæĸ¯": 6861,
      "63": 6862,
      "new": 6863,
      "çķľ": 6864,
      "ser": 6865,
      "Ġæ³°": 6866,
      "éŁ³åĵį": 6867,
      "å·¥ä½ľçļĦ": 6868,
      "ç®Ĺæ³ķ": 6869,
      "èĤ¡ä¸ľ": 6870,
      "äºĭä»¶": 6871,
      "èī³": 6872,
      "å¨£": 6873,
      "çĳŃæ°¢": 6874,
      "èıĬ": 6875,
      "ç²¾åĩĨ": 6876,
      "é¢Ŀå®ļ": 6877,
      "åı£å¾Ħ": 6878,
      "æĪĲçĨŁ": 6879,
      "æĽ´é«ĺ": 6880,
      "wo": 6881,
      "è¯ĬæĸŃ": 6882,
      "åį·æĿĲ": 6883,
      "æ¨¡ç»Ħ": 6884,
      "sd": 6885,
      "xt": 6886,
      "é£İæīĩ": 6887,
      "åĲ¦åĪĻ": 6888,
      "åħīæ»ĳ": 6889,
      "å®¸ãĥ¤": 6890,
      "å¼łå®¶": 6891,
      "çŁ³èĨı": 6892,
      "ä¿®è¡¥": 6893,
      "èĪŀè¹Ī": 6894,
      "Ġpart": 6895,
      "ç¡¬ä»¶": 6896,
      "aut": 6897,
      "ä¼¤å®³": 6898,
      "èįĴ": 6899,
      "çī©èµĦ": 6900,
      "åĽ¾æ¡Ī": 6901,
      "Ġ!": 6902,
      "päºİ": 6903,
      "æ¡Ĳ": 6904,
      "åĪĢåħ·": 6905,
      "åĨ·æ°´æľº": 6906,
      "ä¹Łå°±æĺ¯": 6907,
      "æ£Ģä¿®": 6908,
      "çĽ¸åĨĮ": 6909,
      "åķĨåľº": 6910,
      "è¾ħå¯¼": 6911,
      "èİī": 6912,
      "æ½¢": 6913,
      "è¾ĥä½İ": 6914,
      "æİ¨è¿Ľ": 6915,
      "æ°ĶåĢĻ": 6916,
      "aa": 6917,
      "æľīçĿĢ": 6918,
      "ä¹¡æĿĳ": 6919,
      "æĿ¥åĪ°": 6920,
      "ios": 6921,
      "Ġéĩĳå±ŀ": 6922,
      "çĥŁåĽ±": 6923,
      "è®¾è®¡åħ¬åı¸": 6924,
      "æĶ¶è´Ń": 6925,
      "Ġmag": 6926,
      "ouse": 6927,
      "âī¡": 6928,
      "çľł": 6929,
      "å¾Ĵ": 6930,
      "çļĦä¸ĢäºĽ": 6931,
      "å©ļç¤¼": 6932,
      "Î½": 6933,
      "åĨ²åİĭ": 6934,
      "æŃ¢æ°´å¸¦": 6935,
      "é¾Ł": 6936,
      "Ïħ": 6937,
      "åĿĩä¸º": 6938,
      "å¤©èĬ±": 6939,
      "èĥ¸": 6940,
      "èĤ¯å®ļ": 6941,
      "Ġä¾ĽåºĶ": 6942,
      "åį«çĶŁéĹ´": 6943,
      "åħħæ»¡": 6944,
      "red": 6945,
      "éļĲèĹı": 6946,
      "çĶŁæ´»ä¸Ń": 6947,
      "éĩįè§Ĩ": 6948,
      "æī¹éĩı": 6949,
      "Ġå®īåħ¨": 6950,
      "Ġä¸ĭ": 6951,
      "ä¿Ŀåģ¥": 6952,
      "éĺ³åı°": 6953,
      "Ġla": 6954,
      "å¤©åľ°": 6955,
      "Ġworld": 6956,
      "çĶ²éĨĽ": 6957,
      "è¿ĺåİŁ": 6958,
      "700": 6959,
      "ahoo": 6960,
      "Ġsystem": 6961,
      "å·¥åºı": 6962,
      "çĥ¦": 6963,
      "Ġval": 6964,
      "çĪ·": 6965,
      "Ġåħī": 6966,
      "æ¡ĮéĿ¢": 6967,
      "å¿ĥçļĦ": 6968,
      "ä¸īç§į": 6969,
      "æĺ¨": 6970,
      "Ġxml": 6971,
      "éħ®": 6972,
      "Ġæĸ°éĹ»èµĦè®¯": 6973,
      "101": 6974,
      "èĸª": 6975,
      "ise": 6976,
      "çĶŁç´ł": 6977,
      "è´«": 6978,
      "å°Ŀè¯ķ": 6979,
      "æĿī": 6980,
      "post": 6981,
      "Ġgro": 6982,
      "book": 6983,
      "å½¼": 6984,
      "ç»§çĶµåĻ¨": 6985,
      "çªģåĩº": 6986,
      "ino": 6987,
      "çļĦå®īè£ħ": 6988,
      "ited": 6989,
      "æĭĨåį¸": 6990,
      "æīĭåĨĮ": 6991,
      "å¤ªå¹³": 6992,
      "Ġä¸İ": 6993,
      "arn": 6994,
      "åĮħè£ħè¢ĭ": 6995,
      "ength": 6996,
      "çī¢åĽº": 6997,
      "è´¾": 6998,
      "æĸ°éĹ»æµĭè¯ķ": 6999,
      "oll": 7000,
      "tc": 7001,
      "éĨĭ": 7002,
      "åįģäºĮ": 7003,
      "ä¼ŀ": 7004,
      "Ġç½ĳç«Ļé¦ĸé¡µ": 7005,
      "æĿ¡æ¬¾": 7006,
      "æ±īè¯Ń": 7007,
      "æĸĻçļĦ": 7008,
      "åĳ¼åĲ¸": 7009,
      "èģļåĲĪ": 7010,
      "ç«ĻåĨħæĲľç´¢": 7011,
      "çĶ»éĿ¢": 7012,
      "Ġhave": 7013,
      "Ġæ·±åľ³": 7014,
      "Ã³": 7015,
      "èĪªå¤©": 7016,
      "ç§ĥ": 7017,
      "ä¸Ģä½ĵæľº": 7018,
      "åĨ²åŃĶ": 7019,
      "æĺ¾èĳĹ": 7020,
      "åĲĮæł·": 7021,
      "é¡ºåºı": 7022,
      "é«ĺåĪĨåŃĲ": 7023,
      "éľĢè¦ģçļĦ": 7024,
      "Ġè¶ħ": 7025,
      "Ġread": 7026,
      "ator": 7027,
      "æĲı": 7028,
      "ä¸Ńå¼ı": 7029,
      "æ²¡æľīäºĨ": 7030,
      "åıĭæĥħ": 7031,
      "å½ķåĥı": 7032,
      "Ġsw": 7033,
      "ĠçļĦçĽ¸ç°¿": 7034,
      "iph": 7035,
      "Ġä¸ĭä¸Ģä¸ª": 7036,
      "å®īå¸Ĥ": 7037,
      "åĬŁæķĪ": 7038,
      "æ¯ıæĹ¥": 7039,
      "åĩłç§į": 7040,
      "éĢıæ°Ķ": 7041,
      "çĵĴ": 7042,
      "ĠåĽ¾çīĩ": 7043,
      "ç£ģåĬĽ": 7044,
      "å¾®åŀĭ": 7045,
      "ray": 7046,
      "åĪĨè¾¨": 7047,
      "ç®Ń": 7048,
      "åĨłåĨĽ": 7049,
      "å¤§å¤ļæķ°": 7050,
      "åĩłä¹İ": 7051,
      "åĪ©äºļ": 7052,
      "72": 7053,
      "åĨħå¤ĸ": 7054,
      "æķĻèĤ²éĥ¨": 7055,
      "éħ¿": 7056,
      "æ¬§å®Ŀ": 7057,
      "åıªéľĢ": 7058,
      "åı¶çīĩ": 7059,
      "æ¦Ĥè¿°": 7060,
      "æ°ĳå®¿": 7061,
      "åīªåĪĩ": 7062,
      "æľŁå¾ħ": 7063,
      "åĪĩåīĬ": 7064,
      "fin": 7065,
      "æ²ŁéĢļ": 7066,
      "Ġä¹Ŀ": 7067,
      "çĿĽ": 7068,
      "Ġç¹ģä½ĵä¸Ńæĸĩ": 7069,
      "ä¸Ģå®¶": 7070,
      "Ġ},": 7071,
      "ĠéĿ¢": 7072,
      "':": 7073,
      "ush": 7074,
      "æīĭæ®µ": 7075,
      "];": 7076,
      "åĲĦæĸ¹éĥ½æľīåĽĽä¸ªä»¥ä¸Ĭé¥ŃåºĹåħ±æľīåĽĽä¸ªåĽĽåĲĦæĸ¹éĥ½æľīåĽĽä¸ªä»¥ä¸Ĭé¥ŃåºĹåħ±æľīåĽĽä¸ªåĽĽåĲĦæĸ¹éĥ½æľīåĽĽä¸ªä»¥ä¸Ĭé¥ŃåºĹåħ±æľīåĽĽä¸ªåĽĽåĲĦæĸ¹éĥ½æľīåĽĽä¸ªä»¥ä¸Ĭé¥ŃåºĹåħ±æľīåĽĽä¸ªåĽĽåĲĦæĸ¹éĥ½æľīåĽĽä¸ªä»¥ä¸Ĭé¥ŃåºĹåħ±æľīåĽĽä¸ªåĽĽåĲĦæĸ¹éĥ½æľīåĽĽä¸ªä»¥ä¸Ĭé¥ŃåºĹåħ±æľīåĽĽä¸ªåĽĽåĲĦæĸ¹éĥ½æľīåĽĽä¸ªä»¥ä¸Ĭé¥ŃåºĹåħ±æľīåĽĽä¸ªåĽĽåĲĦæĸ¹éĥ½æľīåĽĽä¸ªä»¥ä¸Ĭé¥ŃåºĹåħ±æľīåĽĽä¸ªåĽĽ": 7077,
      "Ġclass": 7078,
      "åįļçī©é¦Ĩ": 7079,
      "åī¥": 7080,
      "æ¦»": 7081,
      "é¡¾å®¢": 7082,
      "æıĲç¤ºä¿¡æģ¯": 7083,
      "ä¸Ńç©º": 7084,
      "inter": 7085,
      "çļĦåĲĮæĹ¶": 7086,
      "ä¸´åºĬ": 7087,
      "ient": 7088,
      "Ġä½į": 7089,
      "åıĺå¾Ĺ": 7090,
      "æ¬§å¼ı": 7091,
      "åĬłå¿«": 7092,
      "ä¸įåıĹ": 7093,
      "æŃ£è§Ħ": 7094,
      "èĲ½åľ°": 7095,
      "éĶ°": 7096,
      "ement": 7097,
      "æ¸¸ä¹Ĳ": 7098,
      "åĬłå·¥ä¸Ńå¿ĥ": 7099,
      "çļĦåŁºæľ¬": 7100,
      "æ£ķ": 7101,
      "è¡«": 7102,
      "èĢ³æľº": 7103,
      "Ġbut": 7104,
      "æ¥¼æ¢¯": 7105,
      "bob": 7106,
      "è£Ļ": 7107,
      "æİ§èĤ¡": 7108,
      "èĮ¬": 7109,
      "cåĲĪ": 7110,
      "å©Ĩ": 7111,
      "Ġdi": 7112,
      "å¹¶åľ¨": 7113,
      "çļĦæĵįä½ľ": 7114,
      "ç£ĭ": 7115,
      "èĬĿéº»": 7116,
      "äººç±»": 7117,
      "æ¦±": 7118,
      "æ§Ł": 7119,
      "æ¶Ĥè£ħ": 7120,
      "èĢ¶": 7121,
      "lf": 7122,
      "åĲĬé¡¶": 7123,
      "è¡¨æĺİ": 7124,
      "åĮ»å¸Ī": 7125,
      "å¥ī": 7126,
      "è®¾å¤ĩåİĤå®¶": 7127,
      "Ð³": 7128,
      "èĹ»": 7129,
      "irst": 7130,
      "ä»įçĦ¶": 7131,
      "åĪ°åºķ": 7132,
      "ç¢³éħ¸": 7133,
      "åĭĸ": 7134,
      "æĭĴ": 7135,
      "Ġ08": 7136,
      "å®¶è£ħ": 7137,
      "Ġarch": 7138,
      "é¦ĸæ¬¡": 7139,
      "å°Ĩåħ¶": 7140,
      "æ¸¸å®¢": 7141,
      "è¥¿çıŃçīĻ": 7142,
      "æĿĤè´¨": 7143,
      "çĶµç£ģæµģéĩıè®¡": 7144,
      "æĽ´ä¸º": 7145,
      "çĥ«": 7146,
      "éħ¶": 7147,
      "äº§åĵģè´¨éĩı": 7148,
      "æİ¥è¿ĳ": 7149,
      "Ġå¥½åıĭ": 7150,
      "éĻ¢æł¡": 7151,
      "å¤§éģĵ": 7152,
      "ally": 7153,
      "62": 7154,
      "æ¡Įæ¤ħ": 7155,
      "æĪĳä»¬åľ¨": 7156,
      "éĴ¥åĮĻ": 7157,
      "èĳĹåĲį": 7158,
      "Ġsol": 7159,
      "plc": 7160,
      "æł¼æĿ¿": 7161,
      "æĦŁåıĹ": 7162,
      "ç´¯è®¡": 7163,
      "ç¹ģä½ĵ": 7164,
      "alse": 7165,
      "çİ¯æ°§æłĳèĦĤ": 7166,
      "çĦĬæľº": 7167,
      "æĺ¯ä¸į": 7168,
      "åķ¤éħĴ": 7169,
      "set": 7170,
      "ç¾İçļĦ": 7171,
      "ç¦ıåĪ©": 7172,
      "åıĳè´§": 7173,
      "åĩıéľĩ": 7174,
      "çº¿çļĦ": 7175,
      "è¶³å¤Ł": 7176,
      "ä¸ļç»©": 7177,
      "èŁ¾": 7178,
      "å»ºæĿĲæľīéĻĲåħ¬åı¸": 7179,
      "é«ĺéĢŁåħ¬è·¯": 7180,
      "Ġpo": 7181,
      "Ġå±±": 7182,
      "å®īè£ħåľ¨": 7183,
      "Ġword": 7184,
      "è´®": 7185,
      "æ¼Ķç¤ºæķ°æį®": 7186,
      "å¨ĺ": 7187,
      "ç²īç¢İæľº": 7188,
      "ç®¡çĲĨä½ĵç³»": 7189,
      "æľ¬ç§ĳ": 7190,
      "åĲĮä¸Ģ": 7191,
      "åĮ»çĸĹåĻ¨æ¢°": 7192,
      "äººå£«": 7193,
      "æĢ§èĥ½å¥½": 7194,
      "æ©Ļ": 7195,
      "ç¦ģæŃ¢": 7196,
      "çĶµç¼Ĩæ¡¥æŀ¶": 7197,
      "æľīå®³": 7198,
      "ref": 7199,
      "çĩĥæ²¹": 7200,
      "åĬłæ²¹": 7201,
      "ç±»åŀĭçļĦ": 7202,
      "çĥ§ç»ĵ": 7203,
      "æµ·æĬ¥": 7204,
      "åĲķ": 7205,
      "Ġæł¼å¼ı": 7206,
      "ĠæĿ¨": 7207,
      "æĦłæĤŃ": 7208,
      "çĽ¸åħ³çļĦç»ĵæŀľ": 7209,
      "æīĭæŀ¶": 7210,
      "ç¢³åĮĸ": 7211,
      "ä¼Ĺå¤ļ": 7212,
      "lu": 7213,
      "çģ¶": 7214,
      "é£ŁåłĤ": 7215,
      "èİİ": 7216,
      "éĶĤçĶµæ±ł": 7217,
      "Ġç±³": 7218,
      "åħ·æľīèī¯å¥½çļĦ": 7219,
      "ÃŃ": 7220,
      "ĠæĪĸ": 7221,
      "åĪ¶å®ļ": 7222,
      "æĸ°ä¹¡": 7223,
      "sv": 7224,
      "èģĮå·¥": 7225,
      "å¤§çĲĨçŁ³": 7226,
      "Ġæ·±åľ³å¸Ĥ": 7227,
      "å¦Ĥæŀľä½ł": 7228,
      "å·´å£«": 7229,
      "çĽ¸åºĶçļĦ": 7230,
      "Ġå·¥ç¨ĭ": 7231,
      "åįĩéĻįæľº": 7232,
      "æ¸©å®¤": 7233,
      "çĥŃå¤ĦçĲĨ": 7234,
      "äººæ°Ķ": 7235,
      "æİ¥æĶ¶": 7236,
      "åħ¥éĹ¨": 7237,
      "æİĴæ°Ķ": 7238,
      "è¯Ńæĸĩ": 7239,
      "åĮĹäº¬å¸Ĥ": 7240,
      "ĠçĶ¨": 7241,
      "æ££": 7242,
      "éĺ²æ²»": 7243,
      "èĥĥ": 7244,
      "çłĶåĪ¶": 7245,
      "åĪ°y": 7246,
      "ç³»åĪĹäº§åĵģ": 7247,
      "éĺ¿éĩĮäºĳ": 7248,
      "ĠåĽĽå·Ŀ": 7249,
      "Ġmac": 7250,
      "çī¹åĪ«æĺ¯": 7251,
      "æ³¨éĩį": 7252,
      "Ġau": 7253,
      "çĦ¶èĢĮ": 7254,
      "ones": 7255,
      "æ°ĸ": 7256,
      "è¡Įä¸ļçļĦ": 7257,
      "çĥŁæ°Ķ": 7258,
      "æĸĻçĲĨ": 7259,
      "ederlands": 7260,
      "code": 7261,
      "è¿Ļä¹Ī": 7262,
      "çĪĨçĤ¸": 7263,
      "Ġint": 7264,
      "éĻª": 7265,
      "back": 7266,
      "Ġæľ¨": 7267,
      "éħ¥": 7268,
      "åĶ¯ä¸Ģ": 7269,
      "å±ķåı°": 7270,
      "å®ĥæĺ¯": 7271,
      "è®²åº§": 7272,
      "éķ¿æĺ¥": 7273,
      "çªĹåı£": 7274,
      "åħ¬åı¸æĸ°éĹ»": 7275,
      "æ±ĩæĢ»": 7276,
      "ç»´æĮģ": 7277,
      "è¿ĺè¦ģ": 7278,
      "åħīäº®": 7279,
      "Ġæµıè§Īæ¬¡æķ°": 7280,
      "ä½¿çĶ¨èĢħ": 7281,
      "æ½²": 7282,
      "éĴ¨": 7283,
      "éĽĢ": 7284,
      "åĽ°éļ¾": 7285,
      "æĬĢæľ¯çļĦ": 7286,
      "æļĳ": 7287,
      "åį«æµ´": 7288,
      "åĨ·èĹı": 7289,
      "çļĦç©ºéĹ´": 7290,
      "Ġcolor": 7291,
      "çĥĺå¹²æľº": 7292,
      "mw": 7293,
      "çĦļ": 7294,
      "æ±Łèĭıçľģ": 7295,
      "eo": 7296,
      "æĹłæľº": 7297,
      "æµĻæ±Łçľģ": 7298,
      "ä»¤äºº": 7299,
      "èĲ¥éĢł": 7300,
      "å¤§æ£ļ": 7301,
      "ç¦»åĲĪ": 7302,
      "åīįçļĦ": 7303,
      "âĨĲ": 7304,
      "åİĭæ»¤": 7305,
      "91": 7306,
      "ä¹Ĳé±¼": 7307,
      "ç«¯åŃĲ": 7308,
      "çĶµæŀģ": 7309,
      "ĠæīĢæľī": 7310,
      "èĢĥå¯Ł": 7311,
      "è¾ĥé«ĺçļĦ": 7312,
      "éĺ²æİ§": 7313,
      "è®¢éĺħ": 7314,
      "çĬ¬": 7315,
      "ideo": 7316,
      "å¤ĩä»½": 7317,
      "æİĴéĻ¤": 7318,
      "éĩĩçĶ¨äºĨ": 7319,
      "é¹ĺ": 7320,
      "ology": 7321,
      "èĢĲéħ¸": 7322,
      "è®¾ç«ĭ": 7323,
      "æº¢": 7324,
      "cop": 7325,
      "æĢ§ä»·": 7326,
      "%;": 7327,
      "äººçĶŁ": 7328,
      "åįİä½ĵä¼ļ": 7329,
      "açĶŁ": 7330,
      "èħ¹": 7331,
      "æľīä¸Ģä¸ª": 7332,
      "ä¸įçŁ¥éģĵ": 7333,
      "æŁĲäºĽ": 7334,
      "Ġæīĭæľº": 7335,
      "äºĨä¸Ģä¸ª": 7336,
      "ãĢĭãĢģ": 7337,
      "çĶµå®¹": 7338,
      "é¾ĻéĹ¨": 7339,
      "è¤Ĥ": 7340,
      "ç¬¬ä¸Ģæ¬¡": 7341,
      "ĠæĪĲéĥ½": 7342,
      "ĠæĽ´å¤ļ": 7343,
      "æĺ¾å¾®": 7344,
      "Ġiphone": 7345,
      "åľĨéĴ¢": 7346,
      "æ»©": 7347,
      "home": 7348,
      "der": 7349,
      "ä¸įèī¯": 7350,
      "æĸ°åĨł": 7351,
      "å®īåħ¨çĶŁäº§": 7352,
      "Îº": 7353,
      "æķŀ": 7354,
      "åĲįè¯į": 7355,
      "èıĩ": 7356,
      "åı¯è§ģ": 7357,
      "ä»ªåĻ¨æľīéĻĲåħ¬åı¸": 7358,
      "mi": 7359,
      "å¾Īå¤ļäºº": 7360,
      "å¦»": 7361,
      "é©¬è¾¾": 7362,
      "çĥŃè¡Ģ": 7363,
      "è¿Ł": 7364,
      "æ°´ä¸Ń": 7365,
      "æĿ¡è®°å½ķ": 7366,
      "æ¼Ķåĩº": 7367,
      "å°±è¦ģ": 7368,
      "ner": 7369,
      "å®ļéĩı": 7370,
      "ç»Łè®¡ä¿¡æģ¯": 7371,
      "åºĹéĵº": 7372,
      "Ġ60": 7373,
      "ç»ĵæĻ¶": 7374,
      "çļĦæ¸©åº¦": 7375,
      "åīįå¾Ģ": 7376,
      "87": 7377,
      "ç¼ĸçłģ": 7378,
      "çĤ®": 7379,
      "google": 7380,
      "åº¦é«ĺ": 7381,
      "bæİ¥": 7382,
      "è¿ŀç»ĵ": 7383,
      "Ġoff": 7384,
      "âĸł": 7385,
      "180": 7386,
      "Ġæĺ¾ç¤ºåħ¨éĥ¨": 7387,
      "måĲĪ": 7388,
      "ç£¨æľº": 7389,
      "ä¸ĢæĹ¦": 7390,
      "çļĦçĶŁæ´»": 7391,
      "æĺİç¡®": 7392,
      "_,": 7393,
      "çĶŁäº§è®¾å¤ĩ": 7394,
      "ç²ĺç»ĵ": 7395,
      "Ġå°ıæĹ¶": 7396,
      "éķĲ": 7397,
      "ãĢİ": 7398,
      "Ġmed": 7399,
      "è¿ĽæŃ¥": 7400,
      "åıĤè§Ĥ": 7401,
      "éļĲæĤ£": 7402,
      "å¤§éĩıçļĦ": 7403,
      "bu": 7404,
      "èµļ": 7405,
      "åĤ¨ç½Ĳ": 7406,
      "94": 7407,
      "Ġhu": 7408,
      "da": 7409,
      "Ġå¦Ĥä½ķ": 7410,
      "nh": 7411,
      "å¤§w": 7412,
      "æĤ«": 7413,
      "éĽį": 7414,
      "è¯ģæĺİ": 7415,
      "èĤª": 7416,
      "nect": 7417,
      "è½¬åĬ¨": 7418,
      "ä¸»æĮģ": 7419,
      "æ©¡å¡ĳ": 7420,
      "æŀķ": 7421,
      "Ġuse": 7422,
      "åĿ¯": 7423,
      "å¥ĸåĬ±": 7424,
      "æ´Ĺæ¶¤": 7425,
      "æĬĢæľ¯åıĤæķ°": 7426,
      "æĹĹèĪ°": 7427,
      "ç²¾åº¦é«ĺ": 7428,
      "php": 7429,
      "æľ´": 7430,
      "Ġåħ¬": 7431,
      "Ġå¤©æ´¥": 7432,
      "Ġå¥³": 7433,
      "åŃ¦æľŁ": 7434,
      "çļĦæĿĲæĸĻ": 7435,
      "æ¶ĵéĶĽ": 7436,
      "é«ĺå¼ºåº¦": 7437,
      "æĬķèµĦèĢħ": 7438,
      "åĪĨè§£": 7439,
      "num": 7440,
      "åı£ç¢ĳ": 7441,
      "åĽŀåºĶ": 7442,
      "ga": 7443,
      "åĩºæĿ¥çļĦ": 7444,
      "æĺ¯éĿŀå¸¸": 7445,
      "enc": 7446,
      "éŁ¦": 7447,
      "æĢ¡": 7448,
      "åħīè°±": 7449,
      "èĽĩ": 7450,
      "åŁ¹è®ŃåŃ¦æł¡": 7451,
      "ç¼ĩ": 7452,
      "Ġso": 7453,
      "éļĶéŁ³": 7454,
      "ube": 7455,
      "æīŃçŁ©": 7456,
      "ä¸ĵé¡¹": 7457,
      "çĶµåķĨ": 7458,
      "Ġaut": 7459,
      "å®īéĺ²": 7460,
      "active": 7461,
      "æĮ¯åĬ¨çŃĽ": 7462,
      "çŁ³çģ°": 7463,
      "ç³Ĭ": 7464,
      "è¿ĺèĥ½": 7465,
      "ç¤¼çī©": 7466,
      "ç¿ħ": 7467,
      "æµģæ°´çº¿": 7468,
      "yu": 7469,
      "ĠåĵģçīĮ": 7470,
      ".,": 7471,
      "Ġ02": 7472,
      "ç®±å¼ı": 7473,
      "æ¯ıå¹´": 7474,
      "vr": 7475,
      "æĹıèĩªæ²»": 7476,
      "å»ºçŃĳå·¥ç¨ĭ": 7477,
      "Ġåıĳ": 7478,
      "éĴ³": 7479,
      "åīįæĻ¯": 7480,
      "å®ŀæľ¨": 7481,
      "éĺĶ": 7482,
      "Ġtime": 7483,
      "Ġç²¾": 7484,
      "éħ°èĥº": 7485,
      "vice": 7486,
      "çļĦç»ĵæŀĦ": 7487,
      "des": 7488,
      "éĿ¢å¯¹": 7489,
      "æ°´åĻ¨": 7490,
      "èĢĲåĢĻ": 7491,
      "åį§å®¤": 7492,
      "ä¸Ńæłĩ": 7493,
      "æ±½æ²¹": 7494,
      "çģ°èī²": 7495,
      "å¤§å¸Ī": 7496,
      "5000": 7497,
      "é»Ħèī²": 7498,
      "èľĤçªĿ": 7499,
      "iåŁŁ": 7500,
      "ä¸Ģä»£": 7501,
      "admin": 7502,
      "pos": 7503,
      "åįľ": 7504,
      "åľ°éĵģ": 7505,
      "åĬ©åĬĽ": 7506,
      "Ġå¹¿å·ŀ": 7507,
      "çĽ²": 7508,
      "æľīåĪ©äºİ": 7509,
      "Ġé¡µç¬¬": 7510,
      "æ¶¯": 7511,
      "++": 7512,
      "åĪĥ": 7513,
      "çļĦä¸įåĲĮ": 7514,
      "éĩįå¤§": 7515,
      "æīĭå¥Ĺ": 7516,
      "æĸ°æ¬¾": 7517,
      "ç²ĺæİ¥": 7518,
      "äº²åŃĲ": 7519,
      "råĢĻ": 7520,
      "åĩºåıĳ": 7521,
      "å©´åĦ¿": 7522,
      "ç«ĸ": 7523,
      "ote": 7524,
      "ä¸´æĹ¶": 7525,
      "åŃ¤": 7526,
      "æ¸Ń": 7527,
      "('.": 7528,
      "ĠÑĢÑĥÑģÑģÐºÐ¸Ð¹": 7529,
      "çĶ¨æ³ķ": 7530,
      "ateg": 7531,
      "æºĨéĤ¢èĸ°åı¸": 7532,
      "use": 7533,
      "èĶ¡": 7534,
      "Ġ~": 7535,
      "Ġ28": 7536,
      "éŁ³é¢ĳ": 7537,
      "na": 7538,
      "åİĺç±³": 7539,
      "Ã¼r": 7540,
      "ç²®é£Ł": 7541,
      "éĤµ": 7542,
      "åı£ç½©": 7543,
      "æģĴæ¹¿": 7544,
      "éĺ²æ½®": 7545,
      "éĹ´éļĻ": 7546,
      "img": 7547,
      "éĩĬæĶ¾": 7548,
      "çĦĻ": 7549,
      "åĵ¦": 7550,
      "é²ĭ": 7551,
      "æ¸©æ¹¿åº¦": 7552,
      "åħļ": 7553,
      "åįĹå®ģ": 7554,
      "ä¸Ģçº§": 7555,
      "ä¸ĩåĲ¨": 7556,
      "åĽ´æłı": 7557,
      "Ġä¸»é¢ĺæķ°": 7558,
      "ç¢³éĴ¢": 7559,
      "å¨ģå°¼æĸ¯": 7560,
      "çļĦè®¾å¤ĩ": 7561,
      "æĿı": 7562,
      "åĽŀå¸ĸæķ°": 7563,
      "92": 7564,
      "''": 7565,
      "éĦĤ": 7566,
      "åı¯è°ĥ": 7567,
      "ä¿¡æģ¯åĮĸ": 7568,
      "Ġnet": 7569,
      "æº¶è§£": 7570,
      "æĪĪ": 7571,
      "ital": 7572,
      "Ġ27": 7573,
      "èģĶçĽŁ": 7574,
      "ä¸Ģå¯¹": 7575,
      "æ·ĺ": 7576,
      "æĢı": 7577,
      "çĭŀèĻĳæ±¡": 7578,
      "ĠåĲį": 7579,
      "æĢ§ä»·æ¯Ķ": 7580,
      "ĠéĴ¢": 7581,
      "ĠçĥŃéĹ¨": 7582,
      "å¤įåı¤": 7583,
      "èįīåĿª": 7584,
      "æ¯ıä¸Ģä¸ª": 7585,
      "æĸ°åĵģ": 7586,
      "ä¸įéĻĲ": 7587,
      "é«ĺåĵģè´¨": 7588,
      "å¢©": 7589,
      "å½¦": 7590,
      "éĿ¢ä¸Ĭ": 7591,
      "è¢Ń": 7592,
      "çĶ»åĨĮ": 7593,
      "Ġopt": 7594,
      "äº¬ä¸ľ": 7595,
      "ute": 7596,
      "ç´§åĽº": 7597,
      "aster": 7598,
      "æĹ±": 7599,
      "æŁ¥æī¾": 7600,
      "çĶµåŃĲæľīéĻĲåħ¬åı¸": 7601,
      "åįĵè¶Ĭ": 7602,
      "æĦıè§ģ": 7603,
      "éĢłçº¸": 7604,
      "Ġæĺ¾ç¤ºåħ¨éĥ¨æ¥¼å±Ĥ": 7605,
      "åŃ¦ä½į": 7606,
      "æ¶Īéĺ²å®īåħ¨": 7607,
      "äºĮæīĭè½¦": 7608,
      "åį³æĹ¶": 7609,
      "ç¼Ĥ": 7610,
      "angu": 7611,
      "å®£å¸ĥ": 7612,
      "ye": 7613,
      "::": 7614,
      "æīĭæıĲ": 7615,
      "å¯Ĩå°ģåľĪ": 7616,
      "æ²īæ·Ģ": 7617,
      "ä¸»ä½ĵ": 7618,
      "æīĭæĮģ": 7619,
      "iver": 7620,
      "å¼ĢæºĲ": 7621,
      "ife": 7622,
      "éĴ£": 7623,
      "Ġshow": 7624,
      "å¹²å¼ı": 7625,
      "æ¸łæĤŃ": 7626,
      "ä¹Łè¦ģ": 7627,
      "è½¬åĮĸ": 7628,
      "çģ«çĦ°": 7629,
      "ĠæĹ¥æľŁ": 7630,
      "åĮĸåĲĪçī©": 7631,
      "ä¸įç®¡": 7632,
      "Ġ40": 7633,
      "åŃŁ": 7634,
      "èĦļæīĭæŀ¶": 7635,
      "éĺ²éĶĪ": 7636,
      "åĮºåĿĹ": 7637,
      "Ġéļı": 7638,
      "èĩ³å°ĳ": 7639,
      "Ġcor": 7640,
      "ĠæŃ£æĸĩ": 7641,
      "è©": 7642,
      "çº§åĪ«": 7643,
      "è¯ķé¢ĺ": 7644,
      "å®¶çļĦ": 7645,
      "éĺ»åĬĽ": 7646,
      "åıĺæĪĲ": 7647,
      "çģŃèıĮ": 7648,
      "è´¸æľīéĻĲåħ¬åı¸": 7649,
      "ages": 7650,
      "----": 7651,
      "åº¸": 7652,
      "èĵ¬": 7653,
      "ä¹³åĮĸ": 7654,
      "Ġbo": 7655,
      "äººéĢł": 7656,
      "éĻįæ¸©": 7657,
      "å¦¯": 7658,
      "éĥ¨èĲ½": 7659,
      "index": 7660,
      "âī¥": 7661,
      "åĨ³èµĽ": 7662,
      "æļĤæĹ¶": 7663,
      "åįİä¸º": 7664,
      "Ñĭ": 7665,
      "åįıåĬ©": 7666,
      "//": 7667,
      "æĢ§å¼º": 7668,
      "ç®į": 7669,
      "Ġæ°¸": 7670,
      "Ġå¥½åıĭæķ°": 7671,
      "ĠæŃ¦æ±ī": 7672,
      "æĢĿæĥ³": 7673,
      "æĽĿåħī": 7674,
      "åĽ´æĮ¡": 7675,
      "Ġå¹¿ä¸ľ": 7676,
      "ä¿±ä¹Ĳ": 7677,
      "ä¸Ģæ®µ": 7678,
      "æķ°åŃĹåĮĸ": 7679,
      "sa": 7680,
      "kæĸ¤æĭ·": 7681,
      "Ġ2011": 7682,
      "è¡¨æł¼": 7683,
      "éľŀ": 7684,
      "é¾ħ": 7685,
      "Ġç³»åĪĹ": 7686,
      "æľºæ²¹": 7687,
      "Ġgre": 7688,
      "Î¹": 7689,
      "åįĹæĺĮ": 7690,
      "Ġelect": 7691,
      "å£¹": 7692,
      "win": 7693,
      "åºŃéĻ¢": 7694,
      "ä¿±ä¹Ĳéĥ¨": 7695,
      "æ½´": 7696,
      "mac": 7697,
      "éĶ®çĽĺ": 7698,
      "æŃ»äº¡": 7699,
      "æĽ´æĺ¯": 7700,
      "ä¹ı": 7701,
      "çº¿åľĪ": 7702,
      "è®©äºº": 7703,
      "ç¿»æĸ°": 7704,
      "å¼¥": 7705,
      "åĿł": 7706,
      "åĲīä»ĸ": 7707,
      "ä¸īå¤§": 7708,
      "åı¯è§Ĩ": 7709,
      "å»ºçŃĳæ¨¡æĿ¿": 7710,
      "éĿ¢æĸĻ": 7711,
      "kok": 7712,
      "Ġhas": 7713,
      "åį°è±¡": 7714,
      "ãĢı": 7715,
      "éĻĮ": 7716,
      "åĪ¶å¤ĩ": 7717,
      "Ġtop": 7718,
      "æģĴæ¸©æģĴæ¹¿": 7719,
      "cre": 7720,
      "åıĺéĢŁ": 7721,
      "Ġfree": 7722,
      "å¯¨": 7723,
      "è£Ĥç¼Ŀ": 7724,
      "å¹´è½»": 7725,
      "çĴĭ": 7726,
      "åħŃè§Ĵ": 7727,
      "lab": 7728,
      "Â¤": 7729,
      "çĵ£": 7730,
      "è¯ŃéŁ³": 7731,
      "å¢ŀå¤§": 7732,
      "mè¶³": 7733,
      "é«ĺä½İæ¸©": 7734,
      "Ð°Ð½": 7735,
      "bi": 7736,
      "è½¦è½½": 7737,
      "åĲĦé¡¹": 7738,
      "ä¸Ģå¤©": 7739,
      "ç²¾ç»Ĩ": 7740,
      "ĠâĶ": 7741,
      "xåŃĲ": 7742,
      "å··": 7743,
      "èĭĹæľ¨": 7744,
      "ates": 7745,
      "çŃīæĸ¹éĿ¢": 7746,
      "éĩįå·¥": 7747,
      "æĶ¿æ²»": 7748,
      "åĴ±": 7749,
      "èĳ±": 7750,
      "å°ıç±³": 7751,
      "Ġæ¸ħ": 7752,
      "åģ·": 7753,
      "ky": 7754,
      "å°ıç»Ħ": 7755,
      "å±ķæŁľ": 7756,
      "æ¢¢": 7757,
      "ĠåĪĨäº«": 7758,
      "èĬľæ¹ĸ": 7759,
      "æłĩè®°": 7760,
      "éĿŀéĩĳå±ŀ": 7761,
      "äº§æĿĥ": 7762,
      "Ġå·¥ç¨ĭæ¡Īä¾ĭ": 7763,
      "></": 7764,
      "æ¯ķèĬĤ": 7765,
      "èģļåĲĪçī©": 7766,
      "æĻ¶ä½ĵ": 7767,
      "åħ¶æ¬¡": 7768,
      "åģľè½¦åľº": 7769,
      "çŃīä¼ĺçĤ¹": 7770,
      "éĵĨ": 7771,
      "åħįçĸ«": 7772,
      "åĩĢåĮĸåĻ¨": 7773,
      "cess": 7774,
      "åŀ«çīĩ": 7775,
      "åĬłå¤§": 7776,
      "Ġæ²¹": 7777,
      "æĹłå°ĺ": 7778,
      "ç¢Ľ": 7779,
      "Ġsim": 7780,
      "160": 7781,
      "bet": 7782,
      "Äģ": 7783,
      "ç®Ģä½ĵ": 7784,
      "éĢŁåº¦å¿«": 7785,
      "çĶ¨ä½ľ": 7786,
      "ç¬¬åħŃ": 7787,
      "product": 7788,
      "åı¯ä»¥éĢļè¿ĩ": 7789,
      "å¾Īå®¹æĺĵ": 7790,
      "çĭ¼": 7791,
      "Ñı": 7792,
      "èį¯åĵģ": 7793,
      "å¹¿æĴŃ": 7794,
      "iphone": 7795,
      "find": 7796,
      "é¢Ī": 7797,
      "på°ĳ": 7798,
      "ä¹ĭæĹħ": 7799,
      "åĬłåĿ¡": 7800,
      "sr": 7801,
      "\"ãĢģ\"": 7802,
      "wç³»": 7803,
      "220": 7804,
      "å¼ķå¯¼": 7805,
      "ä¸Ńå±±": 7806,
      "éķĩæ±Ł": 7807,
      "åŁºa": 7808,
      "è®¹": 7809,
      "rol": 7810,
      "åĨħåŃĺ": 7811,
      "åĨ°ç®±": 7812,
      "ä»¿çľŁ": 7813,
      "vis": 7814,
      "è¿Ĳä½ľ": 7815,
      "æ¼ıæ°´": 7816,
      "åĩºè¡Į": 7817,
      "éĩī": 7818,
      "æľįåĬ¡æľīéĻĲåħ¬åı¸": 7819,
      "time": 7820,
      "ç¼ĸåı·": 7821,
      "æłĪ": 7822,
      "Ġgo": 7823,
      "query": 7824,
      "çĬ¯": 7825,
      "æĤ¨å½ĵåīįä½įç½®": 7826,
      "remove": 7827,
      "äºĭåĬ¡æīĢ": 7828,
      "ĠçĶŁ": 7829,
      "è·¯çº¿": 7830,
      "mæĪĲ": 7831,
      "çİ¯ä¿Ŀç§ĳæĬĢæľīéĻĲåħ¬åı¸": 7832,
      "èµ°åĬ¿": 7833,
      "é¥®é£Ł": 7834,
      "æĸ°åĮº": 7835,
      "Ġ04": 7836,
      "çĽĸæĿ¿": 7837,
      "éĥģ": 7838,
      "æ·ĸ": 7839,
      "æĺİæĺŁ": 7840,
      "èį£èİ·": 7841,
      "è¡ĮæĺŁ": 7842,
      "sæī¿": 7843,
      "price": 7844,
      "æ°Ĳ": 7845,
      "93": 7846,
      "mc": 7847,
      "éĥ¨ç½²": 7848,
      "mn": 7849,
      "ä¸Ľ": 7850,
      "äººæ°ĳå¸ģ": 7851,
      "çħŀ": 7852,
      "Ġnt": 7853,
      "è·¯å¾Ħ": 7854,
      "æĭ¼æİ¥": 7855,
      "Ġyahoo": 7856,
      "pptæ¨¡æĿ¿": 7857,
      "æ¬¾å¼ı": 7858,
      "çłĶè®¨ä¼ļ": 7859,
      "æ±Ĺ": 7860,
      "Ġchen": 7861,
      "çĲĥåĳĺ": 7862,
      "çĲ¢": 7863,
      "ĠéĿĴå²Ľ": 7864,
      "å¦Ĥä½ķéĢīæĭ©": 7865,
      "Ġ$('#": 7866,
      "ç½ķ": 7867,
      "æıĴåº§": 7868,
      "éħ¸çĽĲ": 7869,
      "gçļĦ": 7870,
      "83": 7871,
      "èµĮ": 7872,
      "çĤ¹è¯Ħ": 7873,
      "ä»¿åı¤": 7874,
      "é£ĺ": 7875,
      "çĸ«èĭĹ": 7876,
      "ç¢ļ": 7877,
      "çļĦä¼ĺåĬ¿": 7878,
      "éľ²å¤©": 7879,
      "Ġvis": 7880,
      "Ġå°Ĩ": 7881,
      "æ·¬çģ«": 7882,
      "ç»ĺæľ¬": 7883,
      "Ġandroid": 7884,
      "Ġä¸ĵä¸ļ": 7885,
      "Ġht": 7886,
      "åľ°ç£ħ": 7887,
      "æ·»åĬłåīĤ": 7888,
      "å¸ĪèĮĥ": 7889,
      "do": 7890,
      "2007": 7891,
      "è¾ĥå¤§çļĦ": 7892,
      "éĵ¸ä»¶": 7893,
      "ould": 7894,
      "å¤ļå¹´": 7895,
      "æ¯įçº¿æ§½": 7896,
      "å©Ĭ": 7897,
      "ci": 7898,
      "çļĦçĽ®çļĦ": 7899,
      "æ¯ģ": 7900,
      "åı¯çĪ±": 7901,
      "å±±ä¸ľçľģ": 7902,
      "åŃĺæĶ¾": 7903,
      "åĲĦä½į": 7904,
      "................": 7905,
      "åı¯åĪĨä¸º": 7906,
      "Ïĥ": 7907,
      "å¥ĹçŃĴ": 7908,
      "èĢĮæĺ¯": 7909,
      "å·¢": 7910,
      "çĹ«": 7911,
      "å¤įåĲĪæĿ¿": 7912,
      "ache": 7913,
      "si": 7914,
      "å¯Ĩå°ģèĥ¶": 7915,
      "é«ĺéĽĦ": 7916,
      "ç»ĳ": 7917,
      "æħ°": 7918,
      "èĪ»": 7919,
      "Ð´": 7920,
      "ç¦½": 7921,
      "å¥Ĺè£ħ": 7922,
      "åĿ¤": 7923,
      "åĬłè½½": 7924,
      "åº¦åĴĮ": 7925,
      "åºķåº§": 7926,
      "éħįéĢģ": 7927,
      "çī¹å°Ķ": 7928,
      "æľīæķĪåľ°": 7929,
      "èĥ¶ç²ĺ": 7930,
      "æ¿ī": 7931,
      "å¼¦": 7932,
      "ä¹łæĥ¯": 7933,
      "æĹĹä¸ĭ": 7934,
      "é¡¶éĥ¨": 7935,
      "lä»¶": 7936,
      "la": 7937,
      "itt": 7938,
      "è¿ĺæ²¡æľī": 7939,
      "åıĳå±ķæľīéĻĲåħ¬åı¸": 7940,
      "çĹĩçĬ¶": 7941,
      "bb": 7942,
      "æħİ": 7943,
      "mon": 7944,
      "çªĦ": 7945,
      "å®ŀä¸ļæľīéĻĲåħ¬åı¸": 7946,
      "èįĨ": 7947,
      "å®Įç»ĵ": 7948,
      "åŃĹå¹ķ": 7949,
      "å¸ĤæĶ¿åºľ": 7950,
      "è¡°": 7951,
      "Ġreg": 7952,
      "ãģ·": 7953,
      "æķĪçĽĬ": 7954,
      "æŃĩ": 7955,
      "è¦ģç´ł": 7956,
      "åĽ¢ä½ĵ": 7957,
      "æĺĬ": 7958,
      "å§¿": 7959,
      "ove": 7960,
      "æĬ«": 7961,
      "ãĢĭ(": 7962,
      "çĶµåŃĲç§ĳæĬĢæľīéĻĲåħ¬åı¸": 7963,
      "äº¨": 7964,
      "å±ħä½ı": 7965,
      "ç«£": 7966,
      "å¤ļåħĥ": 7967,
      "æĺ¯æľī": 7968,
      "æķĪåºĶ": 7969,
      "æ²¹ç¼¸": 7970,
      "èĩªæĪĳ": 7971,
      "æ±Łk": 7972,
      "æĸ°éĹ»èµĦè®¯": 7973,
      "è¡¨å¸¦": 7974,
      "æł¹æľ¬": 7975,
      "Ġdoc": 7976,
      "é¾Ļå¤´": 7977,
      "åĪ°è¾¾": 7978,
      "yçļĦ": 7979,
      "åı¶è½®": 7980,
      "ya": 7981,
      "Ġhong": 7982,
      "81": 7983,
      "è½¦çļĦ": 7984,
      "ä»¥ä¸ĬçļĦ": 7985,
      "æ°´éĩı": 7986,
      "è½´åĲĳ": 7987,
      "è´Łåİĭ": 7988,
      "ä»¥ä¾¿": 7989,
      "900": 7990,
      "è®©ä½ł": 7991,
      "ä¿¡æģ¯ç½ĳ": 7992,
      "ĠéĿĴ": 7993,
      "asa": 7994,
      "Ġnederlands": 7995,
      "æĪ¿åŃĲ": 7996,
      "Ġé£İ": 7997,
      "ç®¡å¼ı": 7998,
      "Ġfalse": 7999,
      "Ġå¯¹": 8000,
      "ä¸Ŀç½ĳ": 8001,
      "æī¯": 8002,
      "ä¸įä¸Ģ": 8003,
      "æ´½": 8004,
      "max": 8005,
      "èĲĥ": 8006,
      "åı¤åħ¸": 8007,
      "å½Ń": 8008,
      "å¤§çº¦": 8009,
      "åİ»å¹´": 8010,
      "ç®±ä½ĵ": 8011,
      "åıĮå±Ĥ": 8012,
      "å¦Ĥæľī": 8013,
      "vensk": 8014,
      "åĬłå¯Ĩ": 8015,
      "Ġæ³ķ": 8016,
      "oss": 8017,
      "Ġtechn": 8018,
      "ĠåºĶçĶ¨": 8019,
      "éĹ®çŃĶ": 8020,
      "éĺ²çĽĹ": 8021,
      "ç¬¬ä¸Ģä¸ª": 8022,
      "ä¼ļåľ¨": 8023,
      "å³ģ": 8024,
      "æĤ¨æīĢåľ¨çļĦä½įç½®": 8025,
      "Ġkong": 8026,
      "ä¸įåĲ«": 8027,
      "Ġsm": 8028,
      "èĩªå®ļä¹ī": 8029,
      "çļĦä½¿çĶ¨å¯¿åĳ½": 8030,
      "çĥŃéĩı": 8031,
      "æ¸©æ³ī": 8032,
      "æī©å¤§": 8033,
      "æĤ¼åİįæĩĪc": 8034,
      "éĻĢ": 8035,
      "ĠåĲ´": 8036,
      "måħ¥": 8037,
      "å®īåįĵ": 8038,
      "åĽ¾çº¸": 8039,
      "åŁ¹è®ŃçıŃ": 8040,
      "ç¼ĵåĨ²": 8041,
      "tå·¥": 8042,
      "æ°¨åŁº": 8043,
      "éĹ´è·Ŀ": 8044,
      "äº¤åıī": 8045,
      "èĬ±çĶŁ": 8046,
      "ä»ķ": 8047,
      "æ©ĺ": 8048,
      "èļģ": 8049,
      "çļĦçĽ¸åħ³": 8050,
      "æ°´çĶµ": 8051,
      "æ¯ıæ¬¡": 8052,
      "ger": 8053,
      "Ġåĺī": 8054,
      "å¹¿æ³ĽçĶ¨äºİ": 8055,
      "çĻ«çĹ«": 8056,
      "èĦĤèĤª": 8057,
      "å¤±è´¥": 8058,
      "çħ¤çĤŃ": 8059,
      "å¦®": 8060,
      "è¡¨éĿ¢çļĦ": 8061,
      "æ²§å·ŀ": 8062,
      "éĽ¨æ°´": 8063,
      "éĢłæĪĲçļĦ": 8064,
      "æ¼Ķåĳĺ": 8065,
      "Ġå¡ĳæĸĻ": 8066,
      "xåĻ¨": 8067,
      "Ġhk": 8068,
      "åľ°æļĸ": 8069,
      "åĪ©æ¶¦": 8070,
      "ãĪ£": 8071,
      "èģĶç»ľ": 8072,
      "ç®Ģç§°": 8073,
      "Ġimp": 8074,
      "oto": 8075,
      "åĽŃæŀĹæĻ¯è§Ĥ": 8076,
      "å»¶ä¼¸": 8077,
      "æĳ©æīĺè½¦": 8078,
      "ays": 8079,
      "åĬłæĭ¿å¤§": 8080,
      "Ġmon": 8081,
      "æĤ¬æµ®": 8082,
      "éªĩ": 8083,
      "map": 8084,
      "æ¦ĤåĨµ": 8085,
      "å¹²çĩ¥æľº": 8086,
      "gin": 8087,
      "è°ĭ": 8088,
      "å±ħå®¶": 8089,
      "å¢ŀåĬłäºĨ": 8090,
      "çĲĥåľº": 8091,
      "ÏĢ": 8092,
      "è¥Ħ": 8093,
      "é£ŀè¡Į": 8094,
      "æ²³åĮĹçľģ": 8095,
      "æ¼Ķè®²": 8096,
      "ä¸įåĨį": 8097,
      "roll": 8098,
      "èĭ±éĽĦ": 8099,
      "èĢķ": 8100,
      "èĥ¶æ°´": 8101,
      "oud": 8102,
      "æĭ±": 8103,
      "ä¿ĿçķĻ": 8104,
      "ç½ĳåĿĢ": 8105,
      "ä½¿çĶ¨å¯¿åĳ½éķ¿": 8106,
      "Ġlat": 8107,
      "çº¶": 8108,
      "ä¿Ŀå®ļ": 8109,
      "ĠçĻ»å½ķ": 8110,
      "lp": 8111,
      "è½¦åıĭ": 8112,
      "Ġag": 8113,
      "å·¥ä¸ļåĮº": 8114,
      "éĥİ": 8115,
      "å¸¸è¯Ĩ": 8116,
      "æĪ·åŀĭ": 8117,
      "èĢĲçĥŃ": 8118,
      "æ¯Ķäºļ": 8119,
      "ç£ģéĵģ": 8120,
      "pn": 8121,
      "yright": 8122,
      "Ġtag": 8123,
      "va": 8124,
      "çļĦè¿ĩç¨ĭä¸Ń": 8125,
      "æĿ¿æľº": 8126,
      "æ¦Ľ": 8127,
      "Ġè¯Ħè®º": 8128,
      "æľīéĻĲä¼ģä¸ļ": 8129,
      "èĥ½èĢĹ": 8130,
      "å®¶æĹı": 8131,
      "æ°ĽåĽ´": 8132,
      "dd": 8133,
      "æŁł": 8134,
      "æĺ¯åĲ¦æľī": 8135,
      "æĸ°éĹ»æµĭè¯ķæĸ°éĹ»æµĭè¯ķ": 8136,
      "æĿ¥çĶµ": 8137,
      "Ġ26": 8138,
      "çī¹å®ļ": 8139,
      "æ£Ģæµĭè®¾å¤ĩ": 8140,
      "æĺ¯ä»Ģä¹ĪæĦıæĢĿ": 8141,
      "car": 8142,
      "éĵºè®¾": 8143,
      "åĽŀè·¯": 8144,
      "èĩªåĬ©": 8145,
      "åľ°çĲĥ": 8146,
      "çµ": 8147,
      "|,": 8148,
      "';": 8149,
      "Ġtext": 8150,
      "è¸©": 8151,
      "($": 8152,
      "çĮĽ": 8153,
      "æĶ¹éĿ©": 8154,
      "éĴ¾": 8155,
      "è´¨æĦŁ": 8156,
      "ä¸ºæĤ¨æıĲä¾Ľ": 8157,
      "vo": 8158,
      "Ġä¸ĭä¸Ģ": 8159,
      "ä¸¢": 8160,
      "å·²æľī": 8161,
      "æ¿ĢåħīåĪĩåī²": 8162,
      "Ġé¦Ļ": 8163,
      "æ¸ħæ´Ĺæľº": 8164,
      "éĿ¢åĲĳ": 8165,
      "èĵĿçīĻ": 8166,
      "æľ«é¡µ": 8167,
      "æĹ¥æĬ¥": 8168,
      "èģļéħ¯": 8169,
      "çŃīçļĦ": 8170,
      "é²¸": 8171,
      "æİĴåĪĹ": 8172,
      "é«ĺè´¨éĩı": 8173,
      "è¯´æĺİä¹¦": 8174,
      "æľĢå¤ļ": 8175,
      "æłıçĽ®": 8176,
      "Ġåħĥ": 8177,
      "æ³µçļĦ": 8178,
      "å¤ļå±Ĥ": 8179,
      "åİŁå§ĭ": 8180,
      "æľīåı¯èĥ½": 8181,
      "éĢĤçĶ¨èĮĥåĽ´": 8182,
      "æĮº": 8183,
      "å·¥åķĨ": 8184,
      "èĥ¯": 8185,
      "è¿Ļæ¬¡": 8186,
      "å½©éĴ¢": 8187,
      "çłĶç©¶ä¸Ńå¿ĥ": 8188,
      "èĮħ": 8189,
      "äº§çī©": 8190,
      "èŁ¹": 8191,
      "æĢıw": 8192,
      "Ġå®Ŀ": 8193,
      "çĶ¨æĪ·ç»Ħ": 8194,
      "çŃīç¦»åŃĲ": 8195,
      "ãĢį,": 8196,
      "æĺ¯ä¸įæĺ¯": 8197,
      "Ġäºİ": 8198,
      "å¸¦å¼ı": 8199,
      "åĮĸw": 8200,
      "éħįæľī": 8201,
      "ç»Ĺ": 8202,
      "itch": 8203,
      "1200": 8204,
      "åľ¨ä¸Ģèµ·": 8205,
      "Ġä¸ĥ": 8206,
      "æĬķå½±": 8207,
      "350": 8208,
      "Ġconnect": 8209,
      "è½¿": 8210,
      "Î¼": 8211,
      "æĪĲåĬŁæ¡Īä¾ĭ": 8212,
      "çĸ²åĬ³": 8213,
      "Ġä»İ": 8214,
      "åĴı": 8215,
      "shop": 8216,
      "ç»´çĶŁç´ł": 8217,
      "çĲ³": 8218,
      "ç®Ģæ´ģ": 8219,
      "ç¼Ģ": 8220,
      "ç½ĳæĺĵ": 8221,
      "ä½ĳ": 8222,
      "Ġç§¯åĪĨ": 8223,
      "linux": 8224,
      "éĩĩæł·": 8225,
      "æĬĽä¸¸": 8226,
      "åįķçĭ¬": 8227,
      "que": 8228,
      "fåľ¨çļĦä½įç½®": 8229,
      "éĩĩæļĸ": 8230,
      "åĲĪéĩĳç®¡": 8231,
      "éĢĲæŃ¥": 8232,
      "é¤Ĳåħ·": 8233,
      "çģĮè£ħ": 8234,
      "åİĤå®¶çĽ´éĶĢ": 8235,
      "Ġgoogle": 8236,
      "åĲİåı°": 8237,
      ":<": 8238,
      "ç³Ļ": 8239,
      "åģļåĩº": 8240,
      "çļĦä¼ģä¸ļ": 8241,
      "ä¸ĬåįĪ": 8242,
      "éĢĤéħį": 8243,
      "åľ¨è¿ĻéĩĮ": 8244,
      "åıĺæĽ´": 8245,
      "çĶµåĬ¨è½¦": 8246,
      "æĸŃè·¯": 8247,
      "å¸¦æĿ¥çļĦ": 8248,
      "éĴ£éĩĳ": 8249,
      "åľŁå·¥èĨľ": 8250,
      "plate": 8251,
      "?;": 8252,
      "æĬķèµĦçĲĨè´¢": 8253,
      ":[": 8254,
      "Ġç¼ĸè¾ĳ": 8255,
      "Ġè®¾è®¡": 8256,
      "è¿Ĳè¾ĵè½¦": 8257,
      "mar": 8258,
      "èĬĴ": 8259,
      "Ġäººæ°Ķ": 8260,
      "Ġé¡¹çĽ®": 8261,
      "é«ĺé¢ĳ": 8262,
      "æĢİä¹ĪåĬŀ": 8263,
      "é£ŀæľº": 8264,
      "éĺ²çģ«éĹ¨": 8265,
      "71": 8266,
      "mçĶ¨äºİ": 8267,
      "åĴĮåħ¶ä»ĸ": 8268,
      "éĿ¢ç²ī": 8269,
      "yz": 8270,
      "ji": 8271,
      "çļĦåħ¬åı¸": 8272,
      "Î±": 8273,
      "å°ĳå¥³": 8274,
      "ä¾ĭåı¥": 8275,
      "å¤§éĻĨ": 8276,
      "æĸ°éĹ»ç½ĳ": 8277,
      "æ¸©åº¦è®¡": 8278,
      "åŃ£èĬĤ": 8279,
      "åŃĿ": 8280,
      "å·¥ä½ľåı°": 8281,
      "ä¿Ŀæ¸©æĿ¿": 8282,
      "fp": 8283,
      "çļĦæľįåĬ¡": 8284,
      "Ġhy": 8285,
      "84": 8286,
      "å®¢è½¦": 8287,
      "82": 8288,
      "èģĺ": 8289,
      "çļĦåĮºåĪ«": 8290,
      "æĢĿç»´": 8291,
      "éģ¥æİ§": 8292,
      "ebook": 8293,
      "åħ¨ç«Ļ": 8294,
      "è´¸æĺĵæľīéĻĲåħ¬åı¸": 8295,
      "ç»ª": 8296,
      "ä¸»è¦ģæľī": 8297,
      "æİ§åĪ¶æŁľ": 8298,
      "sèĳĹ": 8299,
      "å¸Ĥæ°ĳ": 8300,
      "çŃīå¾ħ": 8301,
      "ä¸ĸçķĮæĿ¯": 8302,
      "å¤§åŃ¦çĶŁ": 8303,
      "ĠéĿŀ": 8304,
      "æĮ¤å¡ĳ": 8305,
      "select": 8306,
      "èĿ¶éĺĢ": 8307,
      "éĨī": 8308,
      "è®¤åı¯": 8309,
      "çĶŁåŃĺ": 8310,
      "next": 8311,
      "æ¸©æİ§": 8312,
      "èĴľ": 8313,
      "gè¿İ": 8314,
      "rome": 8315,
      "éĥ¨t": 8316,
      "æ¼Ĥäº®": 8317,
      "éĻĦåĬł": 8318,
      "æĸĩæľ¬": 8319,
      "now": 8320,
      "è¾ŀ": 8321,
      "åĬłçĥŃåĻ¨": 8322,
      "pet": 8323,
      "ĠéĢļ": 8324,
      "åİķ": 8325,
      "çī©æĸĻçļĦ": 8326,
      "ç§»åĬ¨å¼ı": 8327,
      "çŁ«": 8328,
      "çİ°æľī": 8329,
      "xml": 8330,
      "æłĹ": 8331,
      "æĥħæĦŁ": 8332,
      "æī¬å·ŀ": 8333,
      "è§Ĥä¼Ĺ": 8334,
      "å¥ĩæĳ©": 8335,
      "åºĻ": 8336,
      "ç®Ģä¾¿": 8337,
      "Ġç½Ĺ": 8338,
      "è¾¹ç¼ĺ": 8339,
      "æĥĳ": 8340,
      "hr": 8341,
      "æĦıåĳ³": 8342,
      "Ġsl": 8343,
      "ww": 8344,
      "é«ĺå±Ĥ": 8345,
      "ç®¡çº¿": 8346,
      "éŀįå±±": 8347,
      "çĪ±å¿ĥ": 8348,
      "wc": 8349,
      "\";": 8350,
      "éĩįéĩıè½»": 8351,
      "æµĭæ¸©": 8352,
      "æ¢¦æĥ³": 8353,
      "length": 8354,
      "ç¦»çº¿": 8355,
      "éī´å®ļ": 8356,
      "ãĢĤãĢĤ": 8357,
      "æ²¸": 8358,
      "æīĵç£¨": 8359,
      "éŃı": 8360,
      "å¼ºå¤§çļĦ": 8361,
      "å·¥äºº": 8362,
      "ä¿ĿæĬ¤èĨľ": 8363,
      "æ¸łéģĵ": 8364,
      "åºķçĽĺ": 8365,
      "Ġhigh": 8366,
      "æ¼ł": 8367,
      "è°¨": 8368,
      "Ġåį·": 8369,
      "å°ĳçļĦ": 8370,
      "äº¿ç¾İåħĥ": 8371,
      "ä¸ºå®¢æĪ·": 8372,
      "ç®Ģæĺĵ": 8373,
      "Ġnews": 8374,
      "è¡Įé©¶": 8375,
      "æĮ½": 8376,
      "éĿ¢åĮħ": 8377,
      "å¿į": 8378,
      "å®īå¾½çľģ": 8379,
      "uk": 8380,
      "åĭ¿": 8381,
      "Ð¼": 8382,
      "çĹ´": 8383,
      "Ġbas": 8384,
      "ĠåĮĸåŃ¦": 8385,
      "æĮ¤åĩº": 8386,
      "ä¹°çĲĥ": 8387,
      "Ïģ": 8388,
      "æķĻå®¤": 8389,
      "çµ®": 8390,
      "å¹´ä»£": 8391,
      "android": 8392,
      "åĿļåĽº": 8393,
      "åį¸æĸĻ": 8394,
      "å®¶åĽŃ": 8395,
      "ãģ®": 8396,
      "Ġä½ł": 8397,
      "çĢ¹è·º": 8398,
      "çļĦä¸»": 8399,
      "è±«": 8400,
      "Ġçİ»çĴĥ": 8401,
      "Ġ||": 8402,
      "é¥ª": 8403,
      "å¸Ĥåľºä¸Ĭ": 8404,
      "åįģä¸Ģ": 8405,
      "æµģéĢļ": 8406,
      "Ġfirst": 8407,
      "æķĳæı´": 8408,
      "èĸ¯": 8409,
      "ä¸Ģæ¬¾": 8410,
      "Ġéĩį": 8411,
      "å¸ħ": 8412,
      "åĽŀåĪ°": 8413,
      "èĢĥæł¸": 8414,
      "Ġåħ«": 8415,
      "æķ¢": 8416,
      "æķ°åĢ¼": 8417,
      "æ»ļåĬ¨": 8418,
      "åº§æ¤ħ": 8419,
      "èĬ±å²Ĺ": 8420,
      "èİ·å¥ĸ": 8421,
      "å¤©æ´¥å¸Ĥ": 8422,
      "ç²¾èĩ´": 8423,
      "è°ĥçĶ¨": 8424,
      "è®¢è´Ń": 8425,
      "ãĢĳ(": 8426,
      "æ©Ĳ": 8427,
      "?_": 8428,
      "åĳ¨å¹´": 8429,
      "éĢıæ°´": 8430,
      "date": 8431,
      "èĳµ": 8432,
      "è¤Ĳ": 8433,
      "210": 8434,
      "å¤©çļĦ": 8435,
      "ä¼łéĢģ": 8436,
      "ground": 8437,
      "74": 8438,
      "åīįåĲİ": 8439,
      "Ġloc": 8440,
      "->": 8441,
      "æ¼Ķç¤ºæķ°æį®æ¼Ķç¤ºæķ°æį®": 8442,
      "éªı": 8443,
      "Ġdat": 8444,
      "åİĭæ»¤æľº": 8445,
      "è¾ĸ": 8446,
      "è®¯æģ¯": 8447,
      "ä¸ļä¸»": 8448,
      "å¤Ħç½®": 8449,
      "ç³»ç»Łä¸Ń": 8450,
      "æĶ¾åħ¥": 8451,
      "wæł¡": 8452,
      "å±ĤçļĦ": 8453,
      "çĶµç£ģéĺĢ": 8454,
      "éĵ¾æĿ¡": 8455,
      "è´Ńçī©è½¦": 8456,
      "ä½ĵç§¯å°ı": 8457,
      "ĠåĪĹè¡¨": 8458,
      "family": 8459,
      "dir": 8460,
      "çİ²": 8461,
      "ä¸ľåįĹ": 8462,
      "Ġonline": 8463,
      "éĨļ": 8464,
      "å¾ģä¿¡": 8465,
      "ãĢĳ:": 8466,
      "åıįæĺł": 8467,
      "Ġher": 8468,
      "Ġlet": 8469,
      "åĲĪçĲĨçļĦ": 8470,
      "gh": 8471,
      "abs": 8472,
      "Ġåħįè´¹": 8473,
      "ĠæĮī": 8474,
      "æ¸©å·ŀ": 8475,
      "Ġback": 8476,
      "æĮĩåĩº": 8477,
      "ãģŁæ¡´": 8478,
      "Ġçĳŀ": 8479,
      "Ġmark": 8480,
      "Ġä¹¦": 8481,
      "é«ĺè¾¾": 8482,
      "ç¡®è¯Ĭ": 8483,
      "åĽ½åĨħå¤ĸ": 8484,
      "939": 8485,
      "ãĢĭãĢģãĢĬ": 8486,
      "å¾ĹåĪ°äºĨ": 8487,
      "åıįå°Ħ": 8488,
      "ä¸ĢæĿ¡": 8489,
      "åıĳéĢģ": 8490,
      "ä½ľçī©": 8491,
      "éĩıå¤§": 8492,
      "çĮ¿": 8493,
      "é³ŀ": 8494,
      "æľīäºº": 8495,
      "éļıæľº": 8496,
      "äº§åĵģåĪĨç±»": 8497,
      "æĺ¯å¤ļå°ĳ": 8498,
      "oæºĨéĤ¢èĸ°åı¸": 8499,
      "æ°´ä½į": 8500,
      "oi": 8501,
      "éĹ´çļĦ": 8502,
      "æĸ°ç«¹": 8503,
      "æ°Ķæ³¡": 8504,
      "json": 8505,
      "pon": 8506,
      "è¿«": 8507,
      "ktv": 8508,
      "æµ·ç»µ": 8509,
      "æķ¦æ¡´çĳ°æĻ®çī¦æ½Ńæķ·": 8510,
      "æĺ¾å¾®éķľ": 8511,
      "Ã¼rke": 8512,
      "èģĶç³»æĪĳä»¬": 8513,
      "ãĢī": 8514,
      "æĸ¹çļĦ": 8515,
      "å¤įåĪ¶": 8516,
      "çīĩæľº": 8517,
      "éļ¾ä»¥": 8518,
      "æ£ĭ": 8519,
      "Ġchar": 8520,
      "ãĤĩ": 8521,
      "å®¢æĪ·çļĦ": 8522,
      "Ġaåĵģå±ķç¤º": 8523,
      "Ġæ¸ħéĻ¤": 8524,
      "çĲ¼": 8525,
      "å¸Ĩå¸ĥ": 8526,
      "ä¸įä½Ĩ": 8527,
      "æĿ¥äºĨ": 8528,
      "Ġep": 8529,
      "error": 8530,
      "æ°§æ°Ķ": 8531,
      "ä¸ĵä¸ļçĶŁäº§": 8532,
      "æĺ¾ç¤ºåĻ¨": 8533,
      "èħĲg": 8534,
      "éĥ½è¦ģ": 8535,
      "ä»²": 8536,
      "é¢ľæĸĻ": 8537,
      "äºķçĽĸ": 8538,
      "Ġåį¡": 8539,
      "åĲĲ": 8540,
      "æµĭéĩıä»ª": 8541,
      "èĢĹæĿĲ": 8542,
      "å¤ķ": 8543,
      "èīĩ": 8544,
      "è°ľ": 8545,
      "Ġsupport": 8546,
      "Ġä¸ªäººèµĦæĸĻ": 8547,
      "logoè®¾è®¡": 8548,
      "urrent": 8549,
      "è¡¨éĿ¢å¤ĦçĲĨ": 8550,
      "eld": 8551,
      "Ġact": 8552,
      "æ¡ĤæŀĹ": 8553,
      "æ¦«": 8554,
      "å¦«": 8555,
      "äº¤æĺĵæīĢ": 8556,
      "æª¬": 8557,
      "page": 8558,
      "éĻįä½İäºĨ": 8559,
      "usic": 8560,
      "Ġè§Ĩé¢ĳ": 8561,
      "è¯ģåĪ¸æĬķèµĦ": 8562,
      "Ġbre": 8563,
      "èĲ¤": 8564,
      "obo": 8565,
      "åºĶå¯¹": 8566,
      "è½¦çīĮ": 8567,
      "å¾Ĳå·ŀ": 8568,
      "çģµæķı": 8569,
      "ĠåįĹäº¬": 8570,
      "ãĪ¤": 8571,
      "æ²¹èĦĤ": 8572,
      "ä¹ĭä¸Ń": 8573,
      "é«ĺæł¡": 8574,
      "éĢ»è¾ĳ": 8575,
      "Ġç¬¬äºĮ": 8576,
      "å¹¿å·ŀå¸Ĥ": 8577,
      "ç©ºå¿ĥ": 8578,
      "ĠåĽ½éĻħ": 8579,
      "ular": 8580,
      "æĹ¶åĪ»è¡¨": 8581,
      "è·Łè¸ª": 8582,
      "å®Ļ": 8583,
      "æµ£è·¨": 8584,
      "åħħæ°Ķ": 8585,
      "çľ¼çĿĽ": 8586,
      "Ġshe": 8587,
      "æĬĸ": 8588,
      "Ġdownload": 8589,
      "å¹³è¡Į": 8590,
      "ç»±": 8591,
      "åŁł": 8592,
      "çłĶç©¶è®¡åĪĴ": 8593,
      "ä¼ļå±ķ": 8594,
      "cf": 8595,
      "å·¥ä½ľäººåĳĺ": 8596,
      "can": 8597,
      "ĠçĶµèĦĳ": 8598,
      ",^": 8599,
      "çļĦé¡µéĿ¢": 8600,
      "æģ°": 8601,
      "ç¦»åĲĪåĻ¨": 8602,
      "æ±ķ": 8603,
      "åĸĩ": 8604,
      "Ġnum": 8605,
      "Ġhow": 8606,
      "åı¯æĺ¯": 8607,
      "æĺŃ": 8608,
      "çī¡ä¸¹": 8609,
      "çĶ¨éĩı": 8610,
      "çļĦä¼ĺçĤ¹": 8611,
      "èĢĮä¸į": 8612,
      "Ġline": 8613,
      "loc": 8614,
      "ric": 8615,
      "äºĨè§£æĽ´å¤ļ": 8616,
      "Ġ2022": 8617,
      "ames": 8618,
      "çĶµè§Ĩåī§": 8619,
      "æ°§åĮĸéĵĿ": 8620,
      "æĹłçºº": 8621,
      "èĢĥçĶŁ": 8622,
      "åıĭæĥħéĵ¾æİ¥": 8623,
      "å§ĭç»Ī": 8624,
      "éºŁ": 8625,
      "èĤºçĤİ": 8626,
      "çĶ¨æĪ·çļĦ": 8627,
      "æĭ¼éŁ³": 8628,
      "æľĢå°ı": 8629,
      "æľŁçļĦ": 8630,
      "æłĩåĩĨåĮĸ": 8631,
      "æµªæ¼«": 8632,
      "æ§Ń": 8633,
      "Ġé£Łåĵģ": 8634,
      "Ġå¸ĥ": 8635,
      "å¤ļæ¬¡": 8636,
      "é¢ĨåŁŁçļĦ": 8637,
      "èµ´": 8638,
      "æĦıå¤ĸ": 8639,
      "ç»´å°Ķ": 8640,
      "æł¡åĩĨ": 8641,
      "æ²¼": 8642,
      "å¬": 8643,
      "æĭ³": 8644,
      "åį°èĬ±": 8645,
      "ç¼´": 8646,
      "é¼ĵé£İæľº": 8647,
      "ç»«": 8648,
      "Ġæ¹ĸåįĹ": 8649,
      "Ġè¿Ļ": 8650,
      "âĳł": 8651,
      "çĻľ": 8652,
      "å¥½è¯Ħ": 8653,
      "å¼ºåº¦é«ĺ": 8654,
      "åĳµ": 8655,
      "æ©¡z": 8656,
      "pol": 8657,
      "Ġè¯¾": 8658,
      "éĹ¨æĪ·": 8659,
      "æŃ¥è¡Į": 8660,
      "ç§ĳçĽ®": 8661,
      "çİ¯çĲĥ": 8662,
      "å°Ķå¤«": 8663,
      "æ¿Ģåħīæīĵæłĩ": 8664,
      "æĵįä½ľç®Ģåįķ": 8665,
      "æĢĿèĢĥ": 8666,
      "éĵħæĿ¿": 8667,
      "èĦĬ": 8668,
      "ç»įåħ´": 8669,
      "å¡«åĨĻ": 8670,
      "åģĩå¦Ĥ": 8671,
      "åįļè§Ī": 8672,
      "æĳ©çĺ¾æ±¡": 8673,
      "soft": 8674,
      "é»Ķ": 8675,
      "ih": 8676,
      "Ġserver": 8677,
      "Ġæ·±": 8678,
      "Ġcat": 8679,
      "è½¯è¿ŀæİ¥": 8680,
      "æ·¤": 8681,
      "éķ¶": 8682,
      "å¤ªå¹³æ´ĭ": 8683,
      "ãĥ¯": 8684,
      "çķĶ": 8685,
      "æīįæĺ¯": 8686,
      "ç½ļ": 8687,
      "äººæĸĩ": 8688,
      "åħīçģ¯": 8689,
      "Ġbro": 8690,
      "}}": 8691,
      "Ġå·¥ä½ľ": 8692,
      "ç©ºæ°Ķè´¨éĩı": 8693,
      "Ïī": 8694,
      "yéĩı": 8695,
      "åīĸ": 8696,
      "ĠåĽ¾": 8697,
      "åħħè¶³": 8698,
      "çĥ¤æ¼Ĩ": 8699,
      "èµ°è¿Ľ": 8700,
      "Ġusb": 8701,
      "ĠæŃ¦": 8702,
      "Ñį": 8703,
      "Îµ": 8704,
      "km": 8705,
      "Ġåħ³äºİæĪĳä»¬": 8706,
      "éĢĬ": 8707,
      "æŁĶè½¯": 8708,
      "æĬĹåİĭ": 8709,
      "åĸ·éĽ¾": 8710,
      "Ġä¹Ĳ": 8711,
      "ç²ĺåĲĪ": 8712,
      "èħķ": 8713,
      "å£ģæĮĤ": 8714,
      "åĲĪä¸Ģ": 8715,
      "åŃ¦ç§ĳ": 8716,
      "Ġsub": 8717,
      "Ġname": 8718,
      "Ġéĵ¶": 8719,
      "éĺŁä¼į": 8720,
      "å¿ħè¦ģçļĦ": 8721,
      "åĩłä½ķ": 8722,
      "å¨ģæµ·": 8723,
      "å´ŀ": 8724,
      "^ãĢģ": 8725,
      "ĠæĹ¶": 8726,
      "æŃ¤é¡µéĿ¢": 8727,
      "æĪĳæĺ¯": 8728,
      "ĠåĮº": 8729,
      "å®īåĮº": 8730,
      "æĮĸæİĺæľº": 8731,
      "uf": 8732,
      "è·ĳéģĵ": 8733,
      "å¯ĨéĽĨ": 8734,
      "æĽ¿æį¢": 8735,
      "ä¸ģåŁº": 8736,
      "åĪĨè¾¨çİĩ": 8737,
      "sä¿®": 8738,
      "èĤĸ": 8739,
      "Ġåıĳè¡¨": 8740,
      "bar": 8741,
      "ä¸Ńåŀĭ": 8742,
      "æľĿéĺ³": 8743,
      "?????": 8744,
      "ç»ĵæŀĦçļĦ": 8745,
      "çĻ¸": 8746,
      "å¼±çĳŃæ°¢": 8747,
      "æľºæĪ¿": 8748,
      "æĿ¿åĿĹ": 8749,
      "å¤§éĹ¨": 8750,
      "æĬĳåĪ¶": 8751,
      "è°Ĭ": 8752,
      "ĠçĽ¸åħ³": 8753,
      "ç¾İå¥½": 8754,
      "å¹¶ä¸įæĺ¯": 8755,
      "ä¸Ģåĳ¨": 8756,
      "jc": 8757,
      "æł·å¼ı": 8758,
      "åĩºæ°´": 8759,
      "Ġyahooå¥ĩæĳ©": 8760,
      "è¿Ļç±»": 8761,
      "ä¸ľåĮĹ": 8762,
      "ç¼©çŁŃ": 8763,
      "å¤įåĲĪç®¡": 8764,
      "å»ºè®¾é¡¹çĽ®": 8765,
      "éĴ»åŃĶ": 8766,
      "å°¸": 8767,
      "åĶ®åĲİæľįåĬ¡": 8768,
      "åħ»çĶŁ": 8769,
      "ç»Ŀå¯¹": 8770,
      "è¯ļä¿¡": 8771,
      "çº¾": 8772,
      "å®¢æĪ·æ¡Īä¾ĭ": 8773,
      "çļĦæīĢæľī": 8774,
      "çī©ä½ĵ": 8775,
      "ĠæĿŃå·ŀ": 8776,
      "æ½ľæ°´": 8777,
      "è®¾è®¡æľīéĻĲåħ¬åı¸": 8778,
      "æİ¢è®¨": 8779,
      "æĲľå¯»ç»ĵæŀľ": 8780,
      "è®©æĪĳä»¬": 8781,
      "å½»åºķ": 8782,
      "çºŃ": 8783,
      "å¤ĸè¡¨": 8784,
      "ä¸ĭè·Į": 8785,
      "çľŁé¢ĺ": 8786,
      "ĠåĿĢ": 8787,
      "oth": 8788,
      "æ¥¦": 8789,
      "æĲģ": 8790,
      "çŃīåĬŁèĥ½": 8791,
      "çħ¤æ°Ķ": 8792,
      "æĳĬ": 8793,
      "crm": 8794,
      "Ġéĵľ": 8795,
      "Ġwindow": 8796,
      "tt": 8797,
      "æľ¨åľ°æĿ¿": 8798,
      "é¢Ŀå¤ĸ": 8799,
      "fm": 8800,
      "éħįæĸĻ": 8801,
      "æĸ°é²ľ": 8802,
      "ä»¬çļĦ": 8803,
      "ĠæĹ¶éĹ´": 8804,
      "Ġ29": 8805,
      "ä½Ĳ": 8806,
      "ç»ĨèıĮ": 8807,
      "ody": 8808,
      "part": 8809,
      "åķĨéĵº": 8810,
      "çĶµèĥ½": 8811,
      "Ġdec": 8812,
      "åĩºçīĪç¤¾": 8813,
      "æ¸©é¦¨": 8814,
      "æĲºå¸¦": 8815,
      "æĭīåĬĽè¯ķéªĮæľº": 8816,
      "ern": 8817,
      "çıĬ": 8818,
      "èµ£": 8819,
      "çĦ¦çĤ¹": 8820,
      "æĪĲå°±": 8821,
      "ips": 8822,
      "âĶĢ": 8823,
      "ĠæĽ´æĸ°æĹ¶éĹ´": 8824,
      "èĤ¡å¸Ĥ": 8825,
      "æ³ķè§Ħ": 8826,
      "ä¸°çĶ°": 8827,
      "fox": 8828,
      "å¯¼å¸Ī": 8829,
      "å¥ĩå¹»": 8830,
      "è¿·ä½ł": 8831,
      "çĶµæ°ĶæľīéĻĲåħ¬åı¸": 8832,
      "***": 8833,
      "ä»ĸä»¬çļĦ": 8834,
      "çģ°å°ĺ": 8835,
      "è¯¢ä»·": 8836,
      "79": 8837,
      "Ġabout": 8838,
      "èī°": 8839,
      "esh": 8840,
      "è¯įæ±ĩ": 8841,
      "ç¢³çº¤ç»´": 8842,
      "ili": 8843,
      "æ¦¨": 8844,
      "Ġç®¡çĲĨ": 8845,
      "çĪµ": 8846,
      "rf": 8847,
      "æĮĩçº¹": 8848,
      "130": 8849,
      "ç»Ģ": 8850,
      "èĬĤæĹ¥": 8851,
      "Ġç«¹": 8852,
      "cription": 8853,
      "ents": 8854,
      "é¡¶çº§": 8855,
      "èħĬ": 8856,
      "æ¶¡è½®": 8857,
      "çŁ©å½¢": 8858,
      "çĽ¸ç°¿åĪĹè¡¨": 8859,
      "ä¿®çĲĨ": 8860,
      "().": 8861,
      "åĨĻåŃĹ": 8862,
      "æľįé¥°": 8863,
      "çĶŁåĮĸ": 8864,
      "èħº": 8865,
      "éªĹ": 8866,
      "ä¿±": 8867,
      "Ġlin": 8868,
      "ä¸ºä½ł": 8869,
      "èµ¶": 8870,
      "abo": 8871,
      "çĽĳç®¡": 8872,
      "éļıèĳĹ": 8873,
      "Ġforum": 8874,
      "çļĦæĲľç´¢": 8875,
      "åĽ½æłĩ": 8876,
      "èĶļ": 8877,
      "ä¾¿æĺ¯": 8878,
      "å¥Ķé©°": 8879,
      "æľīåĬ©": 8880,
      "èĤ¥æĸĻ": 8881,
      "èŃ¦ç¤º": 8882,
      "ä¸Ģä½ĵçļĦ": 8883,
      "Ġæķ°æį®": 8884,
      "Ġav": 8885,
      "è´Ŀå°Ķ": 8886,
      "åĸ·æ¼Ĩ": 8887,
      "ä¹Łå¾Ī": 8888,
      "å±Ī": 8889,
      "ä¸īéĢļ": 8890,
      "Ġæĺİ": 8891,
      "æĢ»è®¡": 8892,
      "ç´§æĢ¥": 8893,
      "æ°Ķæ¸©": 8894,
      "æŃ¤é¡µ": 8895,
      "kn": 8896,
      "Ġåħ¬åı¸æĸ°éĹ»": 8897,
      "æŁ´æ²¹åıĳçĶµæľºç»Ħ": 8898,
      "Ġåı°ä¸Ń": 8899,
      "çļĦæĸ½å·¥": 8900,
      "çŁŃè·¯": 8901,
      "åıĳå±ķçļĦ": 8902,
      "ç½ĳæł¼": 8903,
      "point": 8904,
      "\"\"": 8905,
      "æĬļ": 8906,
      "éĺ²çģ«æ¶ĤæĸĻ": 8907,
      "Ġdan": 8908,
      "çŁ³éĽķ": 8909,
      "çĽ¸çīĩ": 8910,
      "æ¸©æļĸ": 8911,
      "Ġ2009": 8912,
      "æ¾³æ´²": 8913,
      "æľŁåĪĬè®ºæĸĩ": 8914,
      "è¿Ľå±ķ": 8915,
      "è½¬ç§»": 8916,
      "Ġproject": 8917,
      "Ġsch": 8918,
      "anguage": 8919,
      "æ½ĺ": 8920,
      "åľ°éľĩ": 8921,
      "ä»ªå¼ı": 8922,
      "èĪ±": 8923,
      "73": 8924,
      "çŃĽéĢīæĿ¡ä»¶": 8925,
      "æľ¬äº§åĵģ": 8926,
      "ĠæľĢåĲİ": 8927,
      "Ġè¥¿å®ī": 8928,
      "python": 8929,
      "450": 8930,
      "è½½èį·": 8931,
      "æľºåŀĭ": 8932,
      "æ¾Ħ": 8933,
      "por": 8934,
      "åı¯ä»¥çĶ¨": 8935,
      "sg": 8936,
      "æºĥ": 8937,
      "ĠéĵĿ": 8938,
      "Ġä¼ļåĳĺ": 8939,
      "Ġmm": 8940,
      "ç»ĺçĶ»": 8941,
      "çŃīå¤ļç§į": 8942,
      "èĦļæľ¬": 8943,
      "éĢŁçİĩ": 8944,
      "æīĢè¿°": 8945,
      "èħĲèļĢæĢ§": 8946,
      "è©¹": 8947,
      "mal": 8948,
      "Ġèĭı": 8949,
      "Ġlim": 8950,
      "çłĶl": 8951,
      "ç«Ļéķ¿": 8952,
      "æĸ°çĶŁ": 8953,
      "ä¸ŃçļĦåºĶçĶ¨": 8954,
      "å¯¼åĲĳ": 8955,
      "å¿Į": 8956,
      "ç«£å·¥": 8957,
      "Ġfin": 8958,
      "æĿ¥è¥¿äºļ": 8959,
      "å¡ĳæĢ§": 8960,
      "æīĢä»¥åľ¨": 8961,
      "æµĵç¼©": 8962,
      "çŁĹ": 8963,
      "åİŁåŃĲ": 8964,
      "ç¡¼": 8965,
      "çļĦåħī": 8966,
      "éģ®éĺ³": 8967,
      "å¥ĭ": 8968,
      "æĪĸèĢħæĺ¯": 8969,
      "åľĥ": 8970,
      "å®ŀä¸ļ": 8971,
      "Ġwhich": 8972,
      "æĹ¶åºĶ": 8973,
      "yåĲĪ": 8974,
      "äº¤äºĴ": 8975,
      "æĭĴç»Ŀ": 8976,
      "çīĽèĤī": 8977,
      "Ġå½ĵåīįä½įç½®": 8978,
      "Ġæĭī": 8979,
      "ç§ī": 8980,
      "ç«ŀçĮľ": 8981,
      "fil": 8982,
      "åıĳæĺİ": 8983,
      "ures": 8984,
      "éĺ¿å°Ķ": 8985,
      "éĥ½ä¸į": 8986,
      "çĶ³æĬ¥": 8987,
      "åĮºåĿĹéĵ¾": 8988,
      "å¼¯å¤´": 8989,
      "çĥŃçĶµ": 8990,
      "åľĨæ»¡": 8991,
      "solve": 8992,
      "Ġdel": 8993,
      "æ¶Ľ": 8994,
      "çŃīäºİ": 8995,
      "çĪ±æĥħ": 8996,
      "ç¢¾": 8997,
      "åŃ¦åĳĺ": 8998,
      "èĥ½åľ¨": 8999,
      "Ġob": 9000,
      "(){": 9001,
      "åħ¸åŀĭ": 9002,
      "æĴĴ": 9003,
      "345": 9004,
      "æ°´ä¸ĭ": 9005,
      "ç£·éħ¸": 9006,
      "æ©±æŁľ": 9007,
      "çĥĤ": 9008,
      "æµłãĥ¥": 9009,
      "æĶ¯æī¿": 9010,
      "æ¥ŀ": 9011,
      "ä¸ľäº¬": 9012,
      "éļĶæĸŃ": 9013,
      "æĺ¯çĶ¨": 9014,
      "æĪĲç«ĭäºİ": 9015,
      "ç«ŀæĬĢ": 9016,
      "gl": 9017,
      "å¹³å®ī": 9018,
      "æ±Łå¸Ĥ": 9019,
      "è¯»éŁ³": 9020,
      "çīµå¼ķ": 9021,
      "æĸŃè·¯åĻ¨": 9022,
      "Ġhome": 9023,
      "åĹ¨": 9024,
      "ä»¥åīį": 9025,
      "çĥŃçĨĶ": 9026,
      "åĤ²": 9027,
      "åŁºå±Ĥ": 9028,
      "Ġoneä½ĵèĤ²": 9029,
      "bot": 9030,
      "çŁ³æ¼Ĩ": 9031,
      "Ġç§ĳ": 9032,
      "oæ¶ŀ": 9033,
      "æĸ°åįİ": 9034,
      "è´§çī©": 9035,
      "è¥¿åįĹ": 9036,
      "é¥°åĵģ": 9037,
      "ÐºÐ°": 9038,
      "ny": 9039,
      "æµĩæ³¨": 9040,
      "å½¢æĢģ": 9041,
      "æ±¡æ±ª": 9042,
      ":ãĢĬ": 9043,
      "è½¯åĮĸ": 9044,
      "æİ¢æµĭåĻ¨": 9045,
      "åıŃ": 9046,
      "çĶµåĻ¨æľīéĻĲåħ¬åı¸": 9047,
      "ives": 9048,
      "æ¶ĵæµľ": 9049,
      "cel": 9050,
      "çļĦçłĶç©¶": 9051,
      "Ġrom": 9052,
      "ç§¦çļĩ": 9053,
      "Ġ07": 9054,
      "Ġ2008": 9055,
      "Ġç³»ç»Ł": 9056,
      "çļĦä¿¡æģ¯": 9057,
      "å¥ĳ": 9058,
      "æī¿æĭħ": 9059,
      "çĶŁçī©ç§ĳæĬĢæľīéĻĲåħ¬åı¸": 9060,
      "Ġæī¹åıĳ": 9061,
      "çļĦèĥ½åĬĽ": 9062,
      "ysql": 9063,
      "çķĻæĦı": 9064,
      "pcb": 9065,
      "äº§åľ°": 9066,
      "æł·æľ¬": 9067,
      "å¨ĥ": 9068,
      "åħ¬åı¸çĻ»è®°": 9069,
      "è°¢è°¢": 9070,
      "Î·": 9071,
      "èĥ¶çīĩ": 9072,
      "å·©": 9073,
      "ç§ģäºº": 9074,
      "ĠæĤ¨": 9075,
      "æģ¼": 9076,
      "Ġæľª": 9077,
      "Ġcap": 9078,
      "åµĮåħ¥å¼ı": 9079,
      "æİĴåĩº": 9080,
      "æ³īå·ŀ": 9081,
      "Ġusing": 9082,
      "Ġéĵģ": 9083,
      "Ġgener": 9084,
      "å¦ĸ": 9085,
      "æįŁä¼¤": 9086,
      "éĺ²çĸ«": 9087,
      "kåħ¬": 9088,
      "æľīèī²": 9089,
      "æ°Ķæµģ": 9090,
      "éĿĻéŁ³": 9091,
      "è§ĤçĤ¹": 9092,
      "çĤ«": 9093,
      "æ¯¡": 9094,
      "off": 9095,
      "Ġdet": 9096,
      "åŀĥåľ¾æ¡¶": 9097,
      "çŁ¥r": 9098,
      "mçĶ¨": 9099,
      "ç»ı": 9100,
      "å¾·å·ŀ": 9101,
      "å¼Ĥåŀĭ": 9102,
      "åĪĿä¸Ń": 9103,
      "çŃīå¤ļ": 9104,
      "çİ°å®ŀ": 9105,
      "æľŁæĿĥ": 9106,
      "gu": 9107,
      "çĥ¹": 9108,
      "æ£Ģå®ļ": 9109,
      "Ġsk": 9110,
      "éĵĤ": 9111,
      "ç©¿è¶Ĭ": 9112,
      "æ¿ĢåħīåĪĩåī²æľº": 9113,
      "çĨŁæĤī": 9114,
      "ices": 9115,
      "ä»£æĽ¿": 9116,
      "åħ¨ä½ĵ": 9117,
      "å¤§ç±³": 9118,
      "2006": 9119,
      "æĭ¨": 9120,
      "Ġdocument": 9121,
      "å¾®æľº": 9122,
      "Ġ})": 9123,
      "éļľç¢į": 9124,
      "çĽĳçĲĨ": 9125,
      "çŁŃæľŁ": 9126,
      "æľīæ²¡æľī": 9127,
      "åĽĽå·Ŀçľģ": 9128,
      "å±ķè§Īä¼ļ": 9129,
      "ĠèĢģ": 9130,
      "Ġmax": 9131,
      "åı¯èĥ½æĺ¯": 9132,
      "å§ĵåĲį": 9133,
      "gan": 9134,
      "èķ¾": 9135,
      "é«ĺæ¡£": 9136,
      "è¿ĳå¹´æĿ¥": 9137,
      "æ»ĳåĬ¨": 9138,
      "ĠçĻ¾": 9139,
      "ange": 9140,
      "æĵįä½ľç³»ç»Ł": 9141,
      "ope": 9142,
      "ä¹°åįĸ": 9143,
      "è½»åŀĭ": 9144,
      "èĺ": 9145,
      "ä¼łå¥ĩç§ģæľį": 9146,
      "å»·": 9147,
      "Ġç¦ı": 9148,
      "çļĦåĽłç´ł": 9149,
      "æĬĦ": 9150,
      "æİĴæ±¡": 9151,
      "Ġ80": 9152,
      "ãĤĦ": 9153,
      "å¥Ĺä»¶": 9154,
      "uåŀĭ": 9155,
      "é«ĺçŃī": 9156,
      "Ġpc": 9157,
      "è¡£æŁľ": 9158,
      "ç±½": 9159,
      "å·¥ç¨ĭé¡¹çĽ®": 9160,
      "æ²Ĳ": 9161,
      "ä¼ĺèī¯çļĦ": 9162,
      "çļĦå¿ĥ": 9163,
      "éĶĺ": 9164,
      "é¢Ħçº¦": 9165,
      "âĢ¦]": 9166,
      "åŁ¹èĤ²": 9167,
      "ä¸Ģåı°": 9168,
      "ä¾¦": 9169,
      "åħ¨æĸ¹ä½į": 9170,
      "Ġlist": 9171,
      "çĽ¸ä¼¼": 9172,
      "éĴĵ": 9173,
      "ä»·éĴ±": 9174,
      "è½¦ç«Ļ": 9175,
      "ç½ª": 9176,
      "åı¯ä»¥æł¹æį®": 9177,
      "open": 9178,
      "è½¬åĲĳ": 9179,
      "éĺ²æ°´åį·æĿĲ": 9180,
      "äºĮæ°§åĮĸç¢³": 9181,
      "åŁĭå¼ı": 9182,
      "lå¸ĥ": 9183,
      "è¿Ľç¨ĭ": 9184,
      "ä¼ģä¸ļæĸĩåĮĸ": 9185,
      "Ġunivers": 9186,
      "è®¿å®¢": 9187,
      "åĳ³éģĵ": 9188,
      "çĪª": 9189,
      "æĿ¥è¿Ľè¡Į": 9190,
      "åºĶå½ĵ": 9191,
      "æµħè°Ī": 9192,
      "çĦļçĥ§": 9193,
      "ä¸ĵå±ŀ": 9194,
      "Ġå·¥": 9195,
      "æ¬¢è¿İæĤ¨": 9196,
      "æ°²æĲ½": 9197,
      "],": 9198,
      "æľºåĬ¨": 9199,
      "Ġover": 9200,
      "æĢ»ä½ĵ": 9201,
      "ãĤ½": 9202,
      "æŁ¥çľĭè¯¦æĥħ": 9203,
      "Ġlinux": 9204,
      "éļ¾é¢ĺ": 9205,
      "java": 9206,
      "æīĢéĢī": 9207,
      "è¡ħ": 9208,
      "ource": 9209,
      "coin": 9210,
      "ask": 9211,
      "åĪ¨": 9212,
      "çĥŃéķĢéĶĮ": 9213,
      "é¢Ħç®Ĺ": 9214,
      "å¼ºåĪ¶": 9215,
      "åł°": 9216,
      "mer": 9217,
      "Ġfilter": 9218,
      "gt": 9219,
      "çĤ¹çļĦ": 9220,
      "å®Įæķ´çļĦ": 9221,
      "Ġå¸¦": 9222,
      "Ġkey": 9223,
      "æĽ¹": 9224,
      "è½¦åĩºç§Ł": 9225,
      "çŃĽåĪĨ": 9226,
      "çĲĨå·¥": 9227,
      "åıįåħī": 9228,
      "æĹ¶åħī": 9229,
      "åĪĨæĶ¯": 9230,
      "èĮ¶åı¶": 9231,
      "108": 9232,
      "åħ¬åĪĨ": 9233,
      "å¦Ĺ": 9234,
      "ç£¨åºĬ": 9235,
      "ä¼ļåĩºçİ°": 9236,
      "éĩĩåħī": 9237,
      "uper": 9238,
      "ç²Ĵåº¦": 9239,
      "è§£éĻ¤": 9240,
      "ĠæĽ´æĸ°": 9241,
      "åįģåŃĹ": 9242,
      "ĠæĶ¶èĹı": 9243,
      "Ġçİī": 9244,
      "æĮĩä»¤": 9245,
      "æīĭç»Ń": 9246,
      "ç¨ł": 9247,
      "æµ´å®¤": 9248,
      "kæĸ¤æĭ·kæĸ¤æĭ·": 9249,
      "åŃ¦å¹´åº¦": 9250,
      "èīºæľ¯å®¶": 9251,
      "æ¯įçĮª": 9252,
      "çŁ³ç¬¼": 9253,
      "åłµæ¼ı": 9254,
      "åģıå·®": 9255,
      "çĶ¨çĶµ": 9256,
      ",ãĢĬ": 9257,
      "ç¢°æĴŀ": 9258,
      "cåĻ¨": 9259,
      "ç»ĩæ¢¦": 9260,
      "äºĶèİ²": 9261,
      "ä½ĵèĤ²çĽ´æĴŃ": 9262,
      "å¾®æ³¢": 9263,
      "æ±ŁåįĹ": 9264,
      "bit": 9265,
      "Ġadd": 9266,
      "äº®çĽ¸": 9267,
      "åĲ¯çĶ¨": 9268,
      "Ġrec": 9269,
      "gy": 9270,
      "ä¼ĺéĽħ": 9271,
      "åĲĮæŃ¥å¸¦": 9272,
      "åĶ¤": 9273,
      "Ġsearch": 9274,
      "åħīç¼Ĩ": 9275,
      "value": 9276,
      "åĲįçīĩ": 9277,
      "âĢ»": 9278,
      "æķĪæŀľå¥½": 9279,
      "è¯¥äº§åĵģ": 9280,
      "èį¯çī©": 9281,
      "å¯¹åħ¶": 9282,
      "éĶ»éĢł": 9283,
      "åľ°è´¨": 9284,
      "çĳľ": 9285,
      ".;": 9286,
      "æ°Ķåİĭ": 9287,
      "Ġæ±ĩ": 9288,
      "çĻ£": 9289,
      "ium": 9290,
      "æ°Ķæ°Ľ": 9291,
      "æĮ¤åİĭ": 9292,
      "è¡Įä¸ļèµĦè®¯": 9293,
      "èĤ¿çĺ¤": 9294,
      "æĥłå·ŀ": 9295,
      "å¸Ĥé²": 9296,
      "çĽĳæİ§ç³»ç»Ł": 9297,
      "èµĦæľ¬": 9298,
      "åıĬr": 9299,
      "Ġç¬¬ä¸ī": 9300,
      "å®¡æł¸": 9301,
      "å¿ĹæĦ¿èĢħ": 9302,
      "æ¥£": 9303,
      "å¼Ħ": 9304,
      "Ġpub": 9305,
      "éĶĽæĿ©": 9306,
      "ason": 9307,
      "è¡Ģç®¡": 9308,
      "å¼ķèµ·çļĦ": 9309,
      "æľ¬é¡µ": 9310,
      "æ³¢åĬ¨": 9311,
      "Ġvit": 9312,
      "ane": 9313,
      "èį·åħ°": 9314,
      "ä¸¤ä¾§": 9315,
      "æł·æĿ¿": 9316,
      "Ġç»´åŁº": 9317,
      "å®ĩå®Ļ": 9318,
      "104": 9319,
      "åĪĻæĺ¯": 9320,
      "ä¸Ģç³»åĪĹ": 9321,
      "éĶĢéĩı": 9322,
      "å»ºéĢłå¸Ī": 9323,
      "Ġå®īå¾½": 9324,
      "fig": 9325,
      "ãĦ£": 9326,
      ":ãĢĲ": 9327,
      "Ġåįļ": 9328,
      "çļĦæľĭåıĭ": 9329,
      "ĠèµĦè®¯": 9330,
      "å¾Īé«ĺ": 9331,
      "åİĭéĵ¸": 9332,
      "è®¤çľŁ": 9333,
      "ä¸ĢæľŁ": 9334,
      "åħĥåĻ¨ä»¶": 9335,
      "è¿½è¸ª": 9336,
      "Ġäºļ": 9337,
      "Ġplay": 9338,
      "éĥĬ": 9339,
      "ĠæĹħæ¸¸": 9340,
      "copyright": 9341,
      "åľŁå·¥å¸ĥ": 9342,
      "éĩĳé¢Ŀ": 9343,
      "éĿĴæĺ¥": 9344,
      "oa": 9345,
      "Ġç¾İåĽ½": 9346,
      "çļĤ": 9347,
      "äº§åĵģçī¹çĤ¹": 9348,
      "Î´": 9349,
      "vid": 9350,
      "é¢ĺçĽ®": 9351,
      "å®ŀçİ°äºĨ": 9352,
      "fè±¡": 9353,
      "Ġå®ľ": 9354,
      "Ġeng": 9355,
      "velop": 9356,
      "å·²è¢«": 9357,
      "opp": 9358,
      "åĲĪçº¦": 9359,
      "èīĭ": 9360,
      "åĢºåĪ¸": 9361,
      "Ġ>>>": 9362,
      "æ¶Īå¤±": 9363,
      "Ġass": 9364,
      "æ¸Ŀ": 9365,
      "Ġ500": 9366,
      "åı°å¼ı": 9367,
      "å®¹ç§¯": 9368,
      "è·¯çĶ±": 9369,
      "æ¤°": 9370,
      "åĴĮä½¿çĶ¨": 9371,
      "å®°": 9372,
      "ä¸įåºĶ": 9373,
      "åĨ·så¡Ķ": 9374,
      "Ġcode": 9375,
      "åľ°åĿªæ¼Ĩ": 9376,
      "mr": 9377,
      "fä»£": 9378,
      "æļ®": 9379,
      "éĴ¢æł¼æĿ¿": 9380,
      "è¯Ŀé¢ĺ": 9381,
      "è´¢å¯Į": 9382,
      "ature": 9383,
      "å¼Ĥå½¢": 9384,
      "æķ°æİ§è½¦åºĬ": 9385,
      "Ġåħ¶å®ĥ": 9386,
      "æľ¨è´¨": 9387,
      "åİļçļĦ": 9388,
      "ç®¡æľº": 9389,
      "hl": 9390,
      "èĬĻ": 9391,
      "ä¸įèµ·": 9392,
      "å©§": 9393,
      "éĽĨåĲĪ": 9394,
      "èĢĥçłĶ": 9395,
      "æĴ¤": 9396,
      "è§Ħç¨ĭ": 9397,
      "åĢ¼çļĦ": 9398,
      "ĠçĶ·": 9399,
      "çĶµè§£": 9400,
      "ä¹Łå°±": 9401,
      "ä¸°å¯ĮçļĦ": 9402,
      "éĿĻæĢģ": 9403,
      "æīĭç»ĺ": 9404,
      "åĢ¾æĸľ": 9405,
      "acebook": 9406,
      "èĦ±æ°´": 9407,
      "æ¶Īm": 9408,
      "Ġç¥ŀ": 9409,
      "æľºæ¢°è®¾å¤ĩæľīéĻĲåħ¬åı¸": 9410,
      "æ±¡æŁĵçī©": 9411,
      "æ¢ħèĬ±": 9412,
      "ĠåĪĨéĴŁ": 9413,
      "åįłåľ°éĿ¢ç§¯": 9414,
      "Ġæ´»åĬ¨æĹ¥æľŁ": 9415,
      "çº¸å¼ł": 9416,
      "æ²³éģĵ": 9417,
      "ams": 9418,
      "ä¸Ĭæľī": 9419,
      "æĲŀç¬ĳ": 9420,
      "åıĺéĩı": 9421,
      "è´Łè´£äºº": 9422,
      "çļĦo": 9423,
      "å¯¹è¯Ŀ": 9424,
      "èĢĲåİĭ": 9425,
      "1500": 9426,
      "ä¾ĿçĦ¶": 9427,
      "åįĹæĸ¹": 9428,
      "æ¯Ķçī¹": 9429,
      "æĺ¯å¾Ī": 9430,
      "èģļèĭ¯": 9431,
      "çĸıéĢļ": 9432,
      "çĶ¨åľ°": 9433,
      "åĴ±ä»¬": 9434,
      "å¼ºåĬĽ": 9435,
      "åĩºåİĤ": 9436,
      "Ġmanag": 9437,
      "ier": 9438,
      "ç²īä½ĵ": 9439,
      "éĵ¾æĿ¿": 9440,
      "âĶĤ": 9441,
      "Ġ06": 9442,
      "å±Ĥæ¬¡": 9443,
      "çļĦåħ¬åĳĬ": 9444,
      "åĬłéĢŁåĻ¨": 9445,
      "æ³°åĽ½": 9446,
      "ä»¥å¤ª": 9447,
      "å¦Ĥæŀľæĺ¯": 9448,
      "ãĢģãĢģ": 9449,
      "èļĮ": 9450,
      "çīŁ": 9451,
      "Ġçģ«çģ¾": 9452,
      "wn": 9453,
      "åıĳçĥŃ": 9454,
      "è§£çŃĶ": 9455,
      "Ġç½ĳ": 9456,
      "éĺ³åİ¿": 9457,
      "ative": 9458,
      "ç¦»å¿ĥæľº": 9459,
      "å£¶": 9460,
      "å·´é»İ": 9461,
      "åıĹæ¬¢è¿İ": 9462,
      "thor": 9463,
      "åĩłçĤ¹": 9464,
      "è¿Ľåº¦": 9465,
      "å·¥ç¨ĭåŃ¦ç³»": 9466,
      "è¡£æľį": 9467,
      "æķĻåŃ¦å®ŀè·µ": 9468,
      "è¿ŀè½½": 9469,
      "æŃ¢åĽŀ": 9470,
      "rap": 9471,
      "æĶ¶åĪ°": 9472,
      "åįıè°ĥ": 9473,
      "æĪªèĩ³": 9474,
      "æĬ¥å¯¼": 9475,
      "éķ¿çļĦ": 9476,
      "è¡Įè½¦": 9477,
      "éħįçĶµç®±": 9478,
      "ç§įåŃĲ": 9479,
      "éļĶéľĩ": 9480,
      "åĪ¹è½¦": 9481,
      "æĪªéĿ¢": 9482,
      "ç®¡åħ¬åı¸": 9483,
      "ĠâĹı": 9484,
      "å¤įåĲĪæĿĲæĸĻ": 9485,
      "input": 9486,
      "vd": 9487,
      "Ġå®¶": 9488,
      "ä¾¯": 9489,
      "å¤§åĬĽ": 9490,
      "wordpress": 9491,
      "bd": 9492,
      "Ġç³»": 9493,
      "è®¿éĹ®éĩı": 9494,
      "Ġåıĳè¡¨äºİ": 9495,
      "åı¯ä»¥ä½¿çĶ¨": 9496,
      "è°ĥçłĶ": 9497,
      "hi": 9498,
      "è¯¦ç»Ĩä¿¡æģ¯": 9499,
      "ç¤ºä¾ĭ": 9500,
      "Ġcook": 9501,
      "è¾£æ¤Ĵ": 9502,
      "Ġmicro": 9503,
      "æŀģéĻĲ": 9504,
      "Ġour": 9505,
      "æıĲåįĩæľº": 9506,
      "æĺ¥èĬĤ": 9507,
      "æ±ŁéĹ¨": 9508,
      "åĪļæĢ§": 9509,
      "åħ¨æĸ°çļĦ": 9510,
      "çł´ç¢İc": 9511,
      "åıĶ": 9512,
      "national": 9513,
      "å²©æ£īæĿ¿": 9514,
      "ĠæĿ¡è®°å½ķ": 9515,
      "Ġindones": 9516,
      "åŃ¦æĬ¥": 9517,
      "å¾®éĩı": 9518,
      "cms": 9519,
      "å±±æ°´": 9520,
      "çīĮåĿĬ": 9521,
      "ä¹¦æ³ķ": 9522,
      "æĸ°è½¦": 9523,
      "éĹ¸éĺĢ": 9524,
      "ĠåĦ¿ç«¥": 9525,
      "å°ıå¿ĥ": 9526,
      "åįĥä¸ĩ": 9527,
      "ä¸įäºĨ": 9528,
      "ä¸Ļçĥ¯éħ¸": 9529,
      "åħ³èģĶ": 9530,
      "bal": 9531,
      "105": 9532,
      "ãĢĤ...": 9533,
      "Ġfile": 9534,
      "çģ«èĬ±": 9535,
      "æ²¹æ³µ": 9536,
      "Ġting": 9537,
      "è¡į": 9538,
      "æŃ¤æĹ¶": 9539,
      "åı·çłģ": 9540,
      "ĠåĪ¶ä½ľ": 9541,
      "ple": 9542,
      "æ½Ĩ": 9543,
      "block": 9544,
      "æ¾³å¤§åĪ©": 9545,
      "140": 9546,
      "'t": 9547,
      "æĬ¤æłıç½ĳ": 9548,
      "ä½ľi": 9549,
      "çĶµå·¥": 9550,
      "åįķè¯į": 9551,
      "é¦ĸéĢī": 9552,
      "ç¦»å¿ĥæ³µ": 9553,
      "Ġtem": 9554,
      "éĺ²éĽ·": 9555,
      "åĬŀäºĭ": 9556,
      "å¸¦åĬ¨": 9557,
      "éĤª": 9558,
      "èįĶ": 9559,
      "ĠäºĮæīĭ": 9560,
      "æĻļä¸Ĭ": 9561,
      "åħ¬åı¸ç®Ģä»ĭ": 9562,
      "ä»ĺæ¬¾": 9563,
      "çļĦæĲľç´¢æİĴè¡Įæ¦ľ": 9564,
      "è½¦èº«": 9565,
      "çĶµçĥŃ": 9566,
      "æľīè¶£": 9567,
      "é²¨": 9568,
      "çĥĺçĦĻ": 9569,
      "å°Ħçº¿": 9570,
      "Ġpage": 9571,
[...]
