{
  "version": "1.0",
  "truncation": null,
  "padding": null,
  "added_tokens": [
    {
      "id": 0,
      "special": true,
      "content": "<pad>",
      "single_word": false,
      "lstrip": false,
      "rstrip": false,
      "normalized": false
    },
    {
      "id": 1,
      "special": true,
      "content": "<|endoftext|>",
      "single_word": false,
      "lstrip": false,
      "rstrip": false,
      "normalized": false
    }
  ],
  "normalizer": null,
  "pre_tokenizer": {
    "type": "ByteLevel",
    "add_prefix_space": false,
    "trim_offsets": true
  },
  "post_processor": {
    "type": "ByteLevel",
    "add_prefix_space": true,
    "trim_offsets": false
  },
  "decoder": {
    "type": "ByteLevel",
    "add_prefix_space": true,
    "trim_offsets": true
  },
  "model": {
    "type": "BPE",
    "dropout": null,
    "unk_token": null,
    "continuing_subword_prefix": null,
    "end_of_word_suffix": null,
    "fuse_unk": false,
    "vocab": {
      "<pad>": 0,
      "<|endoftext|>": 1,
      "!": 2,
      "\"": 3,
      "#": 4,
      "$": 5,
      "%": 6,
      "&": 7,
      "'": 8,
      "(": 9,
      ")": 10,
      "*": 11,
      "+": 12,
      ",": 13,
      "-": 14,
      ".": 15,
      "/": 16,
      "0": 17,
      "1": 18,
      "2": 19,
      "3": 20,
      "4": 21,
      "5": 22,
      "6": 23,
      "7": 24,
      "8": 25,
      "9": 26,
      ":": 27,
      ";": 28,
      "<": 29,
      "=": 30,
      ">": 31,
      "?": 32,
      "@": 33,
      "[": 34,
      "\\": 35,
      "]": 36,
      "^": 37,
      "_": 38,
      "`": 39,
      "a": 40,
      "b": 41,
      "c": 42,
      "d": 43,
      "e": 44,
      "f": 45,
      "g": 46,
      "h": 47,
      "i": 48,
      "j": 49,
      "k": 50,
      "l": 51,
      "m": 52,
      "n": 53,
      "o": 54,
      "p": 55,
      "q": 56,
      "r": 57,
      "s": 58,
      "t": 59,
      "u": 60,
      "v": 61,
      "w": 62,
      "x": 63,
      "y": 64,
      "z": 65,
      "{": 66,
      "|": 67,
      "}": 68,
      "~": 69,
      "¡": 70,
      "¢": 71,
      "£": 72,
      "¤": 73,
      "¥": 74,
      "¦": 75,
      "§": 76,
      "¨": 77,
      "©": 78,
      "ª": 79,
      "«": 80,
      "¬": 81,
      "®": 82,
      "¯": 83,
      "°": 84,
      "±": 85,
      "²": 86,
      "³": 87,
      "´": 88,
      "µ": 89,
      "¶": 90,
      "·": 91,
      "¸": 92,
      "¹": 93,
      "º": 94,
      "»": 95,
      "¼": 96,
      "½": 97,
      "¾": 98,
      "¿": 99,
      "Â": 100,
      "Ã": 101,
      "Ä": 102,
      "Å": 103,
      "Æ": 104,
      "Ç": 105,
      "È": 106,
      "É": 107,
      "Ê": 108,
      "Ë": 109,
      "Ì": 110,
      "Í": 111,
      "Î": 112,
      "Ï": 113,
      "Ð": 114,
      "Ñ": 115,
      "Ò": 116,
      "Ó": 117,
      "Ô": 118,
      "Õ": 119,
      "Ö": 120,
      "×": 121,
      "Ø": 122,
      "Ù": 123,
      "Ú": 124,
      "Û": 125,
      "Ü": 126,
      "Ý": 127,
      "Þ": 128,
      "ß": 129,
      "à": 130,
      "á": 131,
      "â": 132,
      "ã": 133,
      "ä": 134,
      "å": 135,
      "æ": 136,
      "ç": 137,
      "è": 138,
      "é": 139,
      "ê": 140,
      "ë": 141,
      "ì": 142,
      "í": 143,
      "î": 144,
      "ï": 145,
      "ð": 146,
      "ñ": 147,
      "ò": 148,
      "ó": 149,
      "ô": 150,
      "Ġ": 151,
      "Ģ": 152,
      "ģ": 153,
      "Ĥ": 154,
      "ĥ": 155,
      "Ħ": 156,
      "ħ": 157,
      "Ĩ": 158,
      "ĩ": 159,
      "Ī": 160,
      "ī": 161,
      "Ĭ": 162,
      "ĭ": 163,
      "Į": 164,
      "į": 165,
      "İ": 166,
      "ı": 167,
      "Ĳ": 168,
      "ĳ": 169,
      "Ĵ": 170,
      "ĵ": 171,
      "Ķ": 172,
      "ķ": 173,
      "ĸ": 174,
      "Ĺ": 175,
      "ĺ": 176,
      "Ļ": 177,
      "ļ": 178,
      "Ľ": 179,
      "ľ": 180,
      "Ŀ": 181,
      "ŀ": 182,
      "Ł": 183,
      "ł": 184,
      "Ń": 185,
      "æľ": 186,
      "åħ": 187,
      "åı": 188,
      "ä¸": 189,
      "æľī": 190,
      "åħ¬": 191,
      "éĻ": 192,
      "åı¸": 193,
      "åħ¬åı¸": 194,
      "éĻĲ": 195,
      "æľīéĻĲ": 196,
      "æľīéĻĲåħ¬åı¸": 197,
      "å®": 198,
      "äº": 199,
      "å¤": 200,
      "å·": 201,
      "çĶ": 202,
      "åĪ": 203,
      "æĿ": 204,
      "åį": 205,
      "¿½": 206,
      "ï¿½": 207,
      "æĸ": 208,
      "åĬ": 209,
      "çī": 210,
      "è®": 211,
      "åĮ": 212,
      "æī": 213,
      "åĵ": 214,
      "ä»": 215,
      "å±": 216,
      "æµ": 217,
      "åº": 218,
      "é¡": 219,
      "éĺ": 220,
      "æľº": 221,
      "åĵģ": 222,
      "åĽ": 223,
      "ãĢ": 224,
      "--": 225,
      "ä½": 226,
      "æ°": 227,
      "å¸": 228,
      "åĲ": 229,
      "åİ": 230,
      "åŃ": 231,
      "éĢ": 232,
      "ä¸Ń": 233,
      "è¿": 234,
      "æ±": 235,
      "è¯": 236,
      "å¹": 237,
      "ç½": 238,
      "çº": 239,
      "Ġ>": 240,
      "é¡µ": 241,
      "å·ŀ": 242,
      "ç»": 243,
      "å°": 244,
      "ä¸Ģ": 245,
      "20": 246,
      "åľ": 247,
      "è½": 248,
      "æł": 249,
      "å·¥": 250,
      "ä¼": 251,
      "éĩ": 252,
      "çĶµ": 253,
      "å¼": 254,
      "ï¿½ï¿½": 255,
      "å¿": 256,
      "ä¹": 257,
      "å½": 258,
      "æŀ": 259,
      "ç§": 260,
      "æĬ": 261,
      "çĽ": 262,
      "å®¶": 263,
      "äº§": 264,
      "çİ": 265,
      "éĹ": 266,
      "æ²": 267,
      "è´": 268,
      "æ³": 269,
      "è¡": 270,
      "æĺ": 271,
      "Ġ-": 272,
      "æĹ": 273,
      "åĨ": 274,
      "ä¸ļ": 275,
      "ä¿": 276,
      "é¦": 277,
      "çīĪ": 278,
      "è®¾": 279,
      "ä¸Ĭ": 280,
      "æīĢ": 281,
      "æķ": 282,
      "å¿ĥ": 283,
      "åĪ¶": 284,
      "æľį": 285,
      "éĥ": 286,
      "è£": 287,
      "æĪ": 288,
      "æĸĻ": 289,
      "åĬ¡": 290,
      "åī": 291,
      "å¸Ĥ": 292,
      "åįĹ": 293,
      "Ł³": 294,
      "è£ħ": 295,
      "æĿĥ": 296,
      "äº§åĵģ": 297,
      "åŁ": 298,
      "éĴ": 299,
      "æ°´": 300,
      "å¤§": 301,
      "æīĢæľī": 302,
      "é£": 303,
      "æİ": 304,
      "ä¸Ńå¿ĥ": 305,
      "æĢ": 306,
      "éĵ": 307,
      "æ¸": 308,
      "é¦ĸ": 309,
      "ç½ĳ": 310,
      "çīĪæĿĥ": 311,
      "ç®": 312,
      "è½¦": 313,
      "çīĪæĿĥæīĢæľī": 314,
      "---": 315,
      "èµ": 316,
      "å±±": 317,
      "å®ī": 318,
      "_---": 319,
      "éĺ³": 320,
      "éĶ": 321,
      "æĸ°": 322,
      "æ¢": 323,
      "æµ·": 324,
      "åĬ¨": 325,
      "çĶ¨": 326,
      "åĻ": 327,
      "èĥ": 328,
      "æ´": 329,
      "é¦ĸé¡µ": 330,
      "å¾": 331,
      "åĻ¨": 332,
      "ç«": 333,
      "ŀĭ": 334,
      "è¿Ĳ": 335,
      "éĽ": 336,
      "èĲ": 337,
      "æĿĲ": 338,
      "éĿ": 339,
      "åŃ¦": 340,
      "æľįåĬ¡": 341,
      "æ¡": 342,
      "å¤ĩ": 343,
      "ä¸ĭ": 344,
      "éħ": 345,
      "åĩ": 346,
      "è¾": 347,
      "èĤ": 348,
      "åĮĸ": 349,
      "éĢļ": 350,
      "éĩĳ": 351,
      "èĬ": 352,
      "æ¶": 353,
      "åıĳ": 354,
      "ç¨": 355,
      "æĻ": 356,
      "è§": 357,
      "éĥ¨": 358,
      "å¹´": 359,
      "00": 360,
      "çĶŁ": 361,
      "ä½į": 362,
      "æĭ": 363,
      "çģ": 364,
      "èĲ¥": 365,
      "è®¾å¤ĩ": 366,
      "å¯": 367,
      "æ¯": 368,
      "å¥": 369,
      "ä¸ľ": 370,
      "å¼ı": 371,
      "åīį": 372,
      "Ġç": 373,
      "ç¨ĭ": 374,
      "å¡": 375,
      "èĢ": 376,
      "å»": 377,
      "æ±Ł": 378,
      "ç§ĳ": 379,
      "ç¤": 380,
      "åŀĭ": 381,
      "éĴ¢": 382,
      "è¥": 383,
      "æĢ»": 384,
      "åĳ": 385,
      "èĭ": 386,
      "å±ķ": 387,
      "æ¢°": 388,
      "éĹ¨": 389,
      "æ·": 390,
      "åľ°": 391,
      "åİĤ": 392,
      "çĲ": 393,
      "éķ": 394,
      "åķ": 395,
      "ç½®": 396,
      "çŁ³": 397,
      "åĮº": 398,
      "æº": 399,
      "æľºæ¢°": 400,
      "çĥ": 401,
      "é«": 402,
      "é«ĺ": 403,
      "æł¼": 404,
      "åħ·": 405,
      "ä¾": 406,
      "è¥¿": 407,
      "æ¬": 408,
      "ç¾": 409,
      "æĬĢ": 410,
      "å°ı": 411,
      "çī©": 412,
      "åĮĹ": 413,
      "201": 414,
      "åĲĪ": 415,
      "ç¯": 416,
      "æĶ": 417,
      "åŃĲ": 418,
      "æŁ": 419,
      "æĿ¿": 420,
      "éĢł": 421,
      "ç±": 422,
      "å½ĵ": 423,
      "ä¸ĭä¸Ģ": 424,
      "ãĢģ": 425,
      "è®¡": 426,
      "Ġ1": 427,
      "æ°Ķ": 428,
      "ä¸Ĭä¸Ģ": 429,
      "çļ": 430,
      "å¤©": 431,
      "ç³": 432,
      "éĺ²": 433,
      "åķĨ": 434,
      "æ±½": 435,
      "é¥": 436,
      "æľįåĬ¡ä¸Ńå¿ĥ": 437,
      "¬¬": 438,
      "çŃ": 439,
      "å»º": 440,
      "åŁİ": 441,
      "ä½įç½®": 442,
      "å½ĵåīį": 443,
      "ç®¡": 444,
      "æĢ»åħ¬åı¸": 445,
      "æŃ": 446,
      "ç¯ĩ": 447,
      "èĲ¥è¿Ĳ": 448,
      "èĲ¥è¿Ĳéĥ¨": 449,
      "æºĲ": 450,
      "æĸĩ": 451,
      "æīĭ": 452,
      "èĩ": 453,
      "ä¿Ŀ": 454,
      "èµĦ": 455,
      "åı°": 456,
      "è¡¨": 457,
      "åĪĨ": 458,
      "å¹¿": 459,
      "åħ¨": 460,
      "ä»·": 461,
      "è·": 462,
      "å¡ĳ": 463,
      "åĪĹ": 464,
      "çľ": 465,
      "å·¥ç¨ĭ": 466,
      "ä»¶": 467,
      "åĿ": 468,
      "èĥ½": 469,
      "é£Ł": 470,
      "é¢": 471,
      "ç³»": 472,
      "é£İ": 473,
      "äºĮ": 474,
      "åĽ¾": 475,
      "ç¤º": 476,
      "é»": 477,
      "åĪ¶éĢł": 478,
      "ä¼ļ": 479,
      "èĪ": 480,
      "ãĢĲ": 481,
      "ç²": 482,
      "ãĢĳ": 483,
      "å²": 484,
      "å½ĵåīįä½įç½®": 485,
      "»ç": 486,
      "çº¿": 487,
      "åħī": 488,
      "æķĻ": 489,
      "åĲį": 490,
      "å°Ķ": 491,
      "æ²³": 492,
      "æĸĻæľīéĻĲåħ¬åı¸": 493,
      "æŀĹ": 494,
      "æŀľ": 495,
      "èį": 496,
      "æ¹": 497,
      "æĮ": 498,
      "åĬł": 499,
      "çĻ": 500,
      "æ»": 501,
      "èģ": 502,
      "ç¬¬": 503,
      "å¹³": 504,
      "çļ®": 505,
      "ç©": 506,
      "äºº": 507,
      "å¾·": 508,
      "ä½ľ": 509,
      "ä¸ī": 510,
      "çĤ": 511,
      "æķ°": 512,
      "ç¼": 513,
      "ç¾İ": 514,
      "åĽ½": 515,
      "åºĹ": 516,
      "ç§ĳæĬĢ": 517,
      "ç«Ļ": 518,
      "Ġ|": 519,
      "ä¿®": 520,
      "è¡Į": 521,
      "åĴ": 522,
      "åİĭ": 523,
      "è®¾è®¡": 524,
      "âĢ": 525,
      "æ£": 526,
      "æĿ¡": 527,
      "ç³»åĪĹ": 528,
      "å®ļ": 529,
      "åĮħ": 530,
      "æĹ¶": 531,
      "èĩª": 532,
      "10": 533,
      "æµģ": 534,
      "çł": 535,
      "é©": 536,
      "Ġ(": 537,
      "åĽŃ": 538,
      "çİ¯": 539,
      "éĿ¢": 540,
      "ä¸į": 541,
      "ä¸ª": 542,
      "çī¹": 543,
      "æĪ¿": 544,
      "éŁ³": 545,
      "éĹ´": 546,
      "æľĪ": 547,
      "ä¸ĵ": 548,
      "æ¡Ī": 549,
      "å½ķ": 550,
      "ä½ĵ": 551,
      "èĬ±": 552,
      "21": 553,
      "åİĤå®¶": 554,
      "çĵ": 555,
      "ç¦": 556,
      "åį°": 557,
      "çĲĨ": 558,
      "è°": 559,
      "çģ¯": 560,
      "éģ": 561,
      "å¢": 562,
      "æ²¹": 563,
      "çĥŃ": 564,
      "èĮ": 565,
      "æ±½è½¦": 566,
      "åįķ": 567,
      "åİ¿": 568,
      "ä»ª": 569,
      "å£": 570,
      "ç±»": 571,
      "éķ¿": 572,
      "åħ³": 573,
      "å®ģ": 574,
      "ï¿½ï¿½ï¿½ï¿½": 575,
      "è·¯": 576,
      "ç´": 577,
      "æłĩ": 578,
      "éĽĨ": 579,
      "Ġäº§åĵģ": 580,
      "å±ķç¤º": 581,
      "ä¸Ŀ": 582,
      "åħĭ": 583,
      "çı": 584,
      "åįİ": 585,
      "åĬĽ": 586,
      "èİ": 587,
      "Ĵĥ": 588,
      "æĬ¥": 589,
      "ç©º": 590,
      "çİ»ç": 591,
      "æ¨": 592,
      "çİ»çĴĥ": 593,
      "èĤ²": 594,
      "æĸ¹": 595,
      "éħį": 596,
      "åĪ©": 597,
      "é£Łåĵģ": 598,
      "æľºæ¢°æľīéĻĲåħ¬åı¸": 599,
      "éĤ": 600,
      "æĥ": 601,
      "æĹł": 602,
      "æľŁ": 603,
      "èĭı": 604,
      "é¾": 605,
      "æĺİ": 606,
      "éħĴ": 607,
      "çĽ®": 608,
      "è¶": 609,
      "åı£": 610,
      "ä»·æł¼": 611,
      "é¥°": 612,
      "åı·": 613,
      "äº¬": 614,
      "ä¸»": 615,
      "åıĮ": 616,
      "æĪĲ": 617,
      "å¤´": 618,
      "æĽ": 619,
      "æĦ": 620,
      "æ´»": 621,
      "é¾Ļ": 622,
      "åºĨ": 623,
      "æľ¨": 624,
      "äºĶ": 625,
      "æ³µ": 626,
      "èī": 627,
      "ä¼ģ": 628,
      "åĨħ": 629,
      "æĲ": 630,
      "åį«": 631,
      "åº¦": 632,
      "çīĩ": 633,
      "ä¹¦": 634,
      "èĥ¶": 635,
      "ä¿¡": 636,
      "æ¸ħ": 637,
      "èı": 638,
      "éļ": 639,
      "å¼Ģ": 640,
      "ä¸Ĭæµ·": 641,
      "æľ¯": 642,
      "å®ŀ": 643,
      "ä¸ļæľīéĻĲåħ¬åı¸": 644,
      "è´¨": 645,
      "å®¶åħ·": 646,
      "éĩį": 647,
      "ä¾ĭ": 648,
      "in": 649,
      "çº¸": 650,
      "åĨľ": 651,
      "ç§ĳæĬĢæľīéĻĲåħ¬åı¸": 652,
      "2021": 653,
      "åģ": 654,
      "å¤ĸ": 655,
      "æī¹": 656,
      "Ġ>>": 657,
      "å¸ĥ": 658,
      "æİ¥": 659,
      "æ¥": 660,
      "éĺĢ": 661,
      "çĦ": 662,
      "å®¤": 663,
      "è®¾å¤ĩæľīéĻĲåħ¬åı¸": 664,
      "ä¸ĭä¸Ģç¯ĩ": 665,
      "ä¸Ĭä¸Ģç¯ĩ": 666,
      "æ¹ĸ": 667,
      "å¡ĳæĸĻ": 668,
      "é¡¹": 669,
      "çº§": 670,
      "on": 671,
      "æĸ¯": 672,
      "æ¨¡": 673,
      "æ·±": 674,
      "å®Ŀ": 675,
      "éĵģ": 676,
      "æ®": 677,
      "å¨": 678,
      "æİ§": 679,
      "æ¼": 680,
      "æĭī": 681,
      "åľº": 682,
      "åħ»": 683,
      "æķĻèĤ²": 684,
      "æŀ¶": 685,
      "åºĶ": 686,
      "åĽŀ": 687,
      "er": 688,
      "åĴĮ": 689,
      "æ½": 690,
      "å¤ļ": 691,
      "ç®±": 692,
      "æ¶Ī": 693,
      "çĶµåŃĲ": 694,
      "æī¹åıĳ": 695,
      "æ³°": 696,
      "æ¯Ľ": 697,
      "æģ": 698,
      "ç¥": 699,
      "Ġ:": 700,
      "ç¡": 701,
      "çĤ¹": 702,
      "åİŁ": 703,
      "åħ´": 704,
      "éģĵ": 705,
      "ä¹Ĳ": 706,
      "éª": 707,
      "æį": 708,
      "å±ŀ": 709,
      "æ¡Īä¾ĭ": 710,
      "åĪĽ": 711,
      "æ¸©": 712,
      "äº¤": 713,
      "éŀĭ": 714,
      "åĭ": 715,
      "åĽ¢": 716,
      "æĺĮ": 717,
      "äºĮæīĭ": 718,
      "çĵ·": 719,
      "æ¸¸": 720,
      "ç»ĩ": 721,
      "èĤ¡": 722,
      "æĻº": 723,
      "ç»´": 724,
      "é»Ħ": 725,
      "éĶĪ": 726,
      "åĳĬ": 727,
      "çĻ½": 728,
      "çĽ´": 729,
      "2020": 730,
      "ĠÂ": 731,
      "éĩı": 732,
      "åĪ°": 733,
      "éĻ¶": 734,
      "å¸Ī": 735,
      "åĽĽ": 736,
      "åľ¨": 737,
      "ç»ĵ": 738,
      "åĬŀ": 739,
      "å®¢": 740,
      "æ¶Ĥ": 741,
      "ä¸įéĶĪ": 742,
      "æĶ¶": 743,
      "æł¡": 744,
      "ä¸įéĶĪéĴ¢": 745,
      "ç±³": 746,
      "å½±": 747,
      "æĻ¯": 748,
      "äºĳ": 749,
      "çķ": 750,
      "æµ´": 751,
      "åĩº": 752,
      "å¼ł": 753,
      "èĦ": 754,
      "éĺ¿": 755,
      "åħ±": 756,
      "ãĢĤ": 757,
      "å·´": 758,
      "çĲĥ": 759,
      "æĹ¶éĹ´": 760,
      "è®Ń": 761,
      "é¡¹çĽ®": 762,
      "åľ³": 763,
      "çľģ": 764,
      "è°ĥ": 765,
      "ç»Ħ": 766,
      "æ·±åľ³": 767,
      "å¤ª": 768,
      "è¾¾": 769,
      "ç¦ı": 770,
      "çĶµæ°Ķ": 771,
      "åĺ": 772,
      "ç¿": 773,
      "le": 774,
      "æĿĲæľīéĻĲåħ¬åı¸": 775,
      "å¥Ĺ": 776,
      "ç²¾": 777,
      "è¶ħ": 778,
      "çĪ": 779,
      "å©": 780,
      "éĻ¶çĵ·": 781,
      "èĭ±": 782,
      "åŁ¹": 783,
      "12": 784,
      "Ġs": 785,
      "çºº": 786,
      "ĠâĢ": 787,
      "çģ«": 788,
      "åı¤": 789,
      "è¯ķ": 790,
      "æŁľ": 791,
      "æ¬¡": 792,
      "åħ°": 793,
      "èīº": 794,
      "çŁ": 795,
      "åĮħè£ħ": 796,
      "è¯Ń": 797,
      "çīĮ": 798,
      "å·¥ä¸ļ": 799,
      "re": 800,
      "éĿĴ": 801,
      "æĿ¥": 802,
      "æı": 803,
      "æ³ķ": 804,
      "çİ©": 805,
      "çº¢": 806,
      "éĩĳå±ŀ": 807,
      "åħĥ": 808,
      "è´§": 809,
      "30": 810,
      "æ¬¾": 811,
      "åĶ": 812,
      "æĬ¤": 813,
      "æĳ": 814,
      "çī©æµģ": 815,
      "å¤Ħ": 816,
      "éĻ¢": 817,
      "éľ": 818,
      "èĢĥ": 819,
      "çİ°": 820,
      "è¢": 821,
      "åºĬ": 822,
      "åįļ": 823,
      "ä»½": 824,
      "æµĭ": 825,
      "ä¸´": 826,
      "æľĢ": 827,
      "an": 828,
      "éħĴåºĹ": 829,
      "è¿ĩ": 830,
      "è¿ŀ": 831,
      "å®¹": 832,
      "çĽĺ": 833,
      "Ġ2": 834,
      "11": 835,
      "èĨ": 836,
      "ä¾Ľ": 837,
      "ç¢": 838,
      "æļ": 839,
      "åŃĹ": 840,
      "é©¬": 841,
      "çººç»ĩ": 842,
      "ä¹ĭ": 843,
      "æŃ¦": 844,
      "Ġ0": 845,
      "æĿĲæĸĻæľīéĻĲåħ¬åı¸": 846,
      "åį«æµ´": 847,
      "äºļ": 848,
      "åŁº": 849,
      "æĪ·": 850,
      "Ġt": 851,
      "ä¼ģä¸ļ": 852,
      "Ġp": 853,
      "éĿ©": 854,
      "çĽ¸": 855,
      "èĮ¶": 856,
      "ĠÂ»": 857,
      "èŀ": 858,
      "Ġc": 859,
      "æ»¤": 860,
      "æĤ": 861,
      "æĺ¥": 862,
      "åĽº": 863,
      "åĮĹäº¬": 864,
      "åį¡": 865,
      "åĪ¶åĵģ": 866,
      "äºİ": 867,
      "å²Ľ": 868,
      "ç£": 869,
      "éĵľ": 870,
      "50": 871,
      "åı¯": 872,
      "æ®ĸ": 873,
      "å¸¸": 874,
      "è½½": 875,
      "çıł": 876,
      "æ©": 877,
      "åĭĴ": 878,
      "æ°´æŀľ": 879,
      "æ¶²": 880,
      "åħ»æ®ĸ": 881,
      "åŁ¹è®Ń": 882,
      "è½¬": 883,
      "éĵĿ": 884,
      "åĬŀåħ¬": 885,
      "çİ¯ä¿Ŀ": 886,
      "ä¸ĩ": 887,
      "åĨ·": 888,
      "ä¸Ŀç½ĳ": 889,
      "é¹": 890,
      "çĶŁäº§": 891,
      "åº·": 892,
      "æ¤": 893,
      "çļ®éĿ©": 894,
      "çħ": 895,
      "åĵĪ": 896,
      "é¢ĺ": 897,
      "åīĤ": 898,
      "å±ħ": 899,
      "..": 900,
      "æ¥¼": 901,
      "åıĬ": 902,
      "ç§°": 903,
      "åĲī": 904,
      "éĥ½": 905,
      "è±": 906,
      "æ±ī": 907,
      "Ġ201": 908,
      "æĹ¥": 909,
      "åºĵ": 910,
      "ä¸İ": 911,
      "èĩªåĬ¨": 912,
      "èĬĤ": 913,
      "ç§į": 914,
      "èģĶ": 915,
      "éĩĮ": 916,
      "è®°": 917,
      "éĽĨåĽ¢": 918,
      "ç½ĳç«Ļ": 919,
      "å¯Ĩ": 920,
      "åĪ¶éŀĭ": 921,
      "ä¼ł": 922,
      "è¯ģ": 923,
      "åĬłå·¥": 924,
      "è¾ĵ": 925,
      "åĪĩ": 926,
      "éªĮ": 927,
      "æ°´æŀľæī¹åıĳ": 928,
      "åĢ": 929,
      "æİĴ": 930,
      "æ¸¯": 931,
      "æ£Ģ": 932,
      "è´Ń": 933,
      "åĪ¶éĢłæľīéĻĲåħ¬åı¸": 934,
      "å¦": 935,
      "æĻºèĥ½": 936,
      "åįģ": 937,
      "æľįåĬ¡æľīéĻĲåħ¬åı¸": 938,
      "Ġäº§åĵģä¸Ńå¿ĥ": 939,
      "åł": 940,
      "ï¿½ï¿½ï¿½": 941,
      "ãĢĭ": 942,
      "æĴ": 943,
      "æĬĢæľ¯": 944,
      "åħ·æľīéĻĲåħ¬åı¸": 945,
      "èĤ¡ä»½": 946,
      "åºŁ": 947,
      "çĳ": 948,
      "é¥°æľīéĻĲåħ¬åı¸": 949,
      "éĢī": 950,
      "æ³¢": 951,
      "æİ¨": 952,
      "Ġé¦ĸé¡µ": 953,
      "ä»£": 954,
      "å¤į": 955,
      "åĽ¾çīĩ": 956,
      "èĢĲ": 957,
      "æŁ¥": 958,
      "è®¯": 959,
      "or": 960,
      "åĪĨç±»": 961,
      "çĮ": 962,
      "ç®Ģ": 963,
      "æĹħ": 964,
      "Ġa": 965,
      "å¨ģ": 966,
      "èĢħ": 967,
      "åĮĸå·¥": 968,
      "èħ": 969,
      "åĦ": 970,
      "åĪ·": 971,
      "æ±ł": 972,
      "éĵ¶": 973,
      "ãĢĬ": 974,
      "å½¢": 975,
      "æµİ": 976,
      "çŃĳ": 977,
      "æŃ£": 978,
      "04": 979,
      "åĮ»": 980,
      "è¿Ľ": 981,
      "åŀ": 982,
      "åħŃ": 983,
      "æ°¸": 984,
      "èĨľ": 985,
      "å¸¦": 986,
      "ä¼ĺ": 987,
      "å¤ĦçĲĨ": 988,
      "è¯¾": 989,
      "è´µ": 990,
      "æĺŁ": 991,
      "èµĽ": 992,
      "æĥħ": 993,
      "è¯į": 994,
      "éĻ¤": 995,
      "å±±ä¸ľ": 996,
      "ä¿®æľīéĻĲåħ¬åı¸": 997,
      "åĺī": 998,
      "äºĭ": 999,
      "¶æľīéĻĲåħ¬åı¸": 1000,
      "è¾½": 1001,
      "åĳĺ": 1002,
      "æŀĦ": 1003,
      "æĸ½": 1004,
      "èĤ¡ä»½æľīéĻĲåħ¬åı¸": 1005,
      "å§": 1006,
      "åĦ¿": 1007,
      "éĺ²æľīéĻĲåħ¬åı¸": 1008,
      "è®º": 1009,
      "²æľīéĻĲåħ¬åı¸": 1010,
      "Ġb": 1011,
      "å¹¿åĳĬ": 1012,
      "åħ¥": 1013,
      "çĦĬ": 1014,
      "è§Ī": 1015,
      "ç»¼": 1016,
      "è¯Ħ": 1017,
      "åĲįç§°": 1018,
      "¤Ĳ": 1019,
      "ä»ĭ": 1020,
      "ç«ĭ": 1021,
      "èµĦæºĲ": 1022,
      "éĢŁ": 1023,
      "é¤Ĳ": 1024,
      "å»ºçŃĳ": 1025,
      "16": 1026,
      "å¥½": 1027,
      "Ġ3": 1028,
      "Ġä¸ĭä¸Ģ": 1029,
      "åĸ": 1030,
      "åĲİ": 1031,
      "çİī": 1032,
      "æ©¡": 1033,
      "å¹¿å·ŀ": 1034,
      "æ´Ľ": 1035,
      "èĳ": 1036,
      "éķĩ": 1037,
      "åĲĮ": 1038,
      "è£ħä¿®": 1039,
      "çłĶ": 1040,
      "æĦı": 1041,
      "å®ľ": 1042,
      "çĶŁæ´»": 1043,
      "çĶ¨åĵģ": 1044,
      "æ¯į": 1045,
      "æ³ī": 1046,
      "èıľ": 1047,
      "æ¦": 1048,
      "èŀº": 1049,
      "ä¸ĭè½½": 1050,
      "è¿ĲåĬ¨": 1051,
      "æ´»åĬ¨": 1052,
      "æ²Ļ": 1053,
      "å®ļåĪ¶": 1054,
      "09": 1055,
      "æķĪ": 1056,
      "ç²ī": 1057,
      "Ġ/": 1058,
      "ä»ªåĻ¨": 1059,
      "æ¬§": 1060,
      "ä¼ĳ": 1061,
      "éĽ¶": 1062,
      "ç»¼åĲĪ": 1063,
      "åºĦ": 1064,
      "åĳ¨": 1065,
      "åįĩ": 1066,
      "æīĵ": 1067,
      "æĺĵ": 1068,
      "ä¹¡": 1069,
      "é¸": 1070,
      "çĶ°": 1071,
      "en": 1072,
      "ar": 1073,
      "äºĶéĩĳ": 1074,
      "ç§Ł": 1075,
      "åħ¶": 1076,
      "éĻħ": 1077,
      "èĶ": 1078,
      "è§Ħ": 1079,
      "å¯¼": 1080,
      "é¡º": 1081,
      "é²": 1082,
      "å°¾": 1083,
      "é»ĳ": 1084,
      "äº§åĵģä¸Ńå¿ĥ": 1085,
      "ãĥ": 1086,
      "çª": 1087,
      "Â·": 1088,
      "ic": 1089,
      "éĶ¡": 1090,
      "åĪ«": 1091,
      "15": 1092,
      "æ´¥": 1093,
      "èĵ": 1094,
      "ç«ł": 1095,
      "å°ģ": 1096,
      "è¿ĩæ»¤": 1097,
      "æĽ´": 1098,
      "èį£": 1099,
      "Ġé¡µ": 1100,
      "ç¤¾": 1101,
      "ä¸º": 1102,
      "25": 1103,
      "Ġç¬¬": 1104,
      "ç´¢": 1105,
      "æĦŁ": 1106,
      "éĢļçĶ¨": 1107,
      "ä¹Ī": 1108,
      "æıĲ": 1109,
      "èĴ": 1110,
      "çĻ¾": 1111,
      "it": 1112,
      "å±Ĥ": 1113,
      "at": 1114,
      "es": 1115,
      "å¡Ķ": 1116,
      "æĮĸ": 1117,
      "èģĮ": 1118,
      "æĬķ": 1119,
      "æĪĳ": 1120,
      "éĹ»": 1121,
      "å£«": 1122,
      "æ´Ĺ": 1123,
      "ç»į": 1124,
      "Ġd": 1125,
      "Ġm": 1126,
      "01": 1127,
      "åİħ": 1128,
      "è§Ĩ": 1129,
      "ä¾ĽåºĶ": 1130,
      "ç¿»": 1131,
      "ä»¥": 1132,
      "åĵģçīĮ": 1133,
      "åĻ¨æĿĲ": 1134,
      "ä¸Ĭä¸Ģé¡µ": 1135,
      "åľŁ": 1136,
      "åĽ½éĻħ": 1137,
      "æĲľ": 1138,
      "å³": 1139,
      "æ©¡èĥ¶": 1140,
      "é¦Ĩ": 1141,
      "å¤ªéĺ³": 1142,
      "å·¥ä½ľ": 1143,
      "ä¸½": 1144,
      "æĥł": 1145,
      "çĶµåĬ¨": 1146,
      "ç¾½": 1147,
      "åķĨåĬ¡": 1148,
      "éĩįåºĨ": 1149,
      "äº¤éĢļ": 1150,
      "è¯»": 1151,
      "ç¬": 1152,
      "èĪ¹": 1153,
      "08": 1154,
      "å¯¹": 1155,
      "éħįä»¶": 1156,
      "åıĺ": 1157,
      "è¯¢": 1158,
      "åį°åĪ·": 1159,
      "å¢Ļ": 1160,
      "æĸ°éĹ»": 1161,
      "çıŃ": 1162,
      "æĴŃ": 1163,
      "åĩĨ": 1164,
      "03": 1165,
      "Ġ2021": 1166,
      "ä»ªè¡¨": 1167,
      "è¢ĭ": 1168,
      "çľĭ": 1169,
      "åķĨåĵģ": 1170,
      "ä¼ĳéĹ": 1171,
      "æİĺ": 1172,
      "è¾¹": 1173,
      "éĩĩ": 1174,
      "å®¶å±ħ": 1175,
      "2019": 1176,
      "âĢĶ": 1177,
      "éĢģ": 1178,
      "19": 1179,
      "èĥ½æºĲ": 1180,
      "ä¹Į": 1181,
      "çĤī": 1182,
      "æļĸ": 1183,
      "ä¸ĸ": 1184,
      "çĽĴ": 1185,
      "è´´": 1186,
      "åŃľ": 1187,
      "åį·": 1188,
      "Ġäº§åĵģå±ķç¤º": 1189,
      "æľįè£ħ": 1190,
      "æĮĸæİĺ": 1191,
      "è§Ĥ": 1192,
      "al": 1193,
      ">>": 1194,
      "åĪĩåī": 1195,
      "æĽ²": 1196,
      "ä¹Ŀ": 1197,
      "ç©ºè°ĥ": 1198,
      "è¦": 1199,
      "ä¹ī": 1200,
      "å¤©æ´¥": 1201,
      "æĮĸæİĺæľº": 1202,
      "Ġf": 1203,
      "ç¦»": 1204,
      "éŁ": 1205,
      "é£İæł¼": 1206,
      "ç¡¬": 1207,
      "é¢Ħ": 1208,
      "äº§åĵģå±ķç¤º": 1209,
      "æ»¨": 1210,
      "ä½İ": 1211,
      "æĺ¯": 1212,
      "ä¸»é¡µ": 1213,
      "è¡£": 1214,
      "èİŀ": 1215,
      "è´¹": 1216,
      "å®¿": 1217,
      "ä»ĸ": 1218,
      "02": 1219,
      "éĽħ": 1220,
      "å¡ĳæĸĻåĪ¶åĵģ": 1221,
      "èį¯": 1222,
      "ä¸°": 1223,
      "æµĻ": 1224,
      "åĪ©çĶ¨": 1225,
      "çĶ²": 1226,
      "å®ł": 1227,
      "Ġ4": 1228,
      "éĻµ": 1229,
      "çħ§": 1230,
      "åĵį": 1231,
      "æ¯Ĵ": 1232,
      "ro": 1233,
      "æĺ¾": 1234,
      "æ±Łèĭı": 1235,
      "çĥŁ": 1236,
      "æĻ®": 1237,
      "ä¸ľèİŀ": 1238,
      "ä½³": 1239,
      "æĢĿ": 1240,
      "éħ¸": 1241,
      "åĿĬ": 1242,
      "çŃ¾": 1243,
      "å¼ĥ": 1244,
      "æ·®": 1245,
      "å¤§åŃ¦": 1246,
      "å·ŀå¸Ĥ": 1247,
      "ç¾½æ¯Ľ": 1248,
      "èĻ": 1249,
      "ä¸Ĭä¸Ģä¸ª": 1250,
      "æĤ¨": 1251,
      "ä¼Ĭ": 1252,
      "æ¾": 1253,
      "06": 1254,
      "å¤ªéĺ³èĥ½": 1255,
      "åĽŃæŀĹ": 1256,
      "è§£": 1257,
      "æĮĩ": 1258,
      "çĬ": 1259,
      "é½": 1260,
      "è¿Ĳè¾ĵ": 1261,
      "çľŁ": 1262,
      "ç¼Ĩ": 1263,
      "éĻ¶çĵ·æľīéĻĲåħ¬åı¸": 1264,
      "ä¸ĵä¸ļ": 1265,
      "mm": 1266,
      "14": 1267,
      "åıĳå¸ĥ": 1268,
      "ä½Ľ": 1269,
      "è¯ĳ": 1270,
      "åºŁå¼ĥ": 1271,
      "èµĦè®¯": 1272,
      "18": 1273,
      "åľĨ": 1274,
      "åŃ£": 1275,
      "æĿĲæĸĻ": 1276,
      "æłı": 1277,
      "æī¿": 1278,
      "å®ĺ": 1279,
      "çķĮ": 1280,
      "éĶ¦": 1281,
      "æ¯Ľçļ®": 1282,
      "çŁ³æĿĲæľīéĻĲåħ¬åı¸": 1283,
      "è£ħå¤ĩ": 1284,
      "å»ºæĿĲæľīéĻĲåħ¬åı¸": 1285,
      "æĶ¯": 1286,
      "éº": 1287,
      "æ¯Ķ": 1288,
      "æłĳ": 1289,
      "ç»¼åĲĪåĪ©çĶ¨": 1290,
      "èģļ": 1291,
      "æĿ¾": 1292,
      "is": 1293,
      "èµĦæºĲç»¼åĲĪåĪ©çĶ¨": 1294,
      "åº§": 1295,
      "05": 1296,
      "éĢļçĶ¨è®¾å¤ĩ": 1297,
      "åºŁå¼ĥèµĦæºĲç»¼åĲĪåĪ©çĶ¨": 1298,
      "æµĻæ±Ł": 1299,
      "å·Ŀ": 1300,
      "è£ħé¥°": 1301,
      "åĪ¶éĢłæľįåĬ¡ä¸Ńå¿ĥ": 1302,
      "çİ»çĴĥæľīéĻĲåħ¬åı¸": 1303,
      "æ¶ĤæĸĻ": 1304,
      "çĶµåŃĲæľīéĻĲåħ¬åı¸": 1305,
      "çĦĬæİ¥": 1306,
      "åĪ¶éĢłèĲ¥è¿Ĳéĥ¨": 1307,
      "å®łçī©": 1308,
      "Ġh": 1309,
      "Ġ[": 1310,
      "ç½ĳç«Ļé¦ĸé¡µ": 1311,
      "æ¶ĤæĸĻæľīéĻĲåħ¬åı¸": 1312,
      "100": 1313,
      "è¯·": 1314,
      "å¡ĳæĸĻæľīéĻĲåħ¬åı¸": 1315,
      "å¢ĥ": 1316,
      "èĢģ": 1317,
      "å©´": 1318,
      "åĪ¶éĢłæĢ»åħ¬åı¸": 1319,
      "24": 1320,
      "åį«æµ´æľīéĻĲåħ¬åı¸": 1321,
      "çŃī": 1322,
      "ç´§": 1323,
      "éĵ¾": 1324,
      "ĠâĢĵ": 1325,
      "èĭıå·ŀ": 1326,
      "é£Łåĵģæľºæ¢°æľīéĻĲåħ¬åı¸": 1327,
      "åŃ¦æł¡": 1328,
      "é¼": 1329,
      "åľ°äº§": 1330,
      "çĳŀ": 1331,
      "è§Ĵ": 1332,
      "Ġ5": 1333,
      "åĽŀæĶ¶": 1334,
      "çĭ": 1335,
      "çļ®éĿ©æľīéĻĲåħ¬åı¸": 1336,
      "13": 1337,
      "ä¸Ŀç½ĳæľīéĻĲåħ¬åı¸": 1338,
      "åħ»æ®ĸæľīéĻĲåħ¬åı¸": 1339,
      "åģ¥": 1340,
      "èĤ¥": 1341,
      "æľºåºĬ": 1342,
      "ç«¥": 1343,
      "çº³": 1344,
      "å½©": 1345,
      "éĨ": 1346,
      "çłģ": 1347,
      "çŁ³æĿĲ": 1348,
      "éĦ": 1349,
      "è¡¡": 1350,
      "åĪ¶éŀĭæľīéĻĲåħ¬åı¸": 1351,
      "æ°´æŀľæī¹åıĳæľīéĻĲåħ¬åı¸": 1352,
      "éĶĢ": 1353,
      "å®¶åħ·æľīéĻĲåħ¬åı¸": 1354,
      "ç¾İå®¹": 1355,
      "è¿ª": 1356,
      "èįĲ": 1357,
      "é¡¶": 1358,
      "pp": 1359,
      "åĨĮ": 1360,
      "çİĭ": 1361,
      "å±ķä¼ļ": 1362,
      "çŁ³æ²¹": 1363,
      "çº¦": 1364,
      "éļĶ": 1365,
      "07": 1366,
      "ç§»": 1367,
      "lo": 1368,
      "ÃĹ": 1369,
      "æĿŃ": 1370,
      "æĸĩåĮĸ": 1371,
      "æĿĨ": 1372,
      "ä¸¹": 1373,
      "è¦ģ": 1374,
      "æ·»": 1375,
      "æķ´": 1376,
      "æ£Ģæµĭ": 1377,
      "è®°å½ķ": 1378,
      "æ¶Īæ¯Ĵ": 1379,
      "èĶ¬": 1380,
      "æ±ĩ": 1381,
      "å®¶çĶµ": 1382,
      "åĮĸå·¥æľīéĻĲåħ¬åı¸": 1383,
      "ç¥ŀ": 1384,
      "æİ¨èįĲ": 1385,
      "å¤ı": 1386,
      "å©ļ": 1387,
      "æ²³åįĹ": 1388,
      "ç¿»è¯ĳ": 1389,
      "æ¡¥": 1390,
      "å¾Ĳ": 1391,
      "æĢģ": 1392,
      "ä¸ĥ": 1393,
      "æ³¨": 1394,
      "ç»¿": 1395,
      "å±ı": 1396,
      "å£°": 1397,
      "ed": 1398,
      "æģĴ": 1399,
      "åºķ": 1400,
      "ä»Ģ": 1401,
      "èĪª": 1402,
      "åİ¦": 1403,
      "å±ĭ": 1404,
      "é¦Ļ": 1405,
      "æĹħæ¸¸": 1406,
      "åĪĴ": 1407,
      "as": 1408,
      "èĵĿ": 1409,
      "é£ŁåĵģæľīéĻĲåħ¬åı¸": 1410,
      "åĶ®": 1411,
      "æį®": 1412,
      "æł·": 1413,
      "éŁ³åĵį": 1414,
      "çĶĺ": 1415,
      "åıĤ": 1416,
      "åħ¶ä»ĸ": 1417,
      "æŃ¦æ±ī": 1418,
      "æ¿": 1419,
      "æ·»åĬł": 1420,
      "åĩĢ": 1421,
      "çĪ±": 1422,
      "22": 1423,
      "çĶµç¼Ĩ": 1424,
      "åľ°åĿ": 1425,
      "ä»»": 1426,
      "å®¾": 1427,
      "åĤ": 1428,
      "çĶµæ°ĶæľīéĻĲåħ¬åı¸": 1429,
      "æĳĦ": 1430,
      "é»Ķ": 1431,
      "çıłå®Ŀ": 1432,
      "çĻ»": 1433,
      "åįĸ": 1434,
      "et": 1435,
      "èª": 1436,
      "æ²³åĮĹ": 1437,
      "ç´ł": 1438,
      "éĴ¢éĵģ": 1439,
      "åĵĪå°Ķ": 1440,
      "åĩ»": 1441,
      "é¥²": 1442,
      "å·²": 1443,
      "éĢļä¿¡": 1444,
      "éĹ®": 1445,
      "å¿Ĺ": 1446,
      "åħ¸": 1447,
      "å·¥ç¨ĭæľīéĻĲåħ¬åı¸": 1448,
      "éĥĳ": 1449,
      "ç¤¼": 1450,
      "è¿ľ": 1451,
      "Ġ6": 1452,
      "èĶ¬èıľ": 1453,
      "åĨ²": 1454,
      "çĶ¨åĵģæľīéĻĲåħ¬åı¸": 1455,
      "å°¼": 1456,
      "ĠãĢĲ": 1457,
      "çĸ": 1458,
      "æµı": 1459,
      "è¡¨éĿ¢": 1460,
      "å½±éŁ³": 1461,
      "é©±": 1462,
      "é½Ĳ": 1463,
      "èĮ¶åı": 1464,
      "æĭį": 1465,
      "èªī": 1466,
      "æ·±åľ³å¸Ĥ": 1467,
      "ä»¶æľīéĻĲåħ¬åı¸": 1468,
      "è½´": 1469,
      "æ¡ĥ": 1470,
      "çĶµæľº": 1471,
      "åħ¨éĥ¨": 1472,
      "å¹¿ä¸ľ": 1473,
      "çĽŁ": 1474,
      "æĿŃå·ŀ": 1475,
      "æĹĭ": 1476,
      "äºĨ": 1477,
      "æ¡Į": 1478,
      "æłĩçŃ¾": 1479,
      "æµıè§Ī": 1480,
      "çģ¯åħī": 1481,
      "æ°ĳ": 1482,
      "æ²»": 1483,
      "èĹ": 1484,
      "èĸ": 1485,
      "æ°§": 1486,
      "è®¢": 1487,
      "èĢĲçģ«": 1488,
      "çªĹ": 1489,
      "Ġä¸Ń": 1490,
      "å®ı": 1491,
      "éĺħ": 1492,
      "åįĹäº¬": 1493,
      "åħĭåŃľ": 1494,
      "æĪ¿åľ°äº§": 1495,
      "æĹłéĶ¡": 1496,
      "å¿«": 1497,
      "éĴ»": 1498,
      "å®ĺç½ĳ": 1499,
      "çº¹": 1500,
      "æķĪæŀľ": 1501,
      "ç¼ĸ": 1502,
      "å°ĳ": 1503,
      "éĽĦ": 1504,
      "å®īè£ħ": 1505,
      "éĽķ": 1506,
      "æ¯įå©´": 1507,
      "ä»ĭç»į": 1508,
      "å¹³åı°": 1509,
      "éĿĴå²Ľ": 1510,
      "Ġä¸ĭä¸Ģé¡µ": 1511,
      "åħħ": 1512,
      "æľįé¥°æľīéĻĲåħ¬åı¸": 1513,
      "us": 1514,
      "ç½Ĺ": 1515,
      "ä»ªåĻ¨ä»ªè¡¨": 1516,
      "åĪĹè¡¨": 1517,
      "è£ħå¤ĩæľīéĻĲåħ¬åı¸": 1518,
      "æľºæľīéĻĲåħ¬åı¸": 1519,
      "åĮħè£ħæľīéĻĲåħ¬åı¸": 1520,
      "äºĶéĩĳæľīéĻĲåħ¬åı¸": 1521,
      "èĪ¹èĪ": 1522,
      "çĽĬ": 1523,
      "ä¹ł": 1524,
      "è½¯": 1525,
      "Ġå¤§": 1526,
      "æĶ¾": 1527,
      "çĥŃæ³µ": 1528,
      "17": 1529,
      "åĲįå½ķ": 1530,
      "è¯´": 1531,
      "æ±½éħį": 1532,
      "ç»ĵæŀĦ": 1533,
      "ho": 1534,
      "ä½Ľå±±": 1535,
      "è¥¿å®ī": 1536,
      "é£Łåĵģæľºæ¢°": 1537,
      "å¹¿åĳĬæľīéĻĲåħ¬åı¸": 1538,
      "éĽ¶é£Ł": 1539,
      "åĮĸæľīéĻĲåħ¬åı¸": 1540,
      "éĺ²æ°´": 1541,
      "æķ°æį®": 1542,
      "ç´§åĽº": 1543,
      "éĶħ": 1544,
      "æį¢": 1545,
      "æ¢¯": 1546,
      "æĭĽ": 1547,
      "ç¥¨": 1548,
      "çº¸ç®¡": 1549,
      "æ·»åĬłåīĤ": 1550,
      "led": 1551,
      "å»ºè®¾": 1552,
      "æĺĨ": 1553,
      "æĬ¥ä»·": 1554,
      "ç§įåŃĲ": 1555,
      "åĬ©": 1556,
      "æ²§": 1557,
      "èµ·": 1558,
      "åĲ¸": 1559,
      "ä¸Ĭä¸ĢæĿ¡": 1560,
      "çĩ": 1561,
      "Ġw": 1562,
      "å°ļ": 1563,
      "æī¬": 1564,
      "åĳ¼": 1565,
      "éĳ": 1566,
      "èľ": 1567,
      "è®®": 1568,
      "è¡¨éĿ¢å¤ĦçĲĨ": 1569,
      "å·¥æİ§": 1570,
      "æ³µéĺĢ": 1571,
      "å»¶": 1572,
      "æĪĲéĥ½": 1573,
      "æļĸéĢļ": 1574,
      "æľįè£ħæľīéĻĲåħ¬åı¸": 1575,
      "çİ¯å¢ĥ": 1576,
      "å¼º": 1577,
      "23": 1578,
      "çººç»ĩæľīéĻĲåħ¬åı¸": 1579,
      "å²©": 1580,
      "æµ·åįĹ": 1581,
      "å·¥ç¨ĭæľºæ¢°æľīéĻĲåħ¬åı¸": 1582,
      "å¯Į": 1583,
      "æľºåºĬæľīéĻĲåħ¬åı¸": 1584,
      "ä¸Ŀåį°": 1585,
      "å®¶å±ħæľīéĻĲåħ¬åı¸": 1586,
      "èĥ½æºĲæľīéĻĲåħ¬åı¸": 1587,
      "éĴ¢éĵģæľīéĻĲåħ¬åı¸": 1588,
      "ç»ĵæŀľ": 1589,
      "Ġï¿½": 1590,
      "æĻĭ": 1591,
      "å£ģ": 1592,
      "çīĽ": 1593,
      "äº§åĵģæľīéĻĲåħ¬åı¸": 1594,
      "åĩī": 1595,
      "ç¾İåıĳ": 1596,
      "åį°åĪ·æľīéĻĲåħ¬åı¸": 1597,
      "åħį": 1598,
      "èº": 1599,
      "Ġæĸ°": 1600,
      "æ´²": 1601,
      "æ¹ĺ": 1602,
      "å¾®": 1603,
      "æ±½è½¦æľīéĻĲåħ¬åı¸": 1604,
      "çĶµæ°Ķæľºæ¢°": 1605,
      "çº¸ä¸ļæľīéĻĲåħ¬åı¸": 1606,
      "æĺ¾ç¤º": 1607,
      "äº¤éĢļè¿Ĳè¾ĵ": 1608,
      "çģ¯é¥°æľīéĻĲåħ¬åı¸": 1609,
      "ï¿½ï¿½ï¿½ï¿½ï¿½ï¿½ï¿½ï¿½": 1610,
      "éĻį": 1611,
      "çººç»ĩä¸ļ": 1612,
      "å¾Ĺ": 1613,
      "æµİåįĹ": 1614,
      "ä¸ĭä¸Ģä¸ª": 1615,
      "çİ¯ä¿ĿæľīéĻĲåħ¬åı¸": 1616,
      "æ²Ī": 1617,
      "èĽ": 1618,
      "æĿĳ": 1619,
      "èĢĲçģ«æĿĲæĸĻæľīéĻĲåħ¬åı¸": 1620,
      "æ³µéĺĢæľīéĻĲåħ¬åı¸": 1621,
      "ä»ªåĻ¨ä»ªè¡¨æľīéĻĲåħ¬åı¸": 1622,
      "æ©¡èĥ¶æľīéĻĲåħ¬åı¸": 1623,
      "çĪĨ": 1624,
      "è¿ĲåĬ¨ä¼ĳéĹ": 1625,
      "ç©ºè°ĥæľīéĻĲåħ¬åı¸": 1626,
      "æ±½éħįæľīéĻĲåħ¬åı¸": 1627,
      "çİ©åħ·æľīéĻĲåħ¬åı¸": 1628,
      "çī©æµģæľīéĻĲåħ¬åı¸": 1629,
      "è´¸": 1630,
      "åĽŃæŀĹæľīéĻĲåħ¬åı¸": 1631,
      "çĽĲ": 1632,
      "ç´§åĽºä»¶æľīéĻĲåħ¬åı¸": 1633,
      "æ±½è½¦çĶ¨åĵģæľīéĻĲåħ¬åı¸": 1634,
      "çĶ»": 1635,
      "å²Ń": 1636,
      "æħ": 1637,
      "å®¶æľīéĻĲåħ¬åı¸": 1638,
      "èµĦè´¨": 1639,
      "ãĤ": 1640,
      "æīĺ": 1641,
      "ç¾İå®¹ç¾İåıĳ": 1642,
      "æļĸéĢļç©ºè°ĥæľīéĻĲåħ¬åı¸": 1643,
      "å¥³": 1644,
      "çıłå®ĿæľīéĻĲåħ¬åı¸": 1645,
      "å¾½": 1646,
      "è¶ħç¡¬": 1647,
      "éĢļä¿¡æľīéĻĲåħ¬åı¸": 1648,
      "éĳ«": 1649,
      "åĬłå·¥æľīéĻĲåħ¬åı¸": 1650,
      "éŁ³åĵįçģ¯åħī": 1651,
      "ing": 1652,
      "è¡¨éĿ¢å¤ĦçĲĨæľīéĻĲåħ¬åı¸": 1653,
      "åį°æľīéĻĲåħ¬åı¸": 1654,
      "ç»´ä¿®æľīéĻĲåħ¬åı¸": 1655,
      "çĽ¸åħ³": 1656,
      "çĥŃæ³µæľīéĻĲåħ¬åı¸": 1657,
      "çĶŁæ´»æľįåĬ¡æľīéĻĲåħ¬åı¸": 1658,
      "äºĮæīĭè®¾å¤ĩæľīéĻĲåħ¬åı¸": 1659,
      "åı¤çİ©": 1660,
      "çļ®åħ·æľīéĻĲåħ¬åı¸": 1661,
      "æ°´å·¥ä¸ļ": 1662,
      "çŁ³æ²¹æľīéĻĲåħ¬åı¸": 1663,
      "éĶ®": 1664,
      "åŃ¦éĻ¢": 1665,
      "æ¶Īæ¯Ĵäº§åĵģæľīéĻĲåħ¬åı¸": 1666,
      "èį£èªī": 1667,
      "éŁ³åĵįçģ¯åħīæľīéĻĲåħ¬åı¸": 1668,
      "çº¸ç®¡æľīéĻĲåħ¬åı¸": 1669,
      "åĨľåĮĸæľīéĻĲåħ¬åı¸": 1670,
      "ç§įåŃĲæľīéĻĲåħ¬åı¸": 1671,
      "åķĨåĬ¡æľįåĬ¡æľīéĻĲåħ¬åı¸": 1672,
      "å°ıå®¶æľīéĻĲåħ¬åı¸": 1673,
      "æ±½ä¿®æľīéĻĲåħ¬åı¸": 1674,
      "èļ": 1675,
      "å®łçī©æľīéĻĲåħ¬åı¸": 1676,
      "ä¸Ŀåį°çī¹": 1677,
      "æ··": 1678,
      "èĮ¶åı¶æľīéĻĲåħ¬åı¸": 1679,
      "é¡¹çĽ®æľīéĻĲåħ¬åı¸": 1680,
      "ä¼ģæľīéĻĲåħ¬åı¸": 1681,
      "æ·»åĬłåīĤæľīéĻĲåħ¬åı¸": 1682,
      "æ°´å·¥ä¸ļä¼ģæľīéĻĲåħ¬åı¸": 1683,
      "å½±éŁ³æľīéĻĲåħ¬åı¸": 1684,
      "è´¢": 1685,
      "éĽ¶é£ŁæľīéĻĲåħ¬åı¸": 1686,
      "Ġå°ı": 1687,
      "éħĴåºĹæľīéĻĲåħ¬åı¸": 1688,
      "èĪ¹èĪ¶æľīéĻĲåħ¬åı¸": 1689,
      "æĻºèĥ½æľīéĻĲåħ¬åı¸": 1690,
      "è¿ĩæ»¤æľīéĻĲåħ¬åı¸": 1691,
      "è¶ħç¡¬æĿĲæĸĻæľīéĻĲåħ¬åı¸": 1692,
      "æ¶²åİĭ": 1693,
      "å½ķæ³µéĺĢæľīéĻĲåħ¬åı¸": 1694,
      "é¥²æĸĻæľīéĻĲåħ¬åı¸": 1695,
      "ä¸Ŀåį°çī¹åį°æľīéĻĲåħ¬åı¸": 1696,
      "æ¶Īéĺ²æľīéĻĲåħ¬åı¸": 1697,
      "åĨľæľºæľīéĻĲåħ¬åı¸": 1698,
      "æķĻèĤ²æľīéĻĲåħ¬åı¸": 1699,
      "å±ķä¼ļæľīéĻĲåħ¬åı¸": 1700,
      "åĲįå½ķå±ķä¼ļæľīéĻĲåħ¬åı¸": 1701,
      "åĪĽä¸ļæľīéĻĲåħ¬åı¸": 1702,
      "æķĻèĤ²è£ħå¤ĩæľīéĻĲåħ¬åı¸": 1703,
      "çĨ": 1704,
      "he": 1705,
      "æĪ¿åľ°äº§æľīéĻĲåħ¬åı¸": 1706,
      "æ¯įå©´æľīéĻĲåħ¬åı¸": 1707,
      "èīºæľ¯": 1708,
      "ç¿»è¯ĳæľīéĻĲåħ¬åı¸": 1709,
      "åĲĳ": 1710,
      "å®¶çĶµæľīéĻĲåħ¬åı¸": 1711,
      "ç¾İå®¹ç¾İåıĳæľīéĻĲåħ¬åı¸": 1712,
      "åı¤çİ©æľīéĻĲåħ¬åı¸": 1713,
      "æ¢ģ": 1714,
      "å¤ªéĺ³èĥ½æľīéĻĲåħ¬åı¸": 1715,
      "äºĮæīĭæľīéĻĲåħ¬åı¸": 1716,
      "æ¤ħ": 1717,
      "çĽĽ": 1718,
      "åĪĩåī²æľīéĻĲåħ¬åı¸": 1719,
      "æŁ¥è¯¢": 1720,
      "ç»Ĩ": 1721,
      "è¿ĲåĬ¨ä¼ĳéĹ²æľīéĻĲåħ¬åı¸": 1722,
      "åĬŀåħ¬æľīéĻĲåħ¬åı¸": 1723,
      "èİ±": 1724,
      "çĦĬæİ¥åĪĩåī²æľīéĻĲåħ¬åı¸": 1725,
      "2018": 1726,
      "èĶ¬èıľæľīéĻĲåħ¬åı¸": 1727,
      "äº¤éĢļè¿Ĳè¾ĵæľīéĻĲåħ¬åı¸": 1728,
      "Ġn": 1729,
      "æĬ¥åĳĬ": 1730,
      "éŀ": 1731,
      "æ´ģ": 1732,
      "å·¥æİ§æľīéĻĲåħ¬åı¸": 1733,
      "çĶŁçī©": 1734,
      "å¥¥": 1735,
      "å®īéĺ²æľīéĻĲåħ¬åı¸": 1736,
      "èº«": 1737,
      "åģļ": 1738,
      "å¹´åº¦": 1739,
      "ç£ģ": 1740,
      "...": 1741,
      "é±": 1742,
      "æ½Ń": 1743,
      "å¼łå®¶": 1744,
      "è½»": 1745,
      "è´Ŀ": 1746,
      "åİ¨": 1747,
      "æ£ī": 1748,
      "26": 1749,
      "é©±åĬ¨": 1750,
      "è¯¾ç¨ĭ": 1751,
      "000": 1752,
      "ç©¶": 1753,
      "åįĬ": 1754,
      "åĲĪéĩĳ": 1755,
      "å®£": 1756,
      "èµĦæĸĻ": 1757,
      "ph": 1758,
      "å°ĺ": 1759,
      "çĽ´æĴŃ": 1760,
      "æĲľç´¢": 1761,
      "æĶ¿": 1762,
      "æĻ¶": 1763,
      "é¹¤": 1764,
      "ãģ": 1765,
      "80": 1766,
      "é±¼": 1767,
      "ac": 1768,
      "å¥ĩ": 1769,
      "åĥ": 1770,
      "çī©æµģè®¾å¤ĩæľīéĻĲåħ¬åı¸": 1771,
      "è¡Įä¸ļ": 1772,
      "è¿ģ": 1773,
      "åĽ´": 1774,
      "Ġ20": 1775,
      "ig": 1776,
      "é¢ĳ": 1777,
      "ä¹°": 1778,
      "æĸ½å·¥": 1779,
      "æ±ķ": 1780,
      "one": 1781,
      "çİ°ä»£": 1782,
      "Ġ2020": 1783,
      "ä½¿": 1784,
      "èĩ³": 1785,
      "çĵ¶": 1786,
      "è¿ĳ": 1787,
      "èĬľ": 1788,
      "æĶ¹": 1789,
      "éĥĳå·ŀ": 1790,
      "Ġä¸Ĭä¸Ģé¡µ": 1791,
      "éĺľ": 1792,
      "èĦĳ": 1793,
      "åºĶçĶ¨": 1794,
      "çŁ¿": 1795,
      "è¯¦": 1796,
      "ç£¨": 1797,
      "åİĨ": 1798,
      "Ġé«ĺ": 1799,
      "è¡Ĺ": 1800,
      "æ¾³": 1801,
      "é£ŀ": 1802,
      "ä¸ĵçĶ¨": 1803,
      "ĠæľĢ": 1804,
      "ç½Ĳ": 1805,
      "æłĩåĩĨ": 1806,
      "ç¬¬ä¸Ģ": 1807,
      "60": 1808,
      "å¦Ĥ": 1809,
      "å¯¸": 1810,
      "èĮĥ": 1811,
      "éŀį": 1812,
      "åĲĪèĤ¥": 1813,
      "éĥŃ": 1814,
      "Ġg": 1815,
      "æ²Īéĺ³": 1816,
      "åĴ¸": 1817,
      "æ¢ħ": 1818,
      "Ġl": 1819,
      "éĺħè¯»": 1820,
      "å®īåħ¨": 1821,
      "å¥ĸ": 1822,
      "å®īå¾½": 1823,
      "é¢Ĩ": 1824,
      "ion": 1825,
      "äº«": 1826,
      "æºª": 1827,
      "ä»ģ": 1828,
      "æ¼Ķ": 1829,
      "ç§¯": 1830,
      "é£İæľº": 1831,
      "é¥®": 1832,
      "ad": 1833,
      "è¯ģä¹¦": 1834,
      "æķĪæŀľåĽ¾": 1835,
      "å®¶åºĦ": 1836,
      "åİ¦éĹ¨": 1837,
      "åĶĲ": 1838,
      "æĿ¯": 1839,
      "æŀĲ": 1840,
      "å²Ĺ": 1841,
      "çłĸ": 1842,
      "éŀįå±±": 1843,
      "åłĤ": 1844,
      "éĻĦ": 1845,
      "è¥Ħ": 1846,
      "å´": 1847,
      "æ³¡": 1848,
      "æ³¥": 1849,
      "èįĨ": 1850,
      "å®ĩ": 1851,
      "éĦĤ": 1852,
      "æµ®": 1853,
      "ç¼©": 1854,
      "åıĭ": 1855,
      "çļĦ": 1856,
      "åŃĺ": 1857,
      "åıį": 1858,
      "æĢİ": 1859,
      "åĿĽ": 1860,
      "çĶµåĻ¨": 1861,
      "ç«¯": 1862,
      "å¸Ĥåľº": 1863,
      "çīĻ": 1864,
      "³å·ŀ": 1865,
      "æĬļ": 1866,
      "çłĶç©¶": 1867,
      "éķľ": 1868,
      "é²ģ": 1869,
      "æŀģ": 1870,
      "æİ§åĪ¶": 1871,
      "åľ°åĿĢ": 1872,
      "40": 1873,
      "æ±¡": 1874,
      "æĮģ": 1875,
      "st": 1876,
      "æ´ĭ": 1877,
      "æ½®": 1878,
      "åĵª": 1879,
      "åĩ¯": 1880,
      "å®ģæ³¢": 1881,
      "45": 1882,
      "æĿ¥æºĲ": 1883,
      "åŁİå¸Ĥ": 1884,
      "ĠâĢº": 1885,
      "åĥı": 1886,
      "åı¶": 1887,
      "åŁŁ": 1888,
      "éĺŁ": 1889,
      "åħ³äºİ": 1890,
      "å½¦": 1891,
      "çĽĸ": 1892,
      "å¢ħ": 1893,
      "åħ«": 1894,
      "æ§": 1895,
      "æ»ĳ": 1896,
      "ä¼¦": 1897,
      "èĭ±è¯Ń": 1898,
      "éĢı": 1899,
      "æ²¡": 1900,
      "æ£®": 1901,
      "çº¯": 1902,
      "pe": 1903,
      "un": 1904,
      "æŁ±": 1905,
      "28": 1906,
      "æģ©": 1907,
      "æĢİä¹Ī": 1908,
      "»çĸ": 1909,
      "ä½ı": 1910,
      "éĢĤ": 1911,
      "èħĲ": 1912,
      "Ġâ": 1913,
      "ä¸Ńå±±": 1914,
      "åŃĶ": 1915,
      "çĶµèĦĳ": 1916,
      "ä¸¤": 1917,
      "Ġ7": 1918,
      "ä½ĵèĤ²": 1919,
      "åĲ´": 1920,
      "el": 1921,
      "æ¡Ĥ": 1922,
      "ä¹Ļ": 1923,
      "å®¢æĪ·": 1924,
      "éķ¿æ²Ļ": 1925,
      "è±ª": 1926,
      "ç»´ä¿®": 1927,
      "åıĳå±ķ": 1928,
      "»çĸĹ": 1929,
      "çĶ±": 1930,
      "æĸ¹æ¡Ī": 1931,
      "åĦ¿ç«¥": 1932,
      "åĲĪä½ľ": 1933,
      "è¯Ĩ": 1934,
      "æ¯ı": 1935,
      "å®ŀéªĮ": 1936,
      "æ¶¦": 1937,
      "éĴ±": 1938,
      "äº§åĵģåĲįç§°": 1939,
      "æķĻåŃ¦": 1940,
      "åĪ»": 1941,
      "ag": 1942,
      "å°¾é¡µ": 1943,
      "¨Ģ": 1944,
      "çŁ³å®¶åºĦ": 1945,
      "åĿĹ": 1946,
      "ä»Ģä¹Ī": 1947,
      "åıĳå¸ĥæĹ¶éĹ´": 1948,
      "èĬ¯": 1949,
      "co": 1950,
      "Ġo": 1951,
      "éļĨ": 1952,
      "æĽ´æĸ°": 1953,
      "åıĸ": 1954,
      "è´£": 1955,
      "Ġåħ±": 1956,
      "ç¬Ķ": 1957,
      "å¸¸å·ŀ": 1958,
      "çŁ¥": 1959,
      "Ġ8": 1960,
      "id": 1961,
      "å·´å½¦": 1962,
      "èĢĥè¯ķ": 1963,
      "è¯ķéªĮ": 1964,
      "åħ´å®ī": 1965,
      "2017": 1966,
      "æĪı": 1967,
      "çº¤": 1968,
      "æ¹ĸåįĹ": 1969,
      "çļĩ": 1970,
      "çĦ¶": 1971,
      "æĿ¡è®°å½ķ": 1972,
      "éĽ·": 1973,
      "æŃĮ": 1974,
      "åĲīæŀĹ": 1975,
      "éĢļè¾½": 1976,
      "äº®": 1977,
      "éĤ¦": 1978,
      "ä½ľèĢħ": 1979,
      "éĿŀ": 1980,
      "æ³½": 1981,
      "ä¾Ŀ": 1982,
      "çĩĥ": 1983,
      "åįĹéĢļ": 1984,
      "çĹ": 1985,
      "è®¸": 1986,
      "ä¹Įæµ·": 1987,
      "æ¨¡æĿ¿": 1988,
      "çİĽ": 1989,
      "29": 1990,
      "ç«¹": 1991,
      "2016": 1992,
      "ä½ķ": 1993,
      "åĵĪå°Ķæ»¨": 1994,
      "èĥĮ": 1995,
      "åħĪ": 1996,
      "åĪ«å¢ħ": 1997,
      "æĸĩç«ł": 1998,
      "åĳ³": 1999,
      "éĵ¸": 2000,
      "èģĮä¸ļ": 2001,
      "çĬģ": 2002,
      "éķĢ": 2003,
      "ä¿Ŀæ¸©": 2004,
      "åĤ¨": 2005,
      "éļı": 2006,
      "èĭĹ": 2007,
      "æŃ¥": 2008,
      "è¡¥": 2009,
      "æ¡¶": 2010,
      "ct": 2011,
      "Ġe": 2012,
      "ä½Ļ": 2013,
      "27": 2014,
      "åħĭåŃľåĭĴ": 2015,
      "åħĭåŃľåĭĴèĭı": 2016,
      "è§ģ": 2017,
      "ç»Ł": 2018,
      "çĶ³": 2019,
      "åħ³éĶ®": 2020,
      "ä¼ĬçĬģ": 2021,
      "Ġ10": 2022,
      "åĲ¨": 2023,
      "Ġäºº": 2024,
      "çĶ·": 2025,
      "éĻĪ": 2026,
      "ch": 2027,
      "æµ©": 2028,
      "ä¼Ĺ": 2029,
      "è¯ļ": 2030,
      "æĬķèµĦ": 2031,
      "è®ºåĿĽ": 2032,
      "å®¤åĨħ": 2033,
      "ç®Ĺ": 2034,
      "çŃĽ": 2035,
      "ä¸ĭä¸ĢæĿ¡": 2036,
      "è¯º": 2037,
      "èĹı": 2038,
      "è®¤": 2039,
      "200": 2040,
      "çĶŁäº§åİĤå®¶": 2041,
      "éĺ²çĪĨ": 2042,
      "ä½¿çĶ¨": 2043,
      "å°º": 2044,
      "åª": 2045,
      "35": 2046,
      "éĻ©": 2047,
      "åĨ°": 2048,
      "ç¢³": 2049,
      "æŁ¥çľĭ": 2050,
      "åįĥ": 2051,
      "ä¾¿": 2052,
      "èĿ": 2053,
      "ä½ľåĵģ": 2054,
      "æľºçĶµ": 2055,
      "æŃ¤": 2056,
      "å»Ĭ": 2057,
      "åĲĦ": 2058,
      "åįı": 2059,
      "å·¦": 2060,
      "æ¬¢": 2061,
      "åŀ«": 2062,
      "éĴ¢ç®¡": 2063,
      "æĶĢ": 2064,
      "Ġv": 2065,
      "Ġåħ¨": 2066,
      "çĽĳ": 2067,
      "Ġk": 2068,
      "æ´Ľéĺ³": 2069,
      "am": 2070,
      "ol": 2071,
      "å·¥åħ·": 2072,
      "éĤ¢": 2073,
      "æ²¡æľī": 2074,
      "æĸŃ": 2075,
      "æ²Ĥ": 2076,
      "èĬĿ": 2077,
      "éĽª": 2078,
      "æľ«": 2079,
      "æ¡£": 2080,
      "ä»ĵ": 2081,
      "åı°åĮĹ": 2082,
      "æ±Ĥ": 2083,
      "å¯Ł": 2084,
      "ä»Ļ": 2085,
      "å·¥ç¨ĭæ¡Īä¾ĭ": 2086,
      "èĪĴ": 2087,
      "æīį": 2088,
      "ç»ĥ": 2089,
      "æ¯ķ": 2090,
      "ç®¡éģĵ": 2091,
      "æĺĨæĺİ": 2092,
      "æ½į": 2093,
      "éŃ": 2094,
      "ç¡ħ": 2095,
      "æī¾": 2096,
      "å±Ģ": 2097,
      "ä¸Ģä½ĵ": 2098,
      "æīĢåľ¨": 2099,
      "çģµ": 2100,
      "åĲ«": 2101,
      "ml": 2102,
      "è¿Ķ": 2103,
      "phone": 2104,
      "ä½ł": 2105,
      "éŁ³ä¹Ĳ": 2106,
      "æ¬¡æķ°": 2107,
      "è¨Ģ": 2108,
      "Ġy": 2109,
      "åĩĿ": 2110,
      "çŃĶ": 2111,
      "èĢ³": 2112,
      "æĮ¯": 2113,
      "å¤įåĲĪ": 2114,
      "è¯Ŀ": 2115,
      "æ®µ": 2116,
      "éĽĨåĽ¢æľīéĻĲåħ¬åı¸": 2117,
      "è±Ĩ": 2118,
      "Ġ9": 2119,
      "ç§»åĬ¨": 2120,
      "éĹŃ": 2121,
      "èĽĭ": 2122,
      "åıĳè¡¨": 2123,
      "çºª": 2124,
      "å¹¼": 2125,
      "åĩ¤": 2126,
      "çĦ¦": 2127,
      "èĮĤ": 2128,
      "df": 2129,
      "å¤§è¿ŀ": 2130,
      "æľª": 2131,
      "éĽ¨": 2132,
      "åķĨåŁİ": 2133,
      "èĲ¨": 2134,
      "è´µéĺ³": 2135,
      "éĶĮ": 2136,
      "èĴ¸": 2137,
      "çħ§æĺİ": 2138,
      "ab": 2139,
      "çľ¼": 2140,
      "æĳĦå½±": 2141,
      "åįķä½į": 2142,
      "éĺ¿éĩĮ": 2143,
      "æ½įåĿĬ": 2144,
      "il": 2145,
      "éľ²": 2146,
      "Ġä¸ĭä¸Ģç¯ĩ": 2147,
      "ä¼ļåĳĺ": 2148,
      "æĭĮ": 2149,
      "ç¦ıå·ŀ": 2150,
      "é«ĺåİĭ": 2151,
      "é²ľ": 2152,
      "æ¸¸æĪı": 2153,
      "se": 2154,
      "å¤¹": 2155,
      "çķĻ": 2156,
      "æ¸ħæ´Ĺ": 2157,
      "åºı": 2158,
      "çłĤ": 2159,
      "æľĢæĸ°": 2160,
      "æ¸©å·ŀ": 2161,
      "åİļ": 2162,
      "åįĹæĺĮ": 2163,
      "ãĦ": 2164,
      "æ·Ħ": 2165,
      "è´£ä»»": 2166,
      "åĮ»çĸĹ": 2167,
      "èģĬ": 2168,
      "æĬĺ": 2169,
      "ur": 2170,
      "å¤§åħ¨": 2171,
      "æŁ³": 2172,
      "åįĩéĻį": 2173,
      "è§Ħæł¼": 2174,
      "åºŃ": 2175,
      "ps": 2176,
      "åľ£": 2177,
      "Ġä¸Ģ": 2178,
      "åªĴ": 2179,
      "æ§½": 2180,
      "åĪĨæŀĲ": 2181,
      "ä¸´æ²Ĥ": 2182,
      "ç¼Ŀ": 2183,
      "æľĿ": 2184,
      "åĩĢåĮĸ": 2185,
      "æĢĢ": 2186,
      "åŀĭåı·": 2187,
      "æĮī": 2188,
      "è´º": 2189,
      "æ·Ħåįļ": 2190,
      "æŀĿ": 2191,
      "ç§ĳåŃ¦": 2192,
      "è½¦éĹ´": 2193,
      "Ġä¸Ĭæµ·": 2194,
      "æĬ¤æłı": 2195,
      "è®²": 2196,
      "åħ°å·ŀ": 2197,
      "ä¿ĿæĬ¤": 2198,
      "å¢ŀ": 2199,
      "èĬ¦": 2200,
      "å¼Ĥ": 2201,
      "ä¸ĭä¸Ģé¡µ": 2202,
      "éĶģ": 2203,
      "æ½ľ": 2204,
      "ãĢį": 2205,
      "èĴĻ": 2206,
      "æ¨¡åŀĭ": 2207,
      "æ¿Ģ": 2208,
      "ãĢĮ": 2209,
      "é¹°": 2210,
      "æŃ¢": 2211,
      "äº¿": 2212,
      "èµ°": 2213,
      "åĪĿ": 2214,
      "æīĭæľº": 2215,
      "åĲ¯": 2216,
      "æĹĹ": 2217,
      ")-": 2218,
      "æ¤į": 2219,
      "å°±": 2220,
      "ç²Ĵ": 2221,
      "åį§": 2222,
      "éĺ²çģ«": 2223,
      "éķ¿æĺ¥": 2224,
      "??": 2225,
      "éĤ£": 2226,
      "çĶµæ±ł": 2227,
      "ç§¦": 2228,
      "me": 2229,
      "åıī": 2230,
      "çĴ": 2231,
      "ç§Ģ": 2232,
      "åĪ¶ä½ľ": 2233,
      "è¯Ħè®º": 2234,
      "æ¹ĸåĮĹ": 2235,
      "éŁ©": 2236,
      "åı²": 2237,
      "éĺ²èħĲ": 2238,
      "åħįè´¹": 2239,
      "æ¼Ĩ": 2240,
      "ä¼ļè®®": 2241,
      "å¾ĭ": 2242,
      "æĭįåįĸ": 2243,
      "36": 2244,
      "åľĪ": 2245,
      "ç§ĭ": 2246,
      "æ±Łè¥¿": 2247,
      "è¿İ": 2248,
      "Ġ)": 2249,
      "çĥ§": 2250,
      "çİ»çĴĥéĴ¢": 2251,
      "Ġx": 2252,
      "ç´«": 2253,
      "éĿĻ": 2254,
      "è´Ńçī©": 2255,
      "è¿ĶåĽŀ": 2256,
      "æ±ŁéĹ¨": 2257,
      "è±¡": 2258,
      "åĨĻ": 2259,
      "ä¸ľåįĹ": 2260,
      "æķ°æİ§": 2261,
      "æ¶ĵ": 2262,
      "ç®Ģä»ĭ": 2263,
      "èµģ": 2264,
      "çĥŁåı°": 2265,
      "æī¬å·ŀ": 2266,
      "éº¦": 2267,
      "åĪ¶åĵģæľīéĻĲåħ¬åı¸": 2268,
      "ç«ŀ": 2269,
      "å²³": 2270,
      "ç¼ĺ": 2271,
      "ç§Łèµģ": 2272,
      "æµª": 2273,
      "æĪ·å¤ĸ": 2274,
      "ow": 2275,
      "åĮ»éĻ¢": 2276,
      "å¾Ĳå·ŀ": 2277,
      "å³°": 2278,
      "æĲŃ": 2279,
      "åħ³éĶ®è¯į": 2280,
      "Ġin": 2281,
      "æĹı": 2282,
      "æĿİ": 2283,
      "æŁ¯": 2284,
      "ä¸ľèİŀå¸Ĥ": 2285,
      "å¤ªåİŁ": 2286,
      "Ġç²": 2287,
      "èĤī": 2288,
      "åĢ¼": 2289,
      "çŁŃ": 2290,
      "å¤§çĲĨ": 2291,
      "åįĹå®ģ": 2292,
      "ä¸Ńæĸĩ": 2293,
      "ä¸ĺ": 2294,
      "åħ¨èĩªåĬ¨": 2295,
      "cm": 2296,
      "çĮ«": 2297,
      "çıłæµ·": 2298,
      "ç²¾å¯Ĩ": 2299,
      "åĨħå®¹": 2300,
      "è´§æŀ¶": 2301,
      "åĬ¨æĢģ": 2302,
      "ay": 2303,
      "åľ°åĮº": 2304,
      "çĵ¦": 2305,
      "èİ·": 2306,
      "ç¬¬äºĮ": 2307,
      "æ¬£": 2308,
      "å¾Ħ": 2309,
      "é¸¿": 2310,
      "åŃ¦ä¹ł": 2311,
      "æĳ©": 2312,
      "ç¢İ": 2313,
      "çŃĴ": 2314,
      "è´¡": 2315,
      "æĭ¼": 2316,
      "ä»¬": 2317,
      "åĨ³": 2318,
      "ht": 2319,
      "æĸ°ä¹¡": 2320,
      "å´ĩ": 2321,
      "2015": 2322,
      "å£³": 2323,
      "é¸Ń": 2324,
      "ç»©": 2325,
      "®éĺ³": 2326,
      "åĺ´": 2327,
      "è®¾è®¡å¸Ī": 2328,
      "åĺīåħ´": 2329,
      "ä¿Ŀå®ļ": 2330,
      "åĸľ": 2331,
      "èĲį": 2332,
      "çº¿ä¸Ĭ": 2333,
      "ä¸ĸçķĮ": 2334,
      "æĻ¯è§Ĥ": 2335,
      "èŀį": 2336,
      "31": 2337,
      "and": 2338,
      "æ²§å·ŀ": 2339,
      "æīĢåľ¨ä½įç½®": 2340,
      "åŃ¦çĶŁ": 2341,
      "èĪŀ": 2342,
      "300": 2343,
      "å¢¨": 2344,
      "ç»Ŀ": 2345,
      "éĺĢéĹ¨": 2346,
      "åĩºç§Ł": 2347,
      "å±Ĭ": 2348,
      "å¹ķ": 2349,
      "åĪĢ": 2350,
      "ä¼´": 2351,
      "æŀ£": 2352,
      "åĶĲå±±": 2353,
      "æ¶Īéĺ²": 2354,
      "çĥ¯": 2355,
      "çĿ": 2356,
      "ip": 2357,
      "å®Į": 2358,
      "æĿĤ": 2359,
      "çĢ": 2360,
      "æīĵåį°": 2361,
      "å¿ł": 2362,
      "çĶµåĬĽ": 2363,
      "è´µå·ŀ": 2364,
      "éĤ¯": 2365,
      "çľŁç©º": 2366,
      "ç³ĸ": 2367,
      "æľºæŀĦ": 2368,
      "å¼¯": 2369,
      "è¡Įæĥħ": 2370,
      "Ġ2019": 2371,
      "ĠçĤ": 2372,
      "éľĢ": 2373,
      "æł¸": 2374,
      "æłª": 2375,
      "åģ¥åº·": 2376,
      "æĥłå·ŀ": 2377,
      "å»ºæĿĲ": 2378,
      "åĨµ": 2379,
      "ç©ºéĹ´": 2380,
      "åľ°æĿ¿": 2381,
      "åį«çĶŁ": 2382,
      "çĤ¹åĩ»": 2383,
      "åİĭåĬĽ": 2384,
      "æģ¯": 2385,
      "ĠçĻ": 2386,
      "éĥ¸": 2387,
      "go": 2388,
      "ent": 2389,
      "ç°": 2390,
      "ut": 2391,
      "çİ°åľº": 2392,
      "æľīéĻĲè´£ä»»": 2393,
      "èĪŁ": 2394,
      "vs": 2395,
      "Ġthe": 2396,
      "å¿ħ": 2397,
      "èĳ«": 2398,
      "å¨ģæµ·": 2399,
      "çł´": 2400,
      "éĤ¯éĥ¸": 2401,
      "èĦĤ": 2402,
      "æĿ°": 2403,
      "åĩı": 2404,
      "ä¸ģ": 2405,
      "èĲ½": 2406,
      "å¯»": 2407,
      "æ¿Ģåħī": 2408,
      "æµİå®ģ": 2409,
      "èµ£": 2410,
      "çĶµæºĲ": 2411,
      "éĻĩ": 2412,
      "å³¡": 2413,
      "ot": 2414,
      "Ġå°¾é¡µ": 2415,
      "ä¸»é¢ĺ": 2416,
      "å¹´çº§": 2417,
      "æľīéĻĲè´£ä»»åħ¬åı¸": 2418,
      "æ£ļ": 2419,
      "éĴĪ": 2420,
      "åı°ä¸Ń": 2421,
      "éķĩæ±Ł": 2422,
      "æ³īå·ŀ": 2423,
      "æ°´å¤ĦçĲĨ": 2424,
      "éĿĸ": 2425,
      "é¤Ĳåİħ": 2426,
      "äºŃ": 2427,
      "æį·": 2428,
      "é©¾": 2429,
      "ss": 2430,
      "èĳ«èĬ¦": 2431,
      "æĸ¤": 2432,
      "æĪĺ": 2433,
      "å¾·å·ŀ": 2434,
      "åĮĸåŃ¦": 2435,
      "è¾ĳ": 2436,
      "çŃĸ": 2437,
      "åĨĪ": 2438,
      "åĪĬ": 2439,
      "åĪĨäº«": 2440,
      "ä»¿": 2441,
      "é¥Ń": 2442,
      "é¼İ": 2443,
      "å®īéĺ³": 2444,
      "æ³°å®ī": 2445,
      "å¯Ĩå°ģ": 2446,
      "ä¼ĳéĹ²": 2447,
      "èĥľ": 2448,
      "åĨł": 2449,
      "ç¦ıå»º": 2450,
      "è¶Ĭ": 2451,
      "ç»ĦåĲĪ": 2452,
      "500": 2453,
      "æŁ´": 2454,
      "æ¥ļ": 2455,
      "èī¾": 2456,
      "å¤ļå°ĳ": 2457,
      "Ġre": 2458,
      "æ¹¾": 2459,
      "è¿Ļ": 2460,
      "èĬľæ¹ĸ": 2461,
      "Ġåįķ": 2462,
      "èĦļ": 2463,
      "å¡ŀ": 2464,
      "æ¡Ĳ": 2465,
      "æī£": 2466,
      "åİ¨æĪ¿": 2467,
      "vc": 2468,
      "åĴĸ": 2469,
      "çħ¤": 2470,
      "æĽ´å¤ļ": 2471,
      "éĩĳåįİ": 2472,
      "æ¨¡åħ·": 2473,
      "æħ§": 2474,
      "è£ħç½®": 2475,
      "èıĮ": 2476,
      "åŃĿ": 2477,
      "æİ¢": 2478,
      "ç®Ģçº¦": 2479,
      "ç»įåħ´": 2480,
      "å®ļåģļ": 2481,
      "å¸½": 2482,
      "ç¾¤": 2483,
      "å¡ĳèĥ¶": 2484,
      "æĲħ": 2485,
      "æ³°å·ŀ": 2486,
      "ä¸Ĭçº¿": 2487,
      "å·¥åİĤ": 2488,
      "ç½©": 2489,
      "Ġst": 2490,
      "éª¨": 2491,
      "å¾Ģ": 2492,
      "Ġr": 2493,
      "æıŃ": 2494,
      "æ°´æ³¥": 2495,
      "à¸": 2496,
      "æ¡ĤæŀĹ": 2497,
      "æ¾³éĹ¨": 2498,
      "æ¦Ĩ": 2499,
      "å·¥èīº": 2500,
      "ä¸Ńå¼ı": 2501,
      "è°·": 2502,
      "å®½": 2503,
      "æ°Ł": 2504,
      "å°ıåŃ¦": 2505,
      "Ġä¸ª": 2506,
      "33": 2507,
      "éĤµ": 2508,
      "æ±ķå¤´": 2509,
      "âĢĶâĢĶ": 2510,
      "éĻ¤å°ĺ": 2511,
      "çĻ»å½ķ": 2512,
      "å»ĬåĿĬ": 2513,
      "èµı": 2514,
      "è¾ĵéĢģ": 2515,
      "è¿ŀäºĳ": 2516,
      "è¾ħ": 2517,
      "éĶħçĤī": 2518,
      "éľį": 2519,
      "ï¿½ï¿½ï¿½ï¿½ï¿½": 2520,
      "è¡¡æ°´": 2521,
      "è·Ł": 2522,
      "åŁºéĩĳ": 2523,
      "app": 2524,
      "èŃ": 2525,
      "è¢ĸ": 2526,
      "ç¤¾åĮº": 2527,
      "æµĨ": 2528,
      "æĲħæĭĮ": 2529,
      "åİ»": 2530,
      "å·¢": 2531,
      "æī§": 2532,
      "è¿ŀäºĳæ¸¯": 2533,
      "æ£Ĵ": 2534,
      "im": 2535,
      "âĹ": 2536,
      "æķ£": 2537,
      "è¥¿åįĹ": 2538,
      "å®ħ": 2539,
      "æĪĳä»¬": 2540,
      "éħ¯": 2541,
      "ir": 2542,
      "è¯´æĺİ": 2543,
      "éĵĿåĲĪéĩĳ": 2544,
      "ĠçĤ¹": 2545,
      "ĠåıĮ": 2546,
      "ãĢĳ-": 2547,
      "åįĹéĺ³": 2548,
      "èĩªåĬ¨åĮĸ": 2549,
      "æ°ĶåĬ¨": 2550,
      "32": 2551,
      "äºĴ": 2552,
      "è·³": 2553,
      "bo": 2554,
      "åģĩ": 2555,
      "è¶³": 2556,
      "é©»": 2557,
      "åİĤæĪ¿": 2558,
      "çľī": 2559,
      "çİĩ": 2560,
      "çķª": 2561,
      "ĠÃĹ": 2562,
      "åĽ¾ä¹¦": 2563,
      "éģµ": 2564,
      "çĽĲåŁİ": 2565,
      "åı°å·ŀ": 2566,
      "åľ¨çº¿": 2567,
      "æİĪ": 2568,
      "èİĨ": 2569,
      "88": 2570,
      "åŁºåľ°": 2571,
      "çī¡": 2572,
      "èħ¾": 2573,
      "åħĭæĭī": 2574,
      "éº»": 2575,
      "æĦŁåĻ¨": 2576,
      "è¯¸": 2577,
      "æĭŁ": 2578,
      "ä¸ŃåŃ¦": 2579,
      "æľĿéĺ³": 2580,
      "åŁł": 2581,
      "è®¡åĪĴ": 2582,
      "è®¿": 2583,
      "åĪĩåī²": 2584,
      "é¾Ļå²©": 2585,
      "ä¸ľèĲ¥": 2586,
      "æ¹¿": 2587,
      "æ¦Ĥ": 2588,
      "æ°¨": 2589,
      "é¥¶": 2590,
      "um": 2591,
      "æĭĵ": 2592,
      "Ġj": 2593,
      "è¡¬": 2594,
      "çĥŃåĻ¨": 2595,
      "æĿ¡ä»¶": 2596,
      "çģĮ": 2597,
      "åĲķ": 2598,
      "èİĨçĶ°": 2599,
      "Ġæµıè§Ī": 2600,
      "åĲ§": 2601,
      "çģ°": 2602,
      "ç§¦çļĩ": 2603,
      "è§¦": 2604,
      "çĶµè§Ĩ": 2605,
      "Ġ12": 2606,
      "ĠæĹł": 2607,
      "å®¿è¿ģ": 2608,
      "æłªæ´²": 2609,
      "åł°": 2610,
      "è´Ŀå°Ķ": 2611,
      "è¯¦æĥħ": 2612,
      "åıĳçĶµæľº": 2613,
      "æĸĹ": 2614,
      "åī§": 2615,
      "âĨ": 2616,
      "Ġç¦": 2617,
      "åĿĿ": 2618,
      "çī¡ä¸¹": 2619,
      "æ¹Ľ": 2620,
      "èĤĩ": 2621,
      "æĹ¶å°ļ": 2622,
      "ç§¦çļĩå²Ľ": 2623,
      "ç±»åŀĭ": 2624,
      "è¥¿å®ģ": 2625,
      "å¼ķ": 2626,
      "æ¸ł": 2627,
      "oc": 2628,
      "æµ©çī¹": 2629,
      "æ·®å®ī": 2630,
      "éĻķ": 2631,
      "è¥Ħéĺ³": 2632,
      "äºĳåįĹ": 2633,
      "èļĮ": 2634,
      "åħ¨åĽ½": 2635,
      "Ð¾": 2636,
      "èŃ¦": 2637,
      "Ġ::": 2638,
      "ä¹Ŀæ±Ł": 2639,
      "å¨Ħ": 2640,
      "èĬ±åĽŃ": 2641,
      "è¿ĩæ»¤åĻ¨": 2642,
      "ç¥¥": 2643,
      "éĩİ": 2644,
      "åį³": 2645,
      "Ġ<": 2646,
      "iv": 2647,
      "å¤§åŀĭ": 2648,
      "å¹¼åĦ¿": 2649,
      "èµ£å·ŀ": 2650,
      "å¸¸å¾·": 2651,
      "åĨĽ": 2652,
      "ç»Ń": 2653,
      "ä¸īéĹ¨": 2654,
      "å¦Ĩ": 2655,
      "æĬĹ": 2656,
      "é©¬éŀįå±±": 2657,
      "æĲ¬": 2658,
      "èļĮåŁł": 2659,
      "éģµä¹ī": 2660,
      "ç»¥": 2661,
      "åĮĹæµ·": 2662,
      "âĺ": 2663,
      "åķ¡": 2664,
      "Ġ15": 2665,
      "éĴ¦": 2666,
      "è´¨éĩı": 2667,
      "æıĲä¾Ľ": 2668,
      "å®īåºĨ": 2669,
      "éĤ¢åı°": 2670,
      "éĵ¶å·Ŀ": 2671,
      "èĮħ": 2672,
      "éĹ¸": 2673,
      "48": 2674,
      "éŁ¶": 2675,
      "ba": 2676,
      "æ¹ĺæ½Ń": 2677,
      "æµ·åı£": 2678,
      "çº¤ç»´": 2679,
      "æĺŃ": 2680,
      "Ġç¾": 2681,
      "éĻĨ": 2682,
      "æ¹ĸå·ŀ": 2683,
      "éĥ´": 2684,
      "äº§ä¸ļ": 2685,
      "å¤«": 2686,
      "99": 2687,
      "èĩ´": 2688,
      "çĮª": 2689,
      "æ»ģ": 2690,
      "åĲĲ": 2691,
      "éĢĶ": 2692,
      "ç¼¸": 2693,
      "å¤©æ°´": 2694,
      "åĮħå¤´": 2695,
      "æķĻå¸Ī": 2696,
      "æĻ¯å¾·": 2697,
      "éĤ±": 2698,
      "2014": 2699,
      "è¿Ľåı£": 2700,
      "ä¸īäºļ": 2701,
      "åķĨä¸ļ": 2702,
      "æĻ¯å¾·éķĩ": 2703,
      "æ¢§": 2704,
      "ãİ": 2705,
      "è¾ī": 2706,
      "ç©ºæ°Ķ": 2707,
      "èĳĽ": 2708,
      "å°Ķå¤ļ": 2709,
      "æŁ³å·ŀ": 2710,
      "å®ľæĺĮ": 2711,
      "çĶ³è¯·": 2712,
      "åĳ¼åĴĮ": 2713,
      "æ»¨å·ŀ": 2714,
      "Ġ16": 2715,
      "åĳ¼åĴĮæµ©çī¹": 2716,
      "å²³éĺ³": 2717,
      "èıı": 2718,
      "æ¼³å·ŀ": 2719,
      "æķ°åŃ¦": 2720,
      "è¡¡éĺ³": 2721,
      "é»Ħå±±": 2722,
      "æļĤ": 2723,
      "æī¿å¾·": 2724,
      "ä¼¸": 2725,
      "å®ŀä¸ļæľīéĻĲåħ¬åı¸": 2726,
      "å¤§åĲĮ": 2727,
      "Ġ--": 2728,
      "æ³¸": 2729,
      "å¹³ç±³": 2730,
      "æĹ§": 2731,
      "ãİ¡": 2732,
      "è¡Ģ": 2733,
      "å®īé¡º": 2734,
      "åĴĸåķ¡": 2735,
      "è¿ĺ": 2736,
      "æĥ³": 2737,
      "è¡¢": 2738,
      "æ¹Ľæ±Ł": 2739,
      "ä»İ": 2740,
      "ç§ĳæĬĢèĤ¡ä»½æľīéĻĲåħ¬åı¸": 2741,
      "æ¯ķèĬĤ": 2742,
      "ä¸Ĭé¥¶": 2743,
      "éĺľéĺ³": 2744,
      "æĿ¨": 2745,
      "èĤĩåºĨ": 2746,
      "46": 2747,
      "è½¬åĪ°": 2748,
      "æıŃéĺ³": 2749,
      "åĲīå®ī": 2750,
      "åĲ¬": 2751,
      "æĢĢåĮĸ": 2752,
      "pc": 2753,
      "æ¸Ń": 2754,
      "å°ºå¯¸": 2755,
      "ä¿¡éĺ³": 2756,
      "æ±¾": 2757,
      "od": 2758,
      "æ¥ŀ": 2759,
      "éĵľéĻµ": 2760,
      "å¼Ģå°ģ": 2761,
      "æŀ£åºĦ": 2762,
      "æ´¾": 2763,
      "çĶŁäº§çº¿": 2764,
      "èııæ³½": 2765,
      "pdf": 2766,
      "å±±è¥¿": 2767,
      "ter": 2768,
      "å¼łå®¶çķĮ": 2769,
      "éĩĩè´Ń": 2770,
      "åįģåł°": 2771,
      "å¹¿è¥¿": 2772,
      "å®ģå¾·": 2773,
      "æ±īä¸Ń": 2774,
      "37": 2775,
      "æ¼«": 2776,
      "åĴ¸éĺ³": 2777,
      "æ»ģå·ŀ": 2778,
      "ç¡«": 2779,
      "éĵº": 2780,
      "å§Ķ": 2781,
      "çĦ¦ä½ľ": 2782,
      "å¸®": 2783,
      "ma": 2784,
      "èĦ±": 2785,
      "55": 2786,
      "ä¸½æ°´": 2787,
      "èĩªè´¡": 2788,
      "èĮĤåĲį": 2789,
      "æ½®å·ŀ": 2790,
      "Ġto": 2791,
      "æ··åĩĿ": 2792,
      "æ¦ĨæŀĹ": 2793,
      "èĸĦ": 2794,
      "éĴ¢ç»ĵæŀĦ": 2795,
      "å¤·": 2796,
      "èİ²": 2797,
      "å®īåº·": 2798,
      "æ¸ħè¿ľ": 2799,
      "æ³ķåħ°": 2800,
      "æ·®åįĹ": 2801,
      "é½Ĳé½Ĳ": 2802,
      "å°Ķå¤ļæĸ¯": 2803,
      "æ¿®éĺ³": 2804,
      "Â»": 2805,
      "åĬ³": 2806,
      "éĦĤå°Ķå¤ļæĸ¯": 2807,
      "æľĶ": 2808,
      "èģĬåŁİ": 2809,
      "ä¸īæĺİ": 2810,
      "é¹¤å£ģ": 2811,
      "éĤµéĺ³": 2812,
      "è®¸æĺĮ": 2813,
      "çĥŃéĹ¨": 2814,
      "æĻ®éĢļ": 2815,
      "90": 2816,
      "æĿĲè´¨": 2817,
      "é½Ĳé½ĲåĵĪå°Ķ": 2818,
      "ä¸¹ä¸ľ": 2819,
      "çĶ¨æĪ·": 2820,
      "æ··åĩĿåľŁ": 2821,
      "ĠåĽ½": 2822,
      "¯æ²³": 2823,
      "çŃĽéĢī": 2824,
      "åľ°åĽ¾": 2825,
      "åľ¾": 2826,
      "æ¢ħå·ŀ": 2827,
      "Ġåıĳå¸ĥæĹ¶éĹ´": 2828,
      "è°±": 2829,
      "Ġå·²": 2830,
      "åĨį": 2831,
      "åŀĥ": 2832,
      "èĲįä¹¡": 2833,
      "æĭĽçĶŁ": 2834,
      "ä½Ľå±±å¸Ĥ": 2835,
      "è¾½éĺ³": 2836,
      "å¤§åºĨ": 2837,
      "é»ĦçŁ³": 2838,
      "Ġå¤©": 2839,
      "æ¼¯æ²³": 2840,
      "é»ĦåĨĪ": 2841,
      "æĬļé¡º": 2842,
      "æľīæľº": 2843,
      "ç³ķ": 2844,
      "Ġ11": 2845,
      "åħŃå®ī": 2846,
      "åŀĥåľ¾": 2847,
      "åŃĿæĦŁ": 2848,
      "åķĨä¸ĺ": 2849,
      "éĵľä»ģ": 2850,
      "åŀ¦": 2851,
      "æµ¦": 2852,
      "æĪĸ": 2853,
      "éĥ´å·ŀ": 2854,
      "aåĵģ": 2855,
      "æ²³æºĲ": 2856,
      "æĪ¿äº§": 2857,
      "èĪŁå±±": 2858,
      "ä¸ļåĬ¡": 2859,
      "æİ¥å¤´": 2860,
      "çĻ½éĵ¶": 2861,
      "é£İéĩĩ": 2862,
      "æĤ¦": 2863,
      "æ·®åĮĹ": 2864,
      "æ°¯": 2865,
      "æĽ¼": 2866,
      "æŀĿèĬ±": 2867,
      "éĶ¦å·ŀ": 2868,
      "äº¤æµģ": 2869,
      "éĻķè¥¿": 2870,
      "è´¸æĺĵ": 2871,
      "éŁ¶åħ³": 2872,
      "å·´ä¸Ń": 2873,
      "th": 2874,
      "çĽĬéĺ³": 2875,
      "å³ª": 2876,
      "æĶĢæŀĿèĬ±": 2877,
      "æ°¸å·ŀ": 2878,
      "å¿»": 2879,
      "å¨Ħåºķ": 2880,
      ")_": 2881,
      "ä¸īéĹ¨å³¡": 2882,
      "æ°§åĮĸ": 2883,
      "å»¶å®ī": 2884,
      "æľ¨æĸ¯": 2885,
      "é«ĺéĢŁ": 2886,
      "Ġçĥ": 2887,
      "ä¹Įåħ°": 2888,
      "æ·ĸ": 2889,
      "å¼łå®¶åı£": 2890,
      "éĺ³æ±Ł": 2891,
      "ä½³æľ¨æĸ¯": 2892,
      "ä¸½æ±Ł": 2893,
      "æ¡Ĩ": 2894,
      "æģ©æĸ½": 2895,
      "è¡¢å·ŀ": 2896,
      "æ³¸å·ŀ": 2897,
      "å¹³é¡¶": 2898,
      "çĽ´éĶĢ": 2899,
      "ä¸´æ±¾": 2900,
      "åĸĢ": 2901,
      "å®ľæĺ¥": 2902,
      "äºĳæµ®": 2903,
      "èįĨéĹ¨": 2904,
      "äº³å·ŀ": 2905,
      "åĽĽå¹³": 2906,
      "èįĨå·ŀ": 2907,
      "æ·ĸå°Ķ": 2908,
      "æ¨Ĭ": 2909,
      "æĹ¶åĪ»": 2910,
      "æ°ı": 2911,
      "å·´å½¦æ·ĸå°Ķ": 2912,
      "æĻĭä¸Ń": 2913,
      "æ¸ŃåįĹ": 2914,
      "è¿ŀæİ¥": 2915,
      "å°ıåŀĭ": 2916,
      "ä¼łæĦŁåĻ¨": 2917,
      "æ¸ħåįķ": 2918,
      "éĺľæĸ°": 2919,
      "çī¡ä¸¹æ±Ł": 2920,
      "éĢļåĮĸ": 2921,
      "åįĹåħħ": 2922,
      "Ġof": 2923,
      "æ±łå·ŀ": 2924,
      "ä¼Ł": 2925,
      "é¹°æ½Ń": 2926,
      "ĠÐ": 2927,
      "é©¬åºĹ": 2928,
      "å¡ĳæĸĻåĪ¶åĵģæľīéĻĲåħ¬åı¸": 2929,
      "åįĹå¹³": 2930,
      "ä¼ĺæĥł": 2931,
      "è´µæ¸¯": 2932,
      "é©»é©¬åºĹ": 2933,
      "åĴ¸å®ģ": 2934,
      "Ġä¼ģä¸ļ": 2935,
      "éģĤ": 2936,
      "ä¸Ļ": 2937,
      "å®¿å·ŀ": 2938,
      "æĢĴ": 2939,
      "è¾¾å·ŀ": 2940,
      "è¾ĸ": 2941,
      "ç»Ļ": 2942,
      "æĸ°ä½Ļ": 2943,
      "Ġä¸Ĭ": 2944,
      "å®¶è£ħ": 2945,
      "éĢĤçĶ¨": 2946,
      "æ¥ļéĽĦ": 2947,
      "åħŃçĽĺ": 2948,
      "ĠæľĢè¿ĳ": 2949,
      "çĶµç£ģ": 2950,
      "å°Ĩ": 2951,
      "ew": 2952,
      "çĥ¤": 2953,
      "å¥Ĺè£ħ": 2954,
      "èİ±èĬľ": 2955,
      "çº¢æ²³": 2956,
      "ä¿Ŀå±±": 2957,
      "å®ľå®¾": 2958,
      "éķĢéĶĮ": 2959,
      "æ¢§å·ŀ": 2960,
      "39": 2961,
      "mp": 2962,
      "èĲ¨åħĭ": 2963,
      "åħŃçĽĺæ°´": 2964,
      "æ±ķå°¾": 2965,
      "æĽ²éĿĸ": 2966,
      "çİīæŀĹ": 2967,
      "éĵģå²Ń": 2968,
      "éļľ": 2969,
      "èĿ¶": 2970,
      "éĺ¿åħĭ": 2971,
      "Ġä¸ĭä¸Ģä¸ª": 2972,
      "æŀĹèĬĿ": 2973,
      "èĲ¥åı£": 2974,
      "é¡µç¬¬": 2975,
      "è¸": 2976,
      "å·¢æ¹ĸ": 2977,
      "æ¬¢è¿İ": 2978,
      "åķĨæ´Ľ": 2979,
      "å®£åŁİ": 2980,
      "æĬļå·ŀ": 2981,
      "ul": 2982,
      "æİĸ": 2983,
      "èı²": 2984,
      "éļıå·ŀ": 2985,
      "éĺ³æ³ī": 2986,
      "éĦĤå·ŀ": 2987,
      "æµ·åįĹçľģ": 2988,
      "å¯Łå¸ĥ": 2989,
      "èĭ¯": 2990,
      "å¾·éĺ³": 2991,
      "éĴ¦å·ŀ": 2992,
      "çĽĺéĶ¦": 2993,
      "å¸ĺ": 2994,
      "å®ļè¥¿": 2995,
      "æĲľå¯»": 2996,
      "Ġä¸ī": 2997,
      "éķ¿æ²»": 2998,
      "æĻĭåŁİ": 2999,
      "æµ·è¥¿": 3000,
      "å¹³é¡¶å±±": 3001,
      "å¼łæİĸ": 3002,
      "æĸĩå±±": 3003,
      "å¹¿å®ī": 3004,
      "èŀºæĹĭ": 3005,
      "65": 3006,
      "ä¸´æ²§": 3007,
      "å´ĩå·¦": 3008,
      "ä¹Įåħ°å¯Łå¸ĥ": 3009,
      "çĻ½å±±": 3010,
      "ä¸ĥåı°": 3011,
      "åĺīå³ª": 3012,
      "ä¸ĥåı°æ²³": 3013,
      "ç»¥åĮĸ": 3014,
      "å¤©éĹ¨": 3015,
      "åĺīå³ªåħ³": 3016,
      "ä»Ļæ¡ĥ": 3017,
      "è¿ĲåŁİ": 3018,
      "å®ŀéªĮå®¤": 3019,
      "Ġäººæ°Ķ": 3020,
      "è¥¿åıĮ": 3021,
      "ç¾Ĭ": 3022,
      "è½¨": 3023,
      "åįıä¼ļ": 3024,
      "éŃĶ": 3025,
      "æ²ĥ": 3026,
      "çīĪçº³": 3027,
      "Ġåħ¶ä»ĸ": 3028,
      "æĿ¾åİŁ": 3029,
      "éħĴæ³ī": 3030,
      "çº±": 3031,
      "æĢİä¹Īæł·": 3032,
      "çľīå±±": 3033,
      "åıª": 3034,
      "éĶ¡æŀĹ": 3035,
      "èĳ«èĬ¦å²Ľ": 3036,
      "åĲķæ¢ģ": 3037,
      "Ġåħ¬åı¸": 3038,
      "è¥¿åıĮçīĪçº³": 3039,
      "é¸Ńå±±": 3040,
      "çİīæºª": 3041,
      "æµİæºĲ": 3042,
      "ä¿ĿéĻ©": 3043,
      "è´ºå·ŀ": 3044,
      "æ²³æ±ł": 3045,
      "åĳ¼ä¼¦": 3046,
      "æµ·ä¸ľ": 3047,
      "åĽºåİŁ": 3048,
      "ä¹Ĳå±±": 3049,
      "è½´æī¿": 3050,
      "ation": 3051,
      "åīª": 3052,
      "åħ´å®īå²Ń": 3053,
      "å¿»å·ŀ": 3054,
      "åĳ¨åı£": 3055,
      "åĳ¼ä¼¦è´Ŀå°Ķ": 3056,
      "å¼Ģåħ³": 3057,
      "éĺ¿åĭĴ": 3058,
      "éĽħå®ī": 3059,
      "éĺ²åŁİ": 3060,
      "æĿ¥å®¾": 3061,
      "åĨ»": 3062,
      "éĥŃåĭĴ": 3063,
      "åĺ´å±±": 3064,
      "çĶĺåįĹ": 3065,
      "ç§ģ": 3066,
      "åºĨéĺ³": 3067,
      "é¹¤å²Ĺ": 3068,
      "å»¶è¾¹": 3069,
      "è¾½æºĲ": 3070,
      "åıĮé¸Ńå±±": 3071,
      "éĺ¿åĭĴæ³°": 3072,
      "éĻµåİ¿": 3073,
      "æĺŃéĢļ": 3074,
      "æŀľæ´Ľ": 3075,
      "å¤§åħ´å®īå²Ń": 3076,
      "æŃ¦å¤·": 3077,
      "èµĦéĺ³": 3078,
      "å¾·å®ı": 3079,
      "æľĶå·ŀ": 3080,
      "æ¢¦": 3081,
      "ä¸Ńåį«": 3082,
      "ä¸Ĭçº¿æĹ¶éĹ´": 3083,
      "åĸĢä»Ģ": 3084,
      "åĲ´å¿ł": 3085,
      "å¹¿åħĥ": 3086,
      "æŃ¦å¨ģ": 3087,
      "åĨħæ±Ł": 3088,
      "éĺ²åŁİæ¸¯": 3089,
      "éĺ¿åħĭèĭı": 3090,
      "é»Ķè¥¿åįĹ": 3091,
      "æĸĩä»¶": 3092,
      "éĩĳæĺĮ": 3093,
      "çĻ½åŁİ": 3094,
      "åĵĪå¯Ĩ": 3095,
      "è®¤è¯ģ": 3096,
      "åıĤæķ°": 3097,
      "ç¯®": 3098,
      "è¥Ħæ¨Ĭ": 3099,
      "éĺ¿åĿĿ": 3100,
      "ç¥ŀåĨľ": 3101,
      "åħĭæĭīçİĽ": 3102,
      "æ½ľæ±Ł": 3103,
      "é»ĳæ²³": 3104,
      "æĹ¶åĪ»è¡¨": 3105,
      "åħĭæĭīçİĽä¾Ŀ": 3106,
      "çŁ³åĺ´å±±": 3107,
      "åįļå°Ķ": 3108,
      "é»ĶåįĹ": 3109,
      "æ¹ĺè¥¿": 3110,
      "åĴĮåİ¿": 3111,
      "å±ķè§Ī": 3112,
      "çĬ¶": 3113,
      "éĶ¡æŀĹéĥŃåĭĴ": 3114,
      "çıį": 3115,
      "é»Ķä¸ľåįĹ": 3116,
      "æĶ¯æĮģ": 3117,
      "æĺĮåĲī": 3118,
      "ĠæľĢè¿ĳä¸Ĭçº¿æĹ¶éĹ´": 3119,
      "if": 3120,
      "å¤§ä¸°": 3121,
      "æµ·åĮĹ": 3122,
      "è¯¸åŁİ": 3123,
      "ç¦»å¿ĥ": 3124,
      "éĴŁ": 3125,
      "éĻĩåįĹ": 3126,
      "è¿ªåºĨ": 3127,
      "æ»¡": 3128,
      "éģĤå®ģ": 3129,
      "åĴĮçĶ°": 3130,
      "ight": 3131,
      "Ġæ¯ı": 3132,
      "å®¶åħ·åĪ¶éĢłæľīéĻĲåħ¬åı¸": 3133,
      "Ġby": 3134,
      "åĪĺ": 3135,
      "å¹³åĩī": 3136,
      "æ²³åŃĲ": 3137,
      "åĵĪèĲ¨åħĭ": 3138,
      "ç´łæĿĲ": 3139,
      "è¾½å®ģ": 3140,
      "åĬ¿": 3141,
      "ä¸´å¤ı": 3142,
      "åĪĽæĸ°": 3143,
      "éķ¿èĳĽ": 3144,
      "å¤ļå°ĳéĴ±": 3145,
      "Ð°": 3146,
      "æŃ¦å¤·å±±": 3147,
      "è¡«": 3148,
      "é«ĺæ¸©": 3149,
      "çĶĺåŃľ": 3150,
      "æĺĮéĥ½": 3151,
      "åĩīå±±": 3152,
      "æĭ©": 3153,
      "åºĵå°Ķ": 3154,
      "éĶ¡æŀĹéĥŃåĭĴçĽŁ": 3155,
      "èĭ±æĸĩ": 3156,
      "æĢĴæ±Ł": 3157,
      "å·´éŁ³": 3158,
      "çŁ³æ²³åŃĲ": 3159,
      "io": 3160,
      "ä¸ĵåĮº": 3161,
      "éĵľå·Ŀ": 3162,
      "åħ¬åĽŃ": 3163,
      "é»ĦåįĹ": 3164,
      "æĭīå°Ķ": 3165,
      "æ±¤": 3166,
      "éľįéĤ±": 3167,
      "å±±åįĹ": 3168,
      "éĥŃæ¥ŀ": 3169,
      "å·´éŁ³éĥŃæ¥ŀ": 3170,
      "75": 3171,
      "æŁ¯å°Ķ": 3172,
      "ä¼Ĭæĺ¥": 3173,
      "å¡Ķæĭī": 3174,
      "éĨ´": 3175,
      "è¿ģå®ī": 3176,
      "åºĵå°ĶåĭĴ": 3177,
      "æ³°åĭĴ": 3178,
      "38": 3179,
      "å¥¶": 3180,
      "åģľ": 3181,
      "åĪĽæĦı": 3182,
      "æŁ¯å°ĶåħĭåŃľ": 3183,
      "ce": 3184,
      "éĤ£æĽ²": 3185,
      "åħĭåŃľåĭĴèĭıæŁ¯å°ĶåħĭåŃľ": 3186,
      "æĸ°éĹ»ä¸Ńå¿ĥ": 3187,
      "Ġæµ·": 3188,
      "ç¥ŀåĨľæŀ¶": 3189,
      "éĨ´éĻµ": 3190,
      "çİīæłĳ": 3191,
      "åĲĲé²ģ": 3192,
      "å°ıåĮº": 3193,
      "åĲĲé²ģçķª": 3194,
      "éĤ®": 3195,
      "æ°¸æĸ°": 3196,
      "éĦ¢": 3197,
      "äºĶå®¶": 3198,
      "pl": 3199,
      "éĽķå¡ĳ": 3200,
      "æĢĿèĮħ": 3201,
      "å¹´ç¬¬": 3202,
      "æ¼ı": 3203,
      "äºĶå®¶æ¸ł": 3204,
      "å¦Ĥä½ķ": 3205,
      "Ġ14": 3206,
      "æ¡ĲåŁİ": 3207,
      "to": 3208,
      "66": 3209,
      "åŀ¦åĪ©": 3210,
      "éĢļè¾½å¸Ĥ": 3211,
      "ä¹Įæµ·å¸Ĥ": 3212,
      "çĽ´è¾ĸ": 3213,
      "ĠåĮĹäº¬": 3214,
      "åĢ¬": 3215,
      "å¼łåĮĹ": 3216,
      "åıīè½¦": 3217,
      "åĳ½": 3218,
      "åħ´å®īçĽŁ": 3219,
      "å¡ĶåŁİ": 3220,
      "èĪĴåħĭ": 3221,
      "çĮĹ": 3222,
      "ä»¥ä¸Ĭ": 3223,
      "ç¡ķ": 3224,
      "æľ«é¡µ": 3225,
      "è£¤": 3226,
      "åĬ¨åĬĽ": 3227,
      "ç»Ŀç¼ĺ": 3228,
      "æ¸ħå¾Ĳ": 3229,
      "ç±»åĪ«": 3230,
      "åĽ¾æľ¨": 3231,
      "ä¸´çĮĹ": 3232,
      "æµ·æĭīå°Ķ": 3233,
      "åĽ¾æľ¨èĪĴåħĭ": 3234,
      "éĺ¿æ³°åĭĴ": 3235,
      "åįļå°Ķå¡Ķæĭī": 3236,
      "æ³¨åĨĮ": 3237,
      "çĶŁæĢģ": 3238,
      "éĶĽ": 3239,
      "pvc": 3240,
      "éĦ¢éĻµåİ¿": 3241,
      "Ġî": 3242,
      "ä¼ĬçĬģåĵĪèĲ¨åħĭ": 3243,
      "åºľ": 3244,
      "åĵªå®¶": 3245,
      "å·§": 3246,
      "æµ·åįĹçľģçĽ´è¾ĸ": 3247,
      "è§£åĨ³": 3248,
      "ä»¥ä¸ĭ": 3249,
      "çĶµæ¢¯": 3250,
      "41": 3251,
      "çĽ®å½ķ": 3252,
      "å·´å½¦åĢ¬": 3253,
      "å·´å½¦åĢ¬å°Ķ": 3254,
      "å©ļç¤¼": 3255,
      "2013": 3256,
      "æľĹ": 3257,
      "kw": 3258,
      "Ġéĩĳ": 3259,
      "ç°¿": 3260,
      "70": 3261,
      "åİĭåĻ¨": 3262,
      "èĬĤèĥ½": 3263,
      "Ġç¾İ": 3264,
      "120": 3265,
      "èĭĳ": 3266,
      "æ¸ħæ´ģ": 3267,
      "ç«ĭå¼ı": 3268,
      "æ¬§å¼ı": 3269,
      "Ġåīį": 3270,
      "æİĴè¡Į": 3271,
      "Ġ2018": 3272,
      "ä¾§": 3273,
      "é¼ĵ": 3274,
      "ä¸¾": 3275,
      "è®©": 3276,
      "æ¡Īä¾ĭå±ķç¤º": 3277,
      "è·ĳ": 3278,
      "kg": 3279,
      "æĹº": 3280,
      "çĩĥæ°Ķ": 3281,
      "sp": 3282,
      "äºķ": 3283,
      "éĽ¾": 3284,
      "æīĭåĬ¨": 3285,
      "åįĵ": 3286,
      "ä¸ľæĸ¹": 3287,
      "å¹¿åľº": 3288,
      "åĨ¬": 3289,
      "ap": 3290,
      "è¢«": 3291,
      "110": 3292,
      "åĵ¥": 3293,
      "éĩĳå±ŀåĪ¶éĢłæľīéĻĲåħ¬åı¸": 3294,
      "éĢīæĭ©": 3295,
      "åİĭæľº": 3296,
      "34": 3297,
      "æ°´æľº": 3298,
      "èį£èªīèµĦè´¨": 3299,
      "æ¦ľ": 3300,
      "éĴ¢æĿ¿": 3301,
      "æŁ´æ²¹": 3302,
      "åĴ¨": 3303,
      "ä»Ķ": 3304,
      "äººæīį": 3305,
      "æ¯Ľçļ®æľīéĻĲåħ¬åı¸": 3306,
      "åĻ¨æĿĲåĪ¶éĢłæľīéĻĲåħ¬åı¸": 3307,
      "çİ°è´§": 3308,
      "mo": 3309,
      "å¯¿": 3310,
      "åĲĽ": 3311,
      "åį«æµ´æĢ»åħ¬åı¸": 3312,
      "è½¯ä»¶": 3313,
      "åħ³éĹŃ": 3314,
      "è´·": 3315,
      "çººç»ĩä¸ļæĢ»åħ¬åı¸": 3316,
      "åħ»æ®ĸæľįåĬ¡ä¸Ńå¿ĥ": 3317,
      "Ġåħ³äºİ": 3318,
      "æĬĢæľ¯æľīéĻĲåħ¬åı¸": 3319,
      "çĲ´": 3320,
      "å¡ĳæĸĻæĢ»åħ¬åı¸": 3321,
      "éĢļçĶ¨è®¾å¤ĩåĪ¶éĢłæľīéĻĲåħ¬åı¸": 3322,
      "æĮĸæİĺæľºèĲ¥è¿Ĳéĥ¨": 3323,
      "Ðµ": 3324,
      "æ¶ĤæĸĻèĲ¥è¿Ĳéĥ¨": 3325,
      "åį«æµ´æľįåĬ¡ä¸Ńå¿ĥ": 3326,
      "å¡ĳæĸĻæľįåĬ¡ä¸Ńå¿ĥ": 3327,
      "åĪ¶éŀĭæľįåĬ¡ä¸Ńå¿ĥ": 3328,
      "äº¤æĺĵ": 3329,
      "çĶµæ°Ķæľºæ¢°æĢ»åħ¬åı¸": 3330,
      "çİ»çĴĥæľįåĬ¡ä¸Ńå¿ĥ": 3331,
      "é£Łåĵģæľºæ¢°æľįåĬ¡ä¸Ńå¿ĥ": 3332,
      "æĲº": 3333,
      "æ¶ĤæĸĻæĢ»åħ¬åı¸": 3334,
      "çŁ³æĿĲæĢ»åħ¬åı¸": 3335,
      "åĬŀåħ¬å®¤": 3336,
      "å®ŀæľ¨": 3337,
      "éĻ¶çĵ·æľįåĬ¡ä¸Ńå¿ĥ": 3338,
      "çļ®éĿ©æľįåĬ¡ä¸Ńå¿ĥ": 3339,
      "é£Łåĵģæľºæ¢°èĲ¥è¿Ĳéĥ¨": 3340,
      "æĹħè¡Į": 3341,
      "ä¸Ŀç½ĳæľįåĬ¡ä¸Ńå¿ĥ": 3342,
      "åį«æµ´èĲ¥è¿Ĳéĥ¨": 3343,
      "æ¯Ľçļ®æľįåĬ¡ä¸Ńå¿ĥ": 3344,
      "çļ®éĿ©èĲ¥è¿Ĳéĥ¨": 3345,
      "çººç»ĩä¸ļæľīéĻĲåħ¬åı¸": 3346,
      "è£ħä¿®æķĪæŀľåĽ¾": 3347,
      "é¥¼": 3348,
      "éĻ¶çĵ·æĢ»åħ¬åı¸": 3349,
      "ç¾½æ¯ĽæľįåĬ¡ä¸Ńå¿ĥ": 3350,
      "åĢŁ": 3351,
      "åĪ¶éŀĭèĲ¥è¿Ĳéĥ¨": 3352,
      "çļ®éĿ©æĢ»åħ¬åı¸": 3353,
      "æķħ": 3354,
      "å¡ĳæĸĻåĪ¶åĵģèĲ¥è¿Ĳéĥ¨": 3355,
      "æľĽ": 3356,
      "æ¶ĤæĸĻæľįåĬ¡ä¸Ńå¿ĥ": 3357,
      "å¡ĳæĸĻèĲ¥è¿Ĳéĥ¨": 3358,
      "æ¯Ľçļ®èĲ¥è¿Ĳéĥ¨": 3359,
      "å¡«": 3360,
      "çĶµæ°Ķæľºæ¢°æľįåĬ¡ä¸Ńå¿ĥ": 3361,
      "ç¾½æ¯ĽæĢ»åħ¬åı¸": 3362,
      "éĩĳå±ŀåĪ¶éĢłèĲ¥è¿Ĳéĥ¨": 3363,
      "é£Łåĵģæľºæ¢°æĢ»åħ¬åı¸": 3364,
      "åºŁå¼ĥèµĦæºĲç»¼åĲĪåĪ©çĶ¨æľīéĻĲåħ¬åı¸": 3365,
      "åºŁå¼ĥèµĦæºĲç»¼åĲĪåĪ©çĶ¨æľįåĬ¡ä¸Ńå¿ĥ": 3366,
      "åºŁå¼ĥèµĦæºĲç»¼åĲĪåĪ©çĶ¨èĲ¥è¿Ĳéĥ¨": 3367,
      "çİ»çĴĥæĢ»åħ¬åı¸": 3368,
      "æĮĸæİĺæľºæĢ»åħ¬åı¸": 3369,
      "åĻ¨æĿĲåĪ¶éĢłæľįåĬ¡ä¸Ńå¿ĥ": 3370,
      "çİ»çĴĥèĲ¥è¿Ĳéĥ¨": 3371,
      "ä¸Ŀç½ĳæĢ»åħ¬åı¸": 3372,
      "å§Ĩ": 3373,
      "æľºåĻ¨": 3374,
      "æ¯Ľçļ®æĢ»åħ¬åı¸": 3375,
      "Ġ\"": 3376,
      "æĮĸæİĺæľºæľīéĻĲåħ¬åı¸": 3377,
      "éĢļçĶ¨è®¾å¤ĩåĪ¶éĢłæľįåĬ¡ä¸Ńå¿ĥ": 3378,
      "å®¶åħ·åĪ¶éĢłæľįåĬ¡ä¸Ńå¿ĥ": 3379,
      "æĮĸæİĺæľºæľįåĬ¡ä¸Ńå¿ĥ": 3380,
      "åħ»æ®ĸèĲ¥è¿Ĳéĥ¨": 3381,
      "çĶµæ°Ķæľºæ¢°èĲ¥è¿Ĳéĥ¨": 3382,
      "æıı": 3383,
      "åİĨåı²": 3384,
      "è¯Ĺ": 3385,
      "æł¹": 3386,
      "åħ»æ®ĸæĢ»åħ¬åı¸": 3387,
      "ç»Ĵ": 3388,
      "æĸ¹å½¢": 3389,
      "éĩĳå±ŀåĪ¶éĢłæĢ»åħ¬åı¸": 3390,
      "ĠçĤ¹åĩ»": 3391,
      "ç¾½æ¯ĽèĲ¥è¿Ĳéĥ¨": 3392,
      "ç¾½æ¯ĽæľīéĻĲåħ¬åı¸": 3393,
      "åºŁå¼ĥèµĦæºĲç»¼åĲĪåĪ©çĶ¨æĢ»åħ¬åı¸": 3394,
      "æĭĨ": 3395,
      "çĶµæ°Ķæľºæ¢°æľīéĻĲåħ¬åı¸": 3396,
      "åĻ¨æĿĲåĪ¶éĢłèĲ¥è¿Ĳéĥ¨": 3397,
      "te": 3398,
      "éĩĳå±ŀåĪ¶éĢłæľįåĬ¡ä¸Ńå¿ĥ": 3399,
      "åįĪ": 3400,
      "æīĢå±ŀ": 3401,
      "çŁ³æĿĲæľįåĬ¡ä¸Ńå¿ĥ": 3402,
      "å¡ĳæĸĻåĪ¶åĵģæľįåĬ¡ä¸Ńå¿ĥ": 3403,
      "çººç»ĩä¸ļèĲ¥è¿Ĳéĥ¨": 3404,
      "Ġch": 3405,
      "Ġä¸įéĶĪéĴ¢": 3406,
      "ub": 3407,
      "çººç»ĩä¸ļæľįåĬ¡ä¸Ńå¿ĥ": 3408,
      "Ġç²¾": 3409,
      "éĢļçĶ¨è®¾å¤ĩåĪ¶éĢłæĢ»åħ¬åı¸": 3410,
      "å®¶åħ·åĪ¶éĢłèĲ¥è¿Ĳéĥ¨": 3411,
      "æī«": 3412,
      "å®¶åħ·åĪ¶éĢłæĢ»åħ¬åı¸": 3413,
      "éĢļçĶ¨è®¾å¤ĩåĪ¶éĢłèĲ¥è¿Ĳéĥ¨": 3414,
      "ä¼Ļ": 3415,
      "çŁ³æĿĲèĲ¥è¿Ĳéĥ¨": 3416,
      "éĻ¶çĵ·èĲ¥è¿Ĳéĥ¨": 3417,
      "49": 3418,
      "æ°´æŀľæī¹åıĳæĢ»åħ¬åı¸": 3419,
      "åĪ¶éŀĭæĢ»åħ¬åı¸": 3420,
      "å¡ĳæĸĻåĪ¶åĵģæĢ»åħ¬åı¸": 3421,
      "ke": 3422,
      "åĻ¨æĿĲåĪ¶éĢłæĢ»åħ¬åı¸": 3423,
      "ä¸Ŀç½ĳèĲ¥è¿Ĳéĥ¨": 3424,
      "æĿŁ": 3425,
      "èķ": 3426,
      "Ð¸": 3427,
      "æµģéĩı": 3428,
      "éĵ¶è¡Į": 3429,
      "å·¨": 3430,
      "æ°´æŀľæī¹åıĳæľįåĬ¡ä¸Ńå¿ĥ": 3431,
      "å¿«éĢŁ": 3432,
      "è®Ńç»ĥ": 3433,
      "åĨľä¸ļ": 3434,
      "èį·": 3435,
      "ĠçĶµ": 3436,
      "è¯¦ç»Ĩ": 3437,
      "é¸Ł": 3438,
      "ra": 3439,
      "è§ĦåĪĴ": 3440,
      "ãĥ»": 3441,
      "å¹´é«ĺ": 3442,
      "Ġco": 3443,
      "åĽºå®ļ": 3444,
      "é©°": 3445,
      "é¢ĨåŁŁ": 3446,
      "æł¡åĽŃ": 3447,
      "æ°´æŀľæī¹åıĳèĲ¥è¿Ĳéĥ¨": 3448,
      "è·¯çģ¯": 3449,
      "éĺ³åħī": 3450,
      "çĭĹ": 3451,
      "è®¨": 3452,
      "ä¾ĽåºĶåķĨ": 3453,
      "ç»ĺ": 3454,
      "èĻ¹": 3455,
      "èĴĻåı¤": 3456,
      "600": 3457,
      "æ¡ĥåĽŃ": 3458,
      "åĳ¨è¾¹": 3459,
      "è¯ķéªĮæľº": 3460,
      "çĽ¸ç°¿": 3461,
      "è¯įåħ¸": 3462,
      "çĽĨ": 3463,
      "éĺ²æĬ¤": 3464,
      "åıł": 3465,
      "åł¡": 3466,
      "éī": 3467,
      "éĹ¨çªĹ": 3468,
      "è¯Ĭ": 3469,
      "èŀºä¸Ŀ": 3470,
      "),": 3471,
      "çĹħ": 3472,
      "åªĴä½ĵ": 3473,
      "400": 3474,
      "æĿĢ": 3475,
      "Ġå¹¿å·ŀ": 3476,
      "Ġð": 3477,
      "ç»Łè®¡": 3478,
      "åĪ¸": 3479,
      "åĽ¢éĺŁ": 3480,
      "éĹ®é¢ĺ": 3481,
      "å¿µ": 3482,
      "Ġ17": 3483,
      "æĵ": 3484,
      "ang": 3485,
      "æĬ¥åĲį": 3486,
      "æ¨¡æĭŁ": 3487,
      "åħĭåĬĽ": 3488,
      "ç¿Ķ": 3489,
      "å®£ä¼ł": 3490,
      "éĽĨè£ħ": 3491,
      "è¿·": 3492,
      "é¡¾": 3493,
      "åĩł": 3494,
      "æ£Ģç´¢": 3495,
      "è°¢": 3496,
      "è·Ŀ": 3497,
      "ä¿¡åı·": 3498,
      "ç¾İé£Ł": 3499,
      "ix": 3500,
      "Ġæ¬¡": 3501,
      "æľŁè´§": 3502,
      "ä¹Ļçĥ¯": 3503,
      "ä¸ªäºº": 3504,
      "å±±åĮº": 3505,
      "å·¥ä½ľæľį": 3506,
      "ä¼ĺè´¨": 3507,
      "çĲĥéĺĢ": 3508,
      "åĿ¡": 3509,
      "æ²Ł": 3510,
      "sc": 3511,
      "56": 3512,
      "çŃĶæ¡Ī": 3513,
      "æĹłç¼Ŀ": 3514,
      "æĲľç´¢ç»ĵæŀľ": 3515,
      "éĢłåŀĭ": 3516,
      "ä»ĺ": 3517,
      "ower": 3518,
      "éľ²å¤©": 3519,
      "å®¶çĶ¨": 3520,
      "æĻºæħ§": 3521,
      "ç§¯åĪĨ": 3522,
      "åħļ": 3523,
      "åĴ¨è¯¢": 3524,
      "çŁ¥è¯Ĩ": 3525,
      "ç¨İ": 3526,
      "æ²Ļåıĳ": 3527,
      "å¸Ŀ": 3528,
      "æĽ´æĸ°æĹ¶éĹ´": 3529,
      "è¿°": 3530,
      "âĺħ": 3531,
      "ç¨³": 3532,
      "Ġæ¸ħ": 3533,
      "å®ĥ": 3534,
      "ä¸ĵå®¶": 3535,
      "åıĳè¡¨äºİ": 3536,
      "py": 3537,
      "åĲĥ": 3538,
      "è´¢åĬ¡": 3539,
      "èľĤ": 3540,
      "Ġå½ĵåīį": 3541,
      "ï¿½ï¿½ï¿½ï¿½ï¿½ï¿½": 3542,
      "åĽ½å®¶": 3543,
      "éī´": 3544,
      "44": 3545,
      "çĶµåŃĲç§ĳæĬĢæľīéĻĲåħ¬åı¸": 3546,
      "Ġä¸»é¡µ": 3547,
      "èī¯": 3548,
      "ä¸ĵåĪ©": 3549,
      "æĸ¹å¼ı": 3550,
      "Ġç¦ı": 3551,
      "ĠæĿ¥æºĲ": 3552,
      "ĠâĢĶ": 3553,
      "å¤ľ": 3554,
      "ts": 3555,
      "ç¬¬ä¸ī": 3556,
      "è¯¥": 3557,
      "èĤĥ": 3558,
      "Ġï¿½ï¿½": 3559,
      "èĽĭç³ķ": 3560,
      "åĵªå®¶å¥½": 3561,
      "åľ°åĿª": 3562,
      "59": 3563,
      "é«ĺçº§": 3564,
      "åŃ¦æľŁ": 3565,
      "èĳ¡": 3566,
      "å¸Į": 3567,
      "å¤©æ°Ķ": 3568,
      "åı°åįĹ": 3569,
      "éĻĦä»¶": 3570,
      "è±ªåįİ": 3571,
      "è¶£": 3572,
      "æĮ¡": 3573,
      "åį´": 3574,
      "æ¨¡åĿĹ": 3575,
      "éĶĲ": 3576,
      "æĸ°æ¬¾": 3577,
      "æľºæ¢°è®¾å¤ĩæľīéĻĲåħ¬åı¸": 3578,
      "ex": 3579,
      "éĶĭ": 3580,
      "Ġpro": 3581,
      "èĨı": 3582,
      "é¢Ĺ": 3583,
      "æıĲåįĩ": 3584,
      "èĩĤ": 3585,
      "åŀĭæĿĲ": 3586,
      "ç©¿": 3587,
      "æĤ¨å½ĵåīįä½įç½®": 3588,
      "äºĮæīĭè½¦": 3589,
      "å¹³æĿ¿": 3590,
      "Ġ100": 3591,
      "è¹": 3592,
      "çİ©åħ·": 3593,
      "58": 3594,
      "**": 3595,
      "åıĹ": 3596,
      "qu": 3597,
      "çİ°åľ¨": 3598,
      "éĻ¤å°ĺåĻ¨": 3599,
      "ç½ĳé¡µ": 3600,
      "150": 3601,
      "Ġä¸ĭä¸ĢæĿ¡": 3602,
      "47": 3603,
      "èŀºæĿĨ": 3604,
      "éĺģ": 3605,
      "sh": 3606,
      "icp": 3607,
      "æłĩé¢ĺ": 3608,
      "éľ²å¤©æĭįåįĸ": 3609,
      "æłħ": 3610,
      "42": 3611,
      "åī¯": 3612,
      "éĨĩ": 3613,
      "éĴī": 3614,
      "èµ·éĩį": 3615,
      "æŁı": 3616,
      "å¾ħ": 3617,
      "Ġ18": 3618,
      "åĮħè£ħæľº": 3619,
      "ç¢İæľº": 3620,
      "åĪł": 3621,
      "æļĤæĹł": 3622,
      "Ġ_": 3623,
      "æĺ¯ä»Ģä¹Ī": 3624,
      "æ¨ª": 3625,
      "304": 3626,
      "Ġè¿ĶåĽŀ": 3627,
      "ç»Ī": 3628,
      "å¹¼åĦ¿åĽŃ": 3629,
      "åħ±æľī": 3630,
      "æĳĨ": 3631,
      "æĪĴ": 3632,
      "ĠãĢĬ": 3633,
      "æĢ¥": 3634,
      "è®¾æĸ½": 3635,
      "å®¢åİħ": 3636,
      "åĸĦ": 3637,
      "åŃ¦å¹´åº¦": 3638,
      "æĪ¿å±ĭ": 3639,
      "æª": 3640,
      "43": 3641,
      "Ġ,": 3642,
      "è®¡ç®Ĺ": 3643,
      "kv": 3644,
      "ä¼°": 3645,
      "em": 3646,
      "åĿª": 3647,
      "æĻļ": 3648,
      "é«ĺéĽĦ": 3649,
      "å¤©çĦ¶": 3650,
      "Ġ+": 3651,
      "ç²ĺ": 3652,
      "Ġæ·±åľ³å¸Ĥ": 3653,
      "ç»Ħç»ĩ": 3654,
      "éĿ¢ç§¯": 3655,
      "æĮĩæķ°": 3656,
      "é¹ı": 3657,
      "ç»§": 3658,
      "åĽŀå¤į": 3659,
      "éĽĨè£ħç®±": 3660,
      "ĠçŁ³": 3661,
      "æ¤įçī©": 3662,
      "åı°åĮĹå¸Ĥ": 3663,
      "po": 3664,
      "Ġæľ«é¡µ": 3665,
      "èĥ¡": 3666,
      "æĮ¤": 3667,
      "æ°Ķä½ĵ": 3668,
      "å¹»": 3669,
      "åīįä½įç½®": 3670,
      "Ġz": 3671,
      "åĿĢ": 3672,
      "è¯Ħä»·": 3673,
      "åıĺåİĭåĻ¨": 3674,
      "ĠæŃ£": 3675,
      "åĮ»èį¯": 3676,
      "Ġä¾ĽåºĶ": 3677,
      "ä½İæ¸©": 3678,
      "çĭ¬": 3679,
      "Ġè¥¿": 3680,
      "çĨĬ": 3681,
      "51": 3682,
      "é¼ł": 3683,
      "çĥĺ": 3684,
      "åİĤå®¶çĽ´éĶĢ": 3685,
      "éĺ»": 3686,
      "çİ¯ä¿Ŀç§ĳæĬĢæľīéĻĲåħ¬åı¸": 3687,
      "Ġand": 3688,
      "ç²®": 3689,
      "ud": 3690,
      "æĬĽ": 3691,
      "çĶĺèĤĥ": 3692,
      ")(": 3693,
      "Ñĥ": 3694,
      "cc": 3695,
      "ine": 3696,
      "ãĢĳ_": 3697,
      "æ±¡æ°´å¤ĦçĲĨ": 3698,
      "ä»·æł¼è¡Įæĥħ": 3699,
      "åĪĻ": 3700,
      "å®¡": 3701,
      "èĻ«": 3702,
      "2012": 3703,
      "ç¤¾ä¼ļ": 3704,
      "ä¸ĵèĲ¥": 3705,
      "Ġæ´»åĬ¨": 3706,
      "éĶĻ": 3707,
      "æĮ¯åĬ¨": 3708,
      "æīĩ": 3709,
      "ĠåķĨåĵģ": 3710,
      "æķ°åŃĹ": 3711,
      "æ°´åĻ¨": 3712,
      "æłĳèĦĤ": 3713,
      "åħ¶å®ĥ": 3714,
      "é¤Ĳé¥®": 3715,
      "åİĭç¼©": 3716,
      "åĽł": 3717,
      "å¤§åĪ©": 3718,
      "æĹĭè½¬": 3719,
      "èĤ¤": 3720,
      "æīĺçĽĺ": 3721,
      "é¥ŃåºĹ": 3722,
      "ç§»éĻ¤": 3723,
      "è´¸æľīéĻĲåħ¬åı¸": 3724,
      "âĪ": 3725,
      "èĳĹ": 3726,
      "èĻİ": 3727,
      "äº²": 3728,
      "äºĭåĬ¡": 3729,
      "åĨ·åį´": 3730,
      "æ³³": 3731,
      "åħīçĶµ": 3732,
      "ä¹ĭå®¶": 3733,
      "è§£åĨ³æĸ¹æ¡Ī": 3734,
      "Ġä»·æł¼": 3735,
      "ĠæĪĳ": 3736,
      "èĢĹ": 3737,
      "åıĳéŁ³": 3738,
      "éħ±": 3739,
      "åĪłéĻ¤": 3740,
      "Ġä¸ľ": 3741,
      "éĺ´": 3742,
      "å¯¼èĪª": 3743,
      "åĬłçĥŃ": 3744,
      "é¡µéĿ¢": 3745,
      "éļĲ": 3746,
      "æµľ": 3747,
      "å¤§åİ¦": 3748,
      "åĨħèĴĻåı¤": 3749,
      "ä¿¡çĶ¨": 3750,
      "Ð½": 3751,
      "Ġ19": 3752,
      "æĭĸ": 3753,
      "Ġä½ľèĢħ": 3754,
      "éĵŃ": 3755,
      "ä¼¸ç¼©": 3756,
      "¼ĸ": 3757,
      "ç²¾éĢī": 3758,
      "Ġåħ¬": 3759,
      "å¯ĵ": 3760,
      "çº¿è·¯": 3761,
      "Ġæ¯ıé¡µ": 3762,
      "èľľ": 3763,
      "æ¸©åº¦": 3764,
      "æĶ¹éĢł": 3765,
      "Ġè·³": 3766,
      "åıĤèĢĥ": 3767,
      "Ġæ°´": 3768,
      "cn": 3769,
      "æķ°çłģ": 3770,
      "ĠçĪ": 3771,
      "ai": 3772,
      "è¯Ńæĸĩ": 3773,
      "Ġçľ": 3774,
      "ç¾İå¼ı": 3775,
      "Ġåīįå¾Ģ": 3776,
      "è°ĥèĬĤ": 3777,
      "ÑĤ": 3778,
      "èĲĦ": 3779,
      "0000": 3780,
      "åħ¨æĸĩ": 3781,
      "é¢Ŀ": 3782,
      "è´Ł": 3783,
      "Ġpower": 3784,
      "æŁĲ": 3785,
      "æī¶": 3786,
      "æłĩå¿Ĺ": 3787,
      "æŁĵ": 3788,
      "é¾Ļæ±Ł": 3789,
      "ä½ıå®ħ": 3790,
      "ä¸»è¦ģ": 3791,
      "æ¯ĶèµĽ": 3792,
      "éħįå¥Ĺ": 3793,
      "èĤĸ": 3794,
      "å¾ģ": 3795,
      "ä¸ĵèĲ¥åºĹ": 3796,
      "tr": 3797,
      "ord": 3798,
      "ï¿½_": 3799,
      "Ġ]": 3800,
      "ok": 3801,
      "åıĳå±ķæľīéĻĲåħ¬åı¸": 3802,
      "icpå¤ĩ": 3803,
      "ä¼Ļä¼´": 3804,
      "é¡¿": 3805,
      "å¤§ä¼Ĺ": 3806,
      "åĢĻ": 3807,
      "èĴ¸æ±½": 3808,
      "å¤ĸå¢Ļ": 3809,
      "æľºç»Ħ": 3810,
      "æĿĤå¿Ĺ": 3811,
      "è£Ļ": 3812,
      "åıĺé¢ĳ": 3813,
      "å°ıæĹ¶": 3814,
      "Ġ13": 3815,
      "æĶ¯æŀ¶": 3816,
      "Ġæĺ¾ç¤º": 3817,
      "æĸ°åŀĭ": 3818,
      "up": 3819,
      "åģ¥èº«": 3820,
      "ç¼ĸåı·": 3821,
      "å±ķåİħ": 3822,
      "åĿĩ": 3823,
      "Ġ2016": 3824,
      "Ġi": 3825,
      "æ¬£èµı": 3826,
      "æ°´ç®±": 3827,
      "Ġ09": 3828,
      "ĠæĿ¡è®°å½ķ": 3829,
      "å¹¶": 3830,
      "æĪ¿äº§ç½ĳ": 3831,
      "å°Ĭ": 3832,
      "åĪļ": 3833,
      "Ġèĩª": 3834,
      "åĮĸå¦Ĩ": 3835,
      "å²¸": 3836,
      "æµģç¨ĭ": 3837,
      "Ñģ": 3838,
      "æ¡Įæ¤ħ": 3839,
      "è£ħä¿®è®¾è®¡": 3840,
      "95": 3841,
      "åĬ¨çī©": 3842,
      "éĢļé£İ": 3843,
      "çķ¥": 3844,
      "è¿Ī": 3845,
      "logo": 3846,
      "ä¹ħ": 3847,
      "vi": 3848,
      "çģŃ": 3849,
      "è®¾å¤ĩåİĤå®¶": 3850,
      "èĢĢ": 3851,
      "é¦Ī": 3852,
      "800": 3853,
      "å·¾": 3854,
      "æĪª": 3855,
      "çĳ°": 3856,
      "æİĴåĲį": 3857,
      "æ·ĺ": 3858,
      "æ¥¼å±Ĥ": 3859,
      "éĢĴ": 3860,
      "éĶ»": 3861,
      "ly": 3862,
      "åį¸": 3863,
      "å½ĵåīįæīĢåľ¨ä½įç½®": 3864,
      "æ´ª": 3865,
      "ç¿ł": 3866,
      "æĪ·åŀĭ": 3867,
      "å§ĭ": 3868,
      "ä¸Ģä½ĵåĮĸ": 3869,
      "ĠæµĻæ±Ł": 3870,
      "å¾·åĽ½": 3871,
      "å¾ĭå¸Ī": 3872,
      "èĳ¡èĲĦ": 3873,
      "èĮĥåĽ´": 3874,
      "åĮĹæ¬§": 3875,
      "èĢĲç£¨": 3876,
      "åĮ»åŃ¦": 3877,
      "Ġéľ²å¤©æĭįåįĸ": 3878,
      "Ġ2017": 3879,
      "ĠåĪĹè¡¨": 3880,
      "Ġå±±ä¸ľ": 3881,
      "èĥĮæĻ¯": 3882,
      "52": 3883,
      "åµ": 3884,
      "æĺĨå±±": 3885,
      "1000": 3886,
      "å¸ģ": 3887,
      "è½¦åŀĭ": 3888,
      "ï¿½|": 3889,
      "Ġå¼Ģ": 3890,
      "å¥¢": 3891,
      "éĢıæĺİ": 3892,
      "èĪªç©º": 3893,
      "çĶľ": 3894,
      "åı¯ä»¥": 3895,
      "è¾Ĭ": 3896,
      "æİĴåºı": 3897,
      "çŃĭ": 3898,
      "éĨĽ": 3899,
      "ĠçĥŃ": 3900,
      "èĸ°": 3901,
      "uv": 3902,
      "çĸĨ": 3903,
      "2011": 3904,
      "èĪ°": 3905,
      "æĸ°æµª": 3906,
      "åħ¬è·¯": 3907,
      "å¯¹ä¸Ģ": 3908,
      "ä¹Ł": 3909,
      "çİĦ": 3910,
      "ng": 3911,
      "äºĽ": 3912,
      "ä»Ĭ": 3913,
      "åŁ¹è®ŃåŃ¦æł¡": 3914,
      "æľŁæĿĥ": 3915,
      "æ°ĳå®¿": 3916,
      "Ġå·²çĶ±": 3917,
      "æ¸ħåįķç§»éĻ¤": 3918,
      "Ġå·²çĶ±æ¸ħåįķç§»éĻ¤": 3919,
      "è¯ķé¢ĺ": 3920,
      "æľºæ¢°åĪ¶éĢłæľīéĻĲåħ¬åı¸": 3921,
      "ĠæŁ¥çľĭ": 3922,
      "ç¢ĳ": 3923,
      "pg": 3924,
      "åĩºçīĪ": 3925,
      "èĤ¡ç¥¨": 3926,
      "du": 3927,
      "é»ĳé¾Ļæ±Ł": 3928,
      "ds": 3929,
      "æĬĬ": 3930,
      "ÑĢ": 3931,
      "ia": 3932,
      "Ġì": 3933,
      "å©ļçº±": 3934,
      "å°ıè¯´": 3935,
      "åĪ¶åĨ·": 3936,
      "è½©": 3937,
      "æ¨¡å¼ı": 3938,
      "âĦ": 3939,
      "çģĮè£ħ": 3940,
      "ç¤¼çĽĴ": 3941,
      "ä½ľä¸ļ": 3942,
      "Ġpowered": 3943,
      "æ°´ç®¡": 3944,
      "éŁµ": 3945,
      "ĠåĵģçīĮ": 3946,
      "åĨ¶": 3947,
      "Ġ@": 3948,
      "è´Ńä¹°": 3949,
      "pre": 3950,
      "è·¨": 3951,
      "art": 3952,
      "Ġé¡µæ¬¡": 3953,
      "æµĭéĩı": 3954,
      "gb": 3955,
      "æ°¢": 3956,
      "é¹¿": 3957,
      "85": 3958,
      "Ġå½ĵåīįä½įç½®": 3959,
      "ve": 3960,
      "ä¼ı": 3961,
      "éħ·": 3962,
      "çķĻè¨Ģ": 3963,
      "å®¶åºŃ": 3964,
      "éĴĽ": 3965,
      "è¾°": 3966,
      "æ©±": 3967,
      "109": 3968,
      "æłĵ": 3969,
      "åį§å®¤": 3970,
      "é«ĺä¸Ń": 3971,
      "ç»³": 3972,
      "67": 3973,
      "è´¸æĺĵæľīéĻĲåħ¬åı¸": 3974,
      "îī": 3975,
      "åıįåºĶ": 3976,
      "æĸ°èĥ½æºĲ": 3977,
      "äº¬ä¸ľ": 3978,
      "è¤": 3979,
      "åºĵåŃĺ": 3980,
      "çĨĶ": 3981,
      "ç½ĳä¸Ĭ": 3982,
      "åĩºåı£": 3983,
      "æī¾åĪ°": 3984,
      "bs": 3985,
      "Â¥": 3986,
      "çĵľ": 3987,
      "æľºåľº": 3988,
      "è§ī": 3989,
      "ç½ĳæĺĵ": 3990,
      "è¯Ħä¼°": 3991,
      "èĥº": 3992,
      "Ġæ±½è½¦": 3993,
      "åıĳçĶµæľºç»Ħ": 3994,
      "èĨľç»ĵæŀĦ": 3995,
      "éľ¸": 3996,
      "èī²": 3997,
      "è¶ħå£°": 3998,
      "æ°®": 3999,
      "åĽŃåĮº": 4000,
      "åĳĺå·¥": 4001,
      "ä¸Ģé¡µ": 4002,
      "pt": 4003,
      "æĸľ": 4004,
      "æľºåİĤå®¶": 4005,
      "åĪĨç«Ļ": 4006,
      "åīĳ": 4007,
      "åķ¶": 4008,
      "==": 4009,
      "åľ°çĤ¹": 4010,
      "cl": 4011,
      "åķĨçĶ¨": 4012,
      "ä¸Ĭä¼ł": 4013,
      "å¹¸": 4014,
      "æ··åĲĪ": 4015,
      "äººæ°Ķ": 4016,
      "æĩ": 4017,
      "æĹŃ": 4018,
      "çºªå½ķ": 4019,
      "ï¿½ï¿½ï¿½ï¿½ï¿½ï¿½ï¿½ï¿½ï¿½ï¿½ï¿½ï¿½ï¿½ï¿½ï¿½ï¿½": 4020,
      "Ģã": 4021,
      "æī§è¡Į": 4022,
      "57": 4023,
      "æķ´ä½ĵ": 4024,
      "no": 4025,
      "ĩĥ": 4026,
      "å®¢è½¦": 4027,
      "è¡£æŁľ": 4028,
      "å¾¡": 4029,
      "æĥħåĨµ": 4030,
      "ä¸ĸçºª": 4031,
      "çĤ¹è¯Ħ": 4032,
      "hd": 4033,
      "æłıæĿĨ": 4034,
      "çĸ«": 4035,
      "çī¹ç§į": 4036,
      "Ġè½¬åĪ°": 4037,
      "åľĨå½¢": 4038,
      "68": 4039,
      "æļ¨": 4040,
      "çİ¯æ°§": 4041,
      "é»Ħéĩĳ": 4042,
      "è´·æ¬¾": 4043,
      "è¿Ľè¡Į": 4044,
      "å¹³éĿ¢": 4045,
      "å¥Ķ": 4046,
      "æĸ¹æ³ķ": 4047,
      "åı¥": 4048,
      "Ġæ·±åľ³": 4049,
      "åį§å¼ı": 4050,
      "cd": 4051,
      "æĻ¨": 4052,
      "Ġ30": 4053,
      "ä¼ĺç§Ģ": 4054,
      "æ²¡æľīäºĨ": 4055,
      "çľŁé¢ĺ": 4056,
      "æĭ·": 4057,
      "ä¼¯": 4058,
      "åŁİåĮº": 4059,
      "èĢģå¸Ī": 4060,
      "éĴ»çŁ³": 4061,
      "è·Łè´´": 4062,
      "çĽ´æµģ": 4063,
      "åĵģè´¨": 4064,
      "2010": 4065,
      "çıįçıł": 4066,
      "Ġåħ±æľī": 4067,
      "æµĵ": 4068,
      "çĽ¸åĨĮ": 4069,
      "Ġåįİ": 4070,
      "éģĵè·¯": 4071,
      "ç½ĳæĺĵè·Łè´´": 4072,
      "åħ¬å¯ĵ": 4073,
      "åĮł": 4074,
      "ç¡®": 4075,
      "æº¶": 4076,
      "å¸Ĩ": 4077,
      "çĭ®": 4078,
      "å¹³æĸ¹": 4079,
      "gl": 4080,
      "ĠæĢ»": 4081,
      "å¹¿å·ŀå¸Ĥ": 4082,
      "ie": 4083,
      "ç²¾åĵģ": 4084,
      "ff": 4085,
      "çŃĸåĪĴ": 4086,
      "seo": 4087,
      "ä¿Ŀåģ¥": 4088,
      "èŀºçº¹": 4089,
      "be": 4090,
      "ä»¤": 4091,
      "ĠçĹ": 4092,
      "éĩĳèŀį": 4093,
      "ç©ºåİĭæľº": 4094,
      "åĶ±": 4095,
      "èµł": 4096,
      "è°Ī": 4097,
      "åıįé¦Ī": 4098,
      "æĮĩåįĹ": 4099,
      "----": 4100,
      "éļĶæĸŃ": 4101,
      "sk": 4102,
      "åĪº": 4103,
      "ç¢Ĺ": 4104,
      "é½¿": 4105,
      "home": 4106,
      "åĪĨç¦»": 4107,
      "åŁĭ": 4108,
      "-ãĢĲ": 4109,
      "77": 4110,
      "é¥®æĸĻ": 4111,
      "èı±": 4112,
      "ak": 4113,
      "åĮºåŁŁ": 4114,
      "æķĻç¨ĭ": 4115,
      "Ġ&": 4116,
      "æ²«": 4117,
      "æĹłçº¿": 4118,
      "åķĨæłĩ": 4119,
      "åı³": 4120,
      "53": 4121,
      "é¢Ĺç²Ĵ": 4122,
      "Ġæĸĩ": 4123,
      "ĠÂ©": 4124,
      "Ġ->": 4125,
      "æŃ¤é¡µ": 4126,
      "çĩķ": 4127,
      "åıĳçĶŁ": 4128,
      "98": 4129,
      "çĺ": 4130,
      "Ġå·¥ç¨ĭæ¡Īä¾ĭ": 4131,
      "ç¥Ŀ": 4132,
      "èĭ¹": 4133,
      "çĢ¹": 4134,
      "èĬ³": 4135,
      "è¯ķåīĤ": 4136,
      "å¸ĤæĶ¿": 4137,
      "éĶĤ": 4138,
      "åĩºåĶ®": 4139,
      "è¶³çĲĥ": 4140,
      "å®´": 4141,
      "cr": 4142,
      "æĹ©": 4143,
      "æ¡©": 4144,
      "èİ«": 4145,
      "éĤ¢èĸ°": 4146,
      "ue": 4147,
      "å®«": 4148,
      "æ¥¼çĽĺ": 4149,
      "æ¶²æĻ¶": 4150,
      "ĠçĲ": 4151,
      "èµŀ": 4152,
      "Ġfor": 4153,
      "éĵ¾æİ¥": 4154,
      "Ġ2015": 4155,
      "è£ħé¥°å·¥ç¨ĭæľīéĻĲåħ¬åı¸": 4156,
      "hoo": 4157,
      "Ġ21": 4158,
      "çĽĳæµĭ": 4159,
      "çĽĪ": 4160,
      "è¾ĵéĢģæľº": 4161,
      "Ġéĺħè¯»": 4162,
      "é©±åĬ¨ä¸ĭè½½": 4163,
      "ä¿ĥ": 4164,
      "å½Ĵ": 4165,
      "æ´ŀ": 4166,
      "å¡ĺ": 4167,
      "ç¢§": 4168,
      "åĭ¤": 4169,
      "åŃĹä½ĵ": 4170,
      "æĪĲåŀĭ": 4171,
      "ĠçĻ½": 4172,
      "2000": 4173,
      "å½°": 4174,
      "Ġä¸ĭ": 4175,
      "ç¯·": 4176,
      "åħĶ": 4177,
      "ä¼łåªĴ": 4178,
      "Ġæĺ¾ç¤ºåħ¨éĥ¨": 4179,
      "èĪį": 4180,
      "è£ķ": 4181,
      "aa": 4182,
      "èĦī": 4183,
      "çİ«": 4184,
      "åĲ¹": 4185,
      "ç¦¾": 4186,
      "ç§¤": 4187,
      "ç»ķ": 4188,
      "åĹ": 4189,
      "54": 4190,
      "åĩĮ": 4191,
      "çĶµåĻ¨æľīéĻĲåħ¬åı¸": 4192,
      "è½§": 4193,
      "çĶµçº¿": 4194,
      "ä¸ĵé¢ĺ": 4195,
      "æ·ĭ": 4196,
      "ĠèĩªåĬ¨": 4197,
      "è¾£": 4198,
      "Ð¾Ð": 4199,
      "å®¢æĪ·æ¡Īä¾ĭ": 4200,
      "Ġse": 4201,
      "ii": 4202,
      "âĨĴ": 4203,
      "ç²¾çģµ": 4204,
      "ĠåĽĽ": 4205,
      "è¯ī": 4206,
      "å®Ĺ": 4207,
      "éĵ£": 4208,
      "èĲ¥ä¸ļ": 4209,
      "åİŁæĸĻ": 4210,
      "Ġth": 4211,
      "åĲĪä½ľä¼Ļä¼´": 4212,
      "æĬ±": 4213,
      "æīĭå·¥": 4214,
      "æĭ¿": 4215,
      "right": 4216,
      "åĬŀåħ¬å®¶åħ·": 4217,
      "Ġå¼ł": 4218,
      "ä¸ĵçº¿": 4219,
      "ĠæĹ¶éĹ´": 4220,
      "æīĵåį°æŃ¤é¡µ": 4221,
      "»çķ": 4222,
      "è¶ħå£°æ³¢": 4223,
      "rc": 4224,
      "æİ§åĪ¶åĻ¨": 4225,
      "å¸ĸ": 4226,
      "äºĭåĬ¡æīĢ": 4227,
      "sm": 4228,
      "æĲ¬å®¶": 4229,
      "æ®Ĭ": 4230,
      "æķ°éĩı": 4231,
      "ĠçĪ±": 4232,
      "èĩªæ²»": 4233,
      "æ±¡æ°´": 4234,
      "ä½İåİĭ": 4235,
      "ĠâĨ": 4236,
      "è¶ħå¸Ĥ": 4237,
      "ik": 4238,
      "æĶ¶èĹı": 4239,
      "èĭ¹æŀľ": 4240,
      "ä»ĵåĤ¨": 4241,
      "æĸ¤æĭ·": 4242,
      "Ġä¸į": 4243,
      "ĠçĻ¾": 4244,
      "å¼ĺ": 4245,
      "ĠåŃ¦": 4246,
      "ä¸¨": 4247,
      "Ġç©": 4248,
      "æ£Ģæµĭä»ª": 4249,
      "ä¼ļè®¡": 4250,
      "åį«çĶŁéĹ´": 4251,
      "åĻ¨æ¢°": 4252,
      "ç»¿åĮĸ": 4253,
      "ĠæĬĢæľ¯": 4254,
      "åģ¶": 4255,
      "æ¥¼æ¢¯": 4256,
      "ong": 4257,
      "å¾ª": 4258,
      "ä¸ľé£İ": 4259,
      "æĿ¿æĿĲ": 4260,
      "è®ºæĸĩ": 4261,
      "çī©çĲĨ": 4262,
      "èĢĮ": 4263,
      "Ġæµıè§Īæ¬¡æķ°": 4264,
      "Ġä¸»": 4265,
      "å®ŀä¸ļ": 4266,
      "ä¸Ĭè¡£": 4267,
      "ĠçīĪæĿĥæīĢæľī": 4268,
      "å·´å·´": 4269,
      "åĲįåįķ": 4270,
      "æŁĶ": 4271,
      "çģ«è½¦": 4272,
      "108": 4273,
      "çİ°ä»£ç®Ģçº¦": 4274,
      "å¯Ĩçłģ": 4275,
      "ç£ħ": 4276,
      "æĹ¶ä»£": 4277,
      "è®¨è®º": 4278,
      "æģĭ": 4279,
      "ĠÂ¥": 4280,
      "èģļæ°¨": 4281,
      "é»ı": 4282,
      "æ¯¯": 4283,
      "ĠæĿ¡": 4284,
      "ahoo": 4285,
      "æĦĢ": 4286,
      "æĦıè§ģ": 4287,
      "iz": 4288,
      "Ġç¡": 4289,
      "ä¸¸": 4290,
      "ta": 4291,
      "å£¶": 4292,
      "éĺ»ç": 4293,
      "å®ŀç»©": 4294,
      "æĬĺåıł": 4295,
      "Ġæ±Łèĭı": 4296,
      "åĨ·åĨ»": 4297,
      "ls": 4298,
      "åįģäºĮ": 4299,
      "âĢ¦": 4300,
      "æ±½è½¦ç«Ļ": 4301,
      "åħĪçĶŁ": 4302,
      "ĠèĬ±": 4303,
      "éľĩ": 4304,
      "åħ¬å¼Ģ": 4305,
      "æĦ¿": 4306,
      "!!": 4307,
      "ŀå®¢": 4308,
      "éħ¸éĴ": 4309,
      "ĠæľįåĬ¡": 4310,
      "ç±į": 4311,
      "è®¾ç½®": 4312,
      "ç»£": 4313,
      "åħ¨çĲĥ": 4314,
      "ç¯®çĲĥ": 4315,
      "æľĪä»½": 4316,
      "èĲ¥éĶĢ": 4317,
      "æ¡¥æŀ¶": 4318,
      "è¡ĮæĶ¿": 4319,
      "Ġæĺ¾ç¤ºåħ¨éĥ¨æ¥¼å±Ĥ": 4320,
      "çī§": 4321,
      "æĸ¯çī¹": 4322,
      "pyright": 4323,
      "ç§ĳçłĶ": 4324,
      "å®Ī": 4325,
      "we": 4326,
      "å©ļæĳĦ": 4327,
      "å¸ķ": 4328,
      "»çķ¥": 4329,
      "å·®": 4330,
      "åŁ¹åħ»": 4331,
      "æĹĹèĪ°": 4332,
      "br": 4333,
      "çĽ®åīį": 4334,
      "ç¨¿": 4335,
      "pro": 4336,
      "Ġéķ¿": 4337,
      "è®¿éĹ®": 4338,
      "å®¹åĻ¨": 4339,
      "èľ¡": 4340,
      "æĶ»çķ¥": 4341,
      "æĲŃå»º": 4342,
      "Ġå·¥ç¨ĭ": 4343,
      "ŀå®¢éĤ¦": 4344,
      "èģļæ°¨éħ¯": 4345,
      "èĩŃ": 4346,
      "ĢæĶĢ": 4347,
      "ä¸Ģä½ĵæľº": 4348,
      "ä¾¿æĲº": 4349,
      "éĩľ": 4350,
      "ä¸Ĭå¸Ĥ": 4351,
      "é«ĺæĸ°": 4352,
      "æ¡£æ¡Ī": 4353,
      "ck": 4354,
      "Ġæ²³åįĹ": 4355,
      "åħħçĶµ": 4356,
      "æł¼å¼ı": 4357,
      "ĠçĹŀå®¢éĤ¦": 4358,
      "å«": 4359,
      "Ġçº¢": 4360,
      "è´§è¿Ĳ": 4361,
      "ĠéĩįåºĨ": 4362,
      "est": 4363,
      "pr": 4364,
      "éĵĥ": 4365,
      "çī¹æ®Ĭ": 4366,
      "hy": 4367,
      "éĹª": 4368,
      "éħįçĶµ": 4369,
      "æĿľ": 4370,
      "åĩ°": 4371,
      "åĪĩåī²æľº": 4372,
      "by": 4373,
      "åħ¬ç¤º": 4374,
      "åĺħ": 4375,
      "ld": 4376,
      "èµĦè´¨èį£èªī": 4377,
      "æī©": 4378,
      "Ġé¦ĸ": 4379,
      "éķģ": 4380,
      "è¶ħçº§": 4381,
      "Ġyahoo": 4382,
      "åĢĴ": 4383,
      "ä¸Ńçī¹": 4384,
      "åĨ·åºĵ": 4385,
      "éĶ¥": 4386,
      "å¹´é«ĺä¸ī": 4387,
      "æ³¡æ²«": 4388,
      "çĨŁ": 4389,
      "å²ģ": 4390,
      "æł¼æłħ": 4391,
      "æ°´æĻ¶": 4392,
      "æīĢå±ŀåĪĨç±»": 4393,
      "è¡Įè½¦": 4394,
      "ĠåįĹ": 4395,
      "é»İ": 4396,
      "åĩ¡": 4397,
      "æķĳ": 4398,
      "Ġde": 4399,
      "åįļå®¢": 4400,
      "ç®¡ä»¶": 4401,
      "é«ĺç«¯": 4402,
      "Ġ00": 4403,
      "éĩįåŀĭ": 4404,
      "æĤ¬": 4405,
      "åłĨ": 4406,
      "ä¼ĺåĮĸ": 4407,
      "âĢ¢": 4408,
      "åĩıéĢŁ": 4409,
      "æĭĵå±ķ": 4410,
      "é©¶": 4411,
      "åħ¬éĩĮ": 4412,
      "åĮĹå¸Ĥ": 4413,
      "æĲľå¯»ç»ĵæŀľ": 4414,
      "Ġåľ°": 4415,
      "å°ĸ": 4416,
      "å®¤åĨħè®¾è®¡": 4417,
      "ĠæĽ´æĸ°æĹ¶éĹ´": 4418,
      "å¨ľ": 4419,
      "è¾ħå¯¼": 4420,
      "å¼§": 4421,
      "ä¹ĲåĽŃ": 4422,
      "æĦıæĢĿ": 4423,
      "åĪĽä¸ļ": 4424,
      "é©¾æł¡": 4425,
      "ä»ĵåºĵ": 4426,
      "vd": 4427,
      "å¾Ī": 4428,
      "çĽĹ": 4429,
      "åĽ½åĨħ": 4430,
      "éĢĢ": 4431,
      "æķı": 4432,
      "å¹¿ä¸ľçľģ": 4433,
      "Ġå¤©æ´¥": 4434,
      "å¨ĥ": 4435,
      "net": 4436,
      "äºĮæīĭæĪ¿": 4437,
      "æĳĩ": 4438,
      "±ä¹Ĳ": 4439,
      "çĤĴ": 4440,
      "æĪ´": 4441,
      "ou": 4442,
      "å¸®åĬ©": 4443,
      "èĩªçĦ¶": 4444,
      "æ¦ĤåĨµ": 4445,
      "éģ¥": 4446,
      "sd": 4447,
      "éĺ¿éĩĮå·´å·´": 4448,
      "éĽ¶ä»¶": 4449,
      "140": 4450,
      "ä¸īéĢļ": 4451,
      "æĿ¿å¼ı": 4452,
      "Ġç½ĳç«Ļé¦ĸé¡µ": 4453,
      "ä¿Ŀåħ»": 4454,
      "æīĵåĮħ": 4455,
      "69": 4456,
      "æĢ¡": 4457,
      "åĩ½": 4458,
      "å®¢è¿Ĳ": 4459,
      "ack": 4460,
      "æııè¿°": 4461,
      "çĶŁçī©ç§ĳæĬĢæľīéĻĲåħ¬åı¸": 4462,
      "æĻ¯åĮº": 4463,
      "çĤ¼": 4464,
      "æ³¢çº¹": 4465,
      "âĨĲ": 4466,
      "çĶµè¯Ŀ": 4467,
      "ç§ĺ": 4468,
      "åıĳçĶŁåĻ¨": 4469,
      "è¯ķåį·": 4470,
      "ãĪ": 4471,
      "æĬ¤çĲĨ": 4472,
      "æĪĲæŀľ": 4473,
      "å¾ªçİ¯": 4474,
      ":ãĢĲ": 4475,
      "é¢ĳéģĵ": 4476,
      "çİ«çĳ°": 4477,
      "å¤§å°ı": 4478,
      "èĵĦ": 4479,
      "åįģä¸Ģ": 4480,
      "ç¼ĸè¾ĳ": 4481,
      "Ġèĭ±": 4482,
      "Ġê": 4483,
      "çĶ²åŁº": 4484,
      "ä¸ŃèĢĥ": 4485,
      "æĸ°æĿĲæĸĻ": 4486,
      "bl": 4487,
      "::": 4488,
      "åıĳè´§": 4489,
      "sl": 4490,
      "ä¸Ģä¸ª": 4491,
      "ä¸Ńå±±å¸Ĥ": 4492,
      "éĺ¶": 4493,
      "è²": 4494,
      "æĻŁ": 4495,
      "Ġå·¥ä¸ļ": 4496,
      "åĿĲ": 4497,
      "æĻĵ": 4498,
      "âĦĥ": 4499,
      "èĪ¬": 4500,
      "ä»¶å¥Ĺ": 4501,
      "ers": 4502,
      "ty": 4503,
      "èĥ½åĬĽ": 4504,
      "åį°èĬ±": 4505,
      "å·¥ä½ľå®¤": 4506,
      "åı¤åħ¸": 4507,
      "å®¸": 4508,
      "ä»ķ": 4509,
      "ä¸ĩåħĥ": 4510,
      "åİŁåĪĽ": 4511,
      "ĠäºĮ": 4512,
      "åĬ¨æľº": 4513,
      "åĩ¤åĩ°": 4514,
      "åŃĹæ¯į": 4515,
      "__": 4516,
      "Ġç±": 4517,
      "éĿĻçĶµ": 4518,
      "åİĤåķĨ": 4519,
      "çģ¯åħ·": 4520,
      "éĿŀæłĩ": 4521,
      "ä½ĵéªĮ": 4522,
      "ä¼º": 4523,
      "Ġåħ¨éĥ¨": 4524,
      "ate": 4525,
      "æ²»çĲĨ": 4526,
      "îĬ": 4527,
      "èĥ¶å¸¦": 4528,
      "om": 4529,
      "æĻ¯çĤ¹": 4530,
      "Ġ$": 4531,
      "å¼Ĺ": 4532,
      "Ġ50": 4533,
      "æµ£": 4534,
      "nt": 4535,
      "å®Ŀå®Ŀ": 4536,
      "are": 4537,
      "ï¿½ï¿½ï¿½ï¿½ï¿½ï¿½ï¿½": 4538,
      "og": 4539,
      "Ġç´": 4540,
      "éĿ¢æĿ¿": 4541,
      "av": 4542,
      "å°¼æĸ¯": 4543,
      "èİī": 4544,
      "ç§Łè½¦": 4545,
      "é»ĺ": 4546,
      "æľºè½¦": 4547,
      "å¤±": 4548,
      "250": 4549,
      "èµ¢": 4550,
      "æ°´æ³µ": 4551,
      "éĢĨ": 4552,
      "de": 4553,
      "Ġç¬": 4554,
      "æ¯ķä¸ļ": 4555,
      "´Ģ": 4556,
      "çĶ¨æ³ķ": 4557,
      "å®ģå¤ı": 4558,
      "æ©±æŁľ": 4559,
      "89": 4560,
      "Ġç³": 4561,
      "Ġç½ĳç«Ļ": 4562,
      "ĠçŁ": 4563,
      "Ġäººæ°Ķæİ¨èįĲ": 4564,
      "76": 4565,
      "çĻ¾åº¦": 4566,
      "æŁĦ": 4567,
      "èģĮä½į": 4568,
      "æĶ¶çº³": 4569,
      "86": 4570,
      "æ£ĢéªĮ": 4571,
      "æķ°ä½į": 4572,
      "åįĩéĻįæľº": 4573,
      "è¾Ĩ": 4574,
      "fr": 4575,
      "èŁ": 4576,
      "pu": 4577,
      "å¢ĻæĿ¿": 4578,
      "copyright": 4579,
      "âĸ": 4580,
      "ĠæłĩçŃ¾": 4581,
      ").": 4582,
      "Ġæ¸ħéĻ¤": 4583,
      "ĠäºĶ": 4584,
      "ç¿¼": 4585,
      "ç¾İæľ¯": 4586,
      "åı°ä¸Ńå¸Ĥ": 4587,
      "ç¬¦": 4588,
      "æµ·æĬ¥": 4589,
      "èµĦæł¼": 4590,
      "ä¸ĵåįĸ": 4591,
      "é«ĺæķĪ": 4592,
      "éĢļè®¯": 4593,
      "ç§Ĵ": 4594,
      "tv": 4595,
      "æ¢¨": 4596,
      "çĶ²éĨĽ": 4597,
      "ge": 4598,
      "æľºç³»åĪĹ": 4599,
      "èĻ¾": 4600,
      "ä¼ºæľį": 4601,
      "ä¸ºæĤ¨": 4602,
      "éħįç½®": 4603,
      "Ġis": 4604,
      "Ġç§¯åĪĨ": 4605,
      "å¤ĸå¥Ĺ": 4606,
      "åľŁå·¥": 4607,
      "éĢģåĻ¨": 4608,
      "èĴĤ": 4609,
      "å±ķåı°": 4610,
      "Ġ2014": 4611,
      "âĹı": 4612,
      "ĠåĬł": 4613,
      "419": 4614,
      "ç²ª": 4615,
      "zh": 4616,
      "åģı": 4617,
      "ç½ĳè·¯": 4618,
      "Ġåı¯": 4619,
      "ç¡ħèĥ¶": 4620,
      "ll": 4621,
      "ç¡ķå£«": 4622,
      "å¸Ĳ": 4623,
      "æ¡¥æ¢ģ": 4624,
      "ä¿Ĭ": 4625,
      "Ġåħ³äºİæĪĳä»¬": 4626,
      "åıĮå±Ĥ": 4627,
      "çĥ·": 4628,
      "Ġçł": 4629,
      "éį": 4630,
      "èħ°": 4631,
      "çĽĳæİ§": 4632,
      "ç¨ĭåºı": 4633,
      "åĨľæĿĳ": 4634,
      "é¢Ħè®¢": 4635,
      "æ¤Ģ": 4636,
      "å§ĵ": 4637,
      "é¾ĻéĹ¨": 4638,
      "doc": 4639,
      "log": 4640,
      "éĺ»çĩĥ": 4641,
      "æµ·æ´ĭ": 4642,
      "äº§åĵģä»ĭç»į": 4643,
      "all": 4644,
      "æ»´": 4645,
      "ä»ªåĻ¨æľīéĻĲåħ¬åı¸": 4646,
      "æ»¤èĬ¯": 4647,
      "æĺ¾ç¤ºå±ı": 4648,
      "åĲįè¯į": 4649,
      "äººåĳĺ": 4650,
      "åĢį": 4651,
      "å½ĵåīįæĿ¡ä»¶": 4652,
      "ĠåĨħ": 4653,
      "è´¹çĶ¨": 4654,
      "ice": 4655,
      "åıĳåĬ¨æľº": 4656,
      "ç¬¬åĽĽ": 4657,
      "æ¸£": 4658,
      "ite": 4659,
      "æĸ°ä¸Ńå¼ı": 4660,
      "ft": 4661,
      "å¥ı": 4662,
      "123": 4663,
      "çŁ©": 4664,
      "Ġäº§åĵģä»ĭç»į": 4665,
      "æ¶¦æ»ĳ": 4666,
      "æłĩè¯Ĩ": 4667,
      "å£¹": 4668,
      "éļĶèĨľ": 4669,
      "åįļå£«": 4670,
      "çªĿ": 4671,
      "æµł": 4672,
      "Ġéĩį": 4673,
      "éĶ¯": 4674,
      "æĶ»": 4675,
      "æµģéĩıè®¡": 4676,
      "Ġtr": 4677,
      "èµµ": 4678,
      "å¤©åľ°": 4679,
      "åĪĨéĴŁ": 4680,
      "Ġled": 4681,
      "æľ±": 4682,
      "èĭĹæľ¨": 4683,
      "di": 4684,
      "è£ħä¿®æ¡Īä¾ĭ": 4685,
      "âİ": 4686,
      "åħīä¼ı": 4687,
      "Ġåħįè´¹": 4688,
      "åĪĨåħ¬åı¸": 4689,
      "è®¾è®¡æľīéĻĲåħ¬åı¸": 4690,
      "æĬĽåħī": 4691,
      "æĸĻæľº": 4692,
      "çŁ¿çĶ¨": 4693,
      "å²ĹäºŃ": 4694,
      "åºŃéĻ¢": 4695,
      "so": 4696,
      "é¾Ļå¤´": 4697,
      "Ġå»ºçŃĳ": 4698,
      "åı°å¼ı": 4699,
      "åĺīä¹ī": 4700,
      "éħįéĢģ": 4701,
      "é«ĺèĢĥ": 4702,
      "é¬": 4703,
      "åĨ·æ°´æľº": 4704,
      "æľµ": 4705,
      "ä¸ŃåĽ½": 4706,
      "åįķæĿ¿": 4707,
      "çĮ®": 4708,
      "äº§åĵģåĪĨç±»": 4709,
      "æ¼Ķç¤º": 4710,
      "æĶ¹è£ħ": 4711,
      "æľºæ¢°è®¾å¤ĩ": 4712,
      "ppt": 4713,
      "å¸Ń": 4714,
      "âĢķ": 4715,
      "èģĶçĽŁ": 4716,
      "åıĺéĢģåĻ¨": 4717,
      "Ġå®ī": 4718,
      "æģ¤": 4719,
      "è¯ķéªĮç®±": 4720,
      "å·¥è£ħ": 4721,
      "åĿ¤": 4722,
      "çĥŃçĶµ": 4723,
      "æĭ¼æİ¥": 4724,
      "Ġæĸ°éĹ»": 4725,
      "ä¹¦æ³ķ": 4726,
      "æľºåĻ¨äºº": 4727,
      "æ³ķå¾ĭ": 4728,
      "dd": 4729,
      "61": 4730,
      "ĠåĬŀåħ¬": 4731,
      "å¤§éĹ¨": 4732,
      "è¾ĥ": 4733,
      "ĠçĶµåŃĲ": 4734,
      "è¯ģåĪ¸": 4735,
      "ç¦»åŃĲ": 4736,
      "åĽĬ": 4737,
      "åı£ç¢ĳ": 4738,
      "è¯Ńè¨Ģ": 4739,
      "Ġ22": 4740,
      "ĠâĨĴ": 4741,
      "ä¸²": 4742,
      "ä¼į": 4743,
      "èĿ¶éĺĢ": 4744,
      "ib": 4745,
      "åķĨè´¸æľīéĻĲåħ¬åı¸": 4746,
      "æĹıèĩªæ²»": 4747,
      "åħ¬äº¤": 4748,
      "æĹłéĶ¡å¸Ĥ": 4749,
      "éªı": 4750,
      "èĲ¥åħ»": 4751,
      "æģĴæ¸©": 4752,
      "éĹ®çŃĶ": 4753,
      "çģ«éĶħ": 4754,
      "çĶ¨éĢĶ": 4755,
      "ä¹Ķ": 4756,
      "Ġle": 4757,
      "çĲĨè´¢": 4758,
      "63": 4759,
      "åĪĩæį¢": 4760,
      "è¡¬è¡«": 4761,
      "èŀºæłĵ": 4762,
      "ĠæĺŁ": 4763,
      "ä¿Ŀå®ī": 4764,
      "éĵ¸éĢł": 4765,
      "Ġæľī": 4766,
      "å¹ķå¢Ļ": 4767,
      "æĴŃæĶ¾": 4768,
      "åį¢": 4769,
      "ç¼ĵ": 4770,
      "Ġä¸ĭè½½": 4771,
      "ï¿½^": 4772,
      "åģľè½¦": 4773,
      "æħĪ": 4774,
      "åŀĤ": 4775,
      "å°ĳå¹´": 4776,
      "Ġå¤ĸ": 4777,
      "è½¦åºĬ": 4778,
      "åħ¨æĸĩæ£Ģç´¢": 4779,
      "é¥²æĸĻ": 4780,
      "åįī": 4781,
      "ĠåĽ¾çīĩ": 4782,
      "æľºçĶµç§ĳæĬĢæľīéĻĲåħ¬åı¸": 4783,
      "åĪĨåŃĲ": 4784,
      "æį¢çĥŃåĻ¨": 4785,
      "æīĭåĨĮ": 4786,
      "mb": 4787,
      "å·¥åľ°": 4788,
      "ä¸Ńæµ·": 4789,
      "çĿ¿": 4790,
      "åĲĦç§į": 4791,
      "è¿·ä½ł": 4792,
      "æ¼Ģ": 4793,
      "éĢ¸": 4794,
      "Ġçı": 4795,
      "éĺ²çģ«éĹ¨": 4796,
      "è¾Ľ": 4797,
      "è¡¨æ¼Ķ": 4798,
      "ç²¤": 4799,
      "Ġå¤ļ": 4800,
      "dn": 4801,
      "åĪ®": 4802,
      "é«ĺæ¸ħ": 4803,
      "ç¢Ł": 4804,
      "ĠéĴ¢": 4805,
      "ç«ĭä½ĵ": 4806,
      "åĮ»çĶŁ": 4807,
      "è´¤": 4808,
      "æľªæĿ¥": 4809,
      "éĢļè¿ĩ": 4810,
      "çĻ¾ç§ĳ": 4811,
      "æĪĲåĵģ": 4812,
      "ç¬ĳ": 4813,
      "Ġè·³è½¬åĪ°": 4814,
      "ãģ®": 4815,
      "èŀºæ¯į": 4816,
      "å¼¹": 4817,
      "Ġå¾®": 4818,
      "èĲĮ": 4819,
      "éĩĬ": 4820,
      "ä¼ĳæģ¯": 4821,
      "æ¤Ĵ": 4822,
      "101": 4823,
      "çģ¶": 4824,
      "é©±åĬ¨ç²¾çģµ": 4825,
      "åıĮéĿ¢": 4826,
      "-ï¿½": 4827,
      "æ²»çĸĹ": 4828,
      "æ²ī": 4829,
      "æľĢåĲİ": 4830,
      "duct": 4831,
      "éĵĤ": 4832,
      "å°±ä¸ļ": 4833,
      "ant": 4834,
      "af": 4835,
      "ðŁ": 4836,
      "Ġç©º": 4837,
      "æĳ¸": 4838,
      "çĽ¸æľº": 4839,
      "æĪªæŃ¢": 4840,
      "æľŁåĪĬ": 4841,
      "):": 4842,
      "æĸ°åĵģ": 4843,
      "æĿ¥èĩª": 4844,
      "âĹĨ": 4845,
      "æĭľ": 4846,
      "çĻ»è®°": 4847,
      "çº½": 4848,
      "æ¸¸ä¹Ĳ": 4849,
      "ä¸Ńç©º": 4850,
      "Ġu": 4851,
      "éĽķåĪ»": 4852,
      "è®¢åĪ¶": 4853,
      "å®ŀæĻ¯": 4854,
      "001": 4855,
      "ãĢĳãĢĲ": 4856,
      "é¢ľ": 4857,
      "è§Ĥåħī": 4858,
      "å·¡": 4859,
      "éĥ¨åĪĨ": 4860,
      "åıĳåħī": 4861,
      "èĤ©": 4862,
      "Ġ2013": 4863,
      "æĦŁåºĶ": 4864,
      "cs": 4865,
      "èĳ£": 4866,
      "ĠæĮī": 4867,
      "èµ·éĩįæľº": 4868,
      "ne": 4869,
      "æŃ£åľ¨": 4870,
      "æĸ°ç«¹": 4871,
      "éħ°": 4872,
      "hk": 4873,
      "å··": 4874,
      "æĸ°çĸĨ": 4875,
      "é©¾é©¶": 4876,
      "çĶŁäº§è®¾å¤ĩ": 4877,
      "å§Ķåĳĺ": 4878,
      "æĦıå¤§åĪ©": 4879,
      "ä¸ļç»©": 4880,
      "åĽ¾ä¹¦é¦Ĩ": 4881,
      "è¦Ĩ": 4882,
      "åĲĪæĪĲ": 4883,
      "æ³¨å¡ĳ": 4884,
      "åİĭç¼©æľº": 4885,
      "èĬ¬": 4886,
      "Ġé»Ħ": 4887,
      "è¯įæ±ĩ": 4888,
      "ver": 4889,
      "å¤§çĲĨçŁ³": 4890,
      "ort": 4891,
      "æŀ«": 4892,
      "èģĮä¸ļæĬĢæľ¯": 4893,
      "åį¡éĢļ": 4894,
      "æ±Łèĭıçľģ": 4895,
      "æķĻæİĪ": 4896,
      "èĢĹæĿĲ": 4897,
      "age": 4898,
      "210": 4899,
      "è·ĥ": 4900,
      "åŃ£åº¦": 4901,
      "ish": 4902,
      "æīģ": 4903,
      "dm": 4904,
      "çŃīçº§": 4905,
      "åĿļ": 4906,
      "èģĶåĲĪ": 4907,
      "åĮ»çĶ¨": 4908,
      "å¸ĪèĮĥ": 4909,
      "çłĶåıĳ": 4910,
      "éĽĨæĪĲ": 4911,
      "äºļåħĭåĬĽ": 4912,
      "å±±ä¸ľçľģ": 4913,
      "é³": 4914,
      "aw": 4915,
      "Â©": 4916,
      "åŁĶ": 4917,
      "Ġ...": 4918,
      "æľįé¥°": 4919,
      "éĵĿåįķæĿ¿": 4920,
      ");": 4921,
      "îĺ": 4922,
      "ĠæĪĳåľ¨": 4923,
      "åĬ±": 4924,
      "ä¸Ļçĥ¯": 4925,
      "åĵªäºĽ": 4926,
      "ä¹ĺ": 4927,
      "cæ¢°": 4928,
      "éĵģè·¯": 4929,
      "åŃ¦æľ¯": 4930,
      "Ġè½¦": 4931,
      "Ġç¤": 4932,
      "æ¸Ģ": 4933,
      "æ²³åįĹçľģ": 4934,
      "os": 4935,
      "ä½ıå®¿": 4936,
      "å¹¸ç¦ı": 4937,
      "Ġæĸ¹å½¢": 4938,
      "çĤŃ": 4939,
      "Ġ23": 4940,
      "å¹³è¡¡": 4941,
      "éĵ¸éĵģ": 4942,
      "åĶ®åĲİ": 4943,
      "åħŃè§Ĵ": 4944,
      "éĿĴå¹´": 4945,
      "ies": 4946,
      "æĬĢèĥ½": 4947,
      "è¯¢ä»·": 4948,
      "è®¡ç®Ĺæľº": 4949,
      "è¿ŀæİ¥åĻ¨": 4950,
      "å½¢è±¡": 4951,
      "çº¸ç®±": 4952,
      "ç¬¼": 4953,
      "å¤©æ´¥å¸Ĥ": 4954,
      "Ġå¸¸": 4955,
      "å·¥ç¨ĭå¸Ī": 4956,
      "çĸı": 4957,
      "æ½¢": 4958,
      "Ġåıĳè¡¨äºİ": 4959,
      "ç¹": 4960,
      "çĤ¹åĩ»æ¬¡æķ°": 4961,
      "ure": 4962,
      "èĢ³çİ¯": 4963,
      "mg": 4964,
      "ç»µ": 4965,
      "åĪ¶èį¯": 4966,
      "æ²¹çĥŁ": 4967,
      "å¿«ä¹Ĳ": 4968,
      "äº®åĮĸ": 4969,
      "æłĹ": 4970,
      "åĮĻ": 4971,
      "ms": 4972,
      "ard": 4973,
      "å¤ĸå£³": 4974,
      "åłµ": 4975,
      "78": 4976,
      "äºī": 4977,
      "éĺ³åı°": 4978,
      "æīĵåį°æľº": 4979,
      "æ£®æŀĹ": 4980,
      "åĬ¨æ¼«": 4981,
      "åŁĥ": 4982,
      "åŃ©": 4983,
      "ç¢±": 4984,
      "ä»¿åı¤": 4985,
      "è®¸åı¯": 4986,
      "éĩįå·¥": 4987,
      "Ġar": 4988,
      "è¿Ľåħ¥": 4989,
      "ç£·": 4990,
      "èĶ¡": 4991,
      "å¯Ĵ": 4992,
      "æĦıè§ģåıįé¦Ī": 4993,
      "èĮ¨": 4994,
      "æłĭ": 4995,
      "è¸ı": 4996,
      "ys": 4997,
      "çĲĢ": 4998,
      "éĿĴæµ·": 4999,
      "å¼¯å¤´": 5000,
      "Ġ08": 5001,
      "åįķåıĮ": 5002,
      "äºĭä¸ļ": 5003,
      "ax": 5004,
      "ä¿Ŀæ´ģ": 5005,
      "æķħäºĭ": 5006,
      "åĤ¬": 5007,
      "ç½ĳåĿĢ": 5008,
      "çİ¯çĲĥ": 5009,
      "åľŁåľ°": 5010,
      "æŀķ": 5011,
      "é¢ĦæĬ¥": 5012,
      "å½±çīĩ": 5013,
      "Ġçĳ": 5014,
      "Ġæ²³åĮĹ": 5015,
      "çī©èµĦ": 5016,
      "åį·å¸ĺ": 5017,
      "äº¨": 5018,
      "ĠæľĢæĸ°": 5019,
      "ìĿ": 5020,
      "æ²¥": 5021,
      "æľºçĶµè®¾å¤ĩæľīéĻĲåħ¬åı¸": 5022,
      "106": 5023,
      "Ġæ¬§": 5024,
      "éľľ": 5025,
      "ep": 5026,
      "å°¼é¾Ļ": 5027,
      "çħ§çīĩ": 5028,
      "è¿½": 5029,
      "è¡Ĺéģĵ": 5030,
      "dj": 5031,
      "ä¼ļæīĢ": 5032,
      "æ°´è®¾å¤ĩ": 5033,
      "åľ°éĵģ": 5034,
      "æľºç¥¨": 5035,
      "åħ¨æĸĩæ£Ģç´¢æĲľç´¢ç»ĵæŀľ": 5036,
      "åĭĩ": 5037,
      "èĦ¸": 5038,
      "éĩĳå±ŀåĪ¶åĵģæľīéĻĲåħ¬åı¸": 5039,
      "æ±ģ": 5040,
      "Ġ?": 5041,
      "å¿«éĢĴ": 5042,
      "è·Ŀç¦»": 5043,
      "îĭ": 5044,
      "åħµ": 5045,
      "æİ¨å¹¿": 5046,
      "èķ¾": 5047,
      "Ġé©¬": 5048,
      "107": 5049,
      "çŀ": 5050,
      "Ġå¹¿ä¸ľ": 5051,
      "è¯ļä¿¡": 5052,
      "åŃ¦å¹´": 5053,
      "ĠéŁ©": 5054,
      "çĶ°åĽŃ": 5055,
      "èļĢ": 5056,
      "åħ¬åħ±": 5057,
      "dc": 5058,
      "åº¦åģĩ": 5059,
      "æ³Ĭ": 5060,
      "tæģ¤": 5061,
      "ug": 5062,
      "ãĥ¼": 5063,
      "æµ·å¤ĸ": 5064,
      "æįĲ": 5065,
      "å£ģçº¸": 5066,
      "çł´ç¢İæľº": 5067,
      "æ¸ħæ´Ĺæľº": 5068,
      "Ġä¸ĵä¸ļ": 5069,
      "ks": 5070,
      "è£ħä¿®åħ¬åı¸": 5071,
      "è¡ĮåĬ¨": 5072,
      "çİ»": 5073,
      "èĮ¶åı¶": 5074,
      "é¢Ħçº¦": 5075,
      "æĺ¯ä»Ģä¹ĪæĦıæĢĿ": 5076,
      "åĿ¦": 5077,
      "ity": 5078,
      "çº¿æĿ¡": 5079,
      "220": 5080,
      "æ·¡": 5081,
      "è½»å¥¢": 5082,
      "çĸĹ": 5083,
      "ky": 5084,
      "çľ¼éķľ": 5085,
      "åĨ·èĹı": 5086,
      "æĲ¬è¿Ĳ": 5087,
      "ive": 5088,
      "å±ıé£İ": 5089,
      "ĠâĢ¢": 5090,
      "å¤©ä¸ĭ": 5091,
      "180": 5092,
      "Ġæ°¸": 5093,
      "Ġ24": 5094,
      "åŀĥåľ¾æ¡¶": 5095,
      "èİİ": 5096,
      "æķ£çĥŃåĻ¨": 5097,
      "å¤įåı¤": 5098,
      "ĠÂ·": 5099,
      "è®¡éĩı": 5100,
      "åıĪ": 5101,
      "op": 5102,
      "ĠéĻĪ": 5103,
      "çĶµçĥŃ": 5104,
      "ĠåİŁ": 5105,
      "ah": 5106,
      "ry": 5107,
      "çłĶç©¶çĶŁ": 5108,
      "éĵģèīº": 5109,
      "æķ¬": 5110,
      "éĥ¨ä»¶": 5111,
      "Ħ²": 5112,
      "Ġç³»": 5113,
      "åħ¨æĸ°": 5114,
      "éļ§": 5115,
      "åįĩçº§": 5116,
      "ĠçĶŁ": 5117,
      "çļ®å¸¦": 5118,
      "Ġåı°": 5119,
      "åħīåŃ¦": 5120,
      "é«ĺç©º": 5121,
      "Ġç¼ĸ": 5122,
      "Ġcon": 5123,
      "hz": 5124,
      "åŀĭéĴ¢": 5125,
      "å®ŀçĶ¨": 5126,
      "72": 5127,
      "å½°åĮĸ": 5128,
      "Ġå·´": 5129,
      "å±¯": 5130,
      "è®¾è®¡åħ¬åı¸": 5131,
      "éļĶç¦»": 5132,
      "/ãİ¡": 5133,
      "æ²¿": 5134,
      "Ġåħĥ": 5135,
      "ç¦ģ": 5136,
      "æ··æĲŃ": 5137,
      "å¤ıåŃ£": 5138,
      "ĠåĪĨç±»": 5139,
      "çĶµç«Ļ": 5140,
      "åħĪè¿Ľ": 5141,
      "çŁŃè¢ĸ": 5142,
      "xx": 5143,
      "2009": 5144,
      "é¦ĸé¡µä¸Ĭä¸Ģé¡µ": 5145,
      "åįķåħĥ": 5146,
      "ä¼ŀ": 5147,
      "å¤ªå¹³": 5148,
      "é£İæīĩ": 5149,
      "bb": 5150,
      "åĶ¯": 5151,
      "åİ¢": 5152,
      "åĨ¶éĩĳ": 5153,
      "èµ°è¿Ľ": 5154,
      "åİĤåĮº": 5155,
      "ĠçĶµåĬ¨": 5156,
      "å·±": 5157,
      "ç¬¬åįģ": 5158,
      "çĵ·çłĸ": 5159,
      "æĦıè§ģåıįé¦ĪæĦıè§ģåıįé¦Ī": 5160,
      "ç²¾åįİ": 5161,
      "åİķ": 5162,
      "vr": 5163,
      "åĢŁæ¬¾": 5164,
      "å½±è§Ĩ": 5165,
      "è§¦æĳ¸": 5166,
      "td": 5167,
      "å¥Ķé©°": 5168,
      "Ġä¹¦": 5169,
      "è£ħéħį": 5170,
      "é¬¼": 5171,
      "Ð°Ð": 5172,
      "çĶ¨äºİ": 5173,
      "æ¯«": 5174,
      "ĠæīĢæľī": 5175,
      "æĪĲå¥Ĺ": 5176,
      "åºŁæ°Ķ": 5177,
      "Ġbe": 5178,
      "Ġon": 5179,
      "åİ¨åħ·": 5180,
      "é¡¾éĹ®": 5181,
      "æĭīéĵ¾": 5182,
      "åĨ·åį´å¡Ķ": 5183,
      "ĠæĿŃå·ŀ": 5184,
      "ign": 5185,
      "Ġä¸Ģå¯¹ä¸Ģ": 5186,
      "'s": 5187,
      "è¾ĵåħ¥": 5188,
      "æ¨±": 5189,
      "è½¦è¾Ĩ": 5190,
      "Ġå¹´": 5191,
      "å°Ķå¤«": 5192,
      "éļ¾": 5193,
      "çī©ä¸ļ": 5194,
      "ess": 5195,
      "Ġå®ĺç½ĳ": 5196,
      "æĮĩå¯¼": 5197,
      "å¤§æ£ļ": 5198,
      "æ´Ĺè¡£": 5199,
      "çłĶç©¶æīĢ": 5200,
      "ĠâĢ§": 5201,
      "çİ¯ä¿Ŀè®¾å¤ĩæľīéĻĲåħ¬åı¸": 5202,
      "Ġè¶ħ": 5203,
      "å¥ĩæĳ©": 5204,
      "æī³": 5205,
      "çĽ¾": 5206,
      "åħīçº¤": 5207,
      "è¦ģæ±Ĥ": 5208,
      "åĲ¦": 5209,
      "Ġë": 5210,
      "çĶ»åĨĮ": 5211,
      "nba": 5212,
      "èĤĮ": 5213,
      "äººæīįç½ĳ": 5214,
      "è°ĥèĬĤéĺĢ": 5215,
      "è£ħæ½¢": 5216,
      "åŁ¹è®ŃçıŃ": 5217,
      "åıįåºĶéĩľ": 5218,
      "æīİ": 5219,
      "Ġéĺ¿": 5220,
      "è§Ĩè§ī": 5221,
      "è¥¿æľį": 5222,
      "ä¼ģä¸ļæĸĩåĮĸ": 5223,
      "åģ¿": 5224,
      "åĩĢåĮĸåĻ¨": 5225,
      "Ġæĸ¹å½¢b": 5226,
      "éĴ³": 5227,
      "é¹ħ": 5228,
      "èĬ±åįī": 5229,
      "va": 5230,
      "Ġan": 5231,
      "æ¶²ä½į": 5232,
      "105": 5233,
      "éĵħ": 5234,
      "æ¸Ķ": 5235,
      "ä¸ĵåįĸåºĹ": 5236,
      "éĶ¤": 5237,
      "ĠæŀĹ": 5238,
      "æĿ¿åİĤå®¶": 5239,
      "fl": 5240,
      "æİ§èĤ¡": 5241,
      "èĪĴéĢĤ": 5242,
      "éĢĤçĶ¨äºİ": 5243,
      "åħ¬æĸ¤": 5244,
      "åĢº": 5245,
      "åħ¥åı£": 5246,
      "ä¼¤": 5247,
      "åĮ»çĸĹåĻ¨æ¢°": 5248,
      "ä¸Ĭä¼łèĢħ": 5249,
      "å±ħå®¶": 5250,
      "æĳĦåĥı": 5251,
      "130": 5252,
      "èĲ§": 5253,
      "ç»ľ": 5254,
      "èıĩ": 5255,
      "Ġ25": 5256,
      "æ¸Ĺ": 5257,
      "èĵ¬": 5258,
      "æµĭå®ļ": 5259,
      "å¢ĵ": 5260,
      "æĹĹèĪ°åºĹ": 5261,
      "ç¿¡": 5262,
      "èĥĮæĻ¯å¢Ļ": 5263,
      "Ġé»ĳ": 5264,
      "æ¶²ä½ĵ": 5265,
      "èĢ³æľº": 5266,
      "ç»ĥä¹ł": 5267,
      "éļ§éģĵ": 5268,
      "ç»ĵæĿŁ": 5269,
      "åĵªéĩĮ": 5270,
      "çģĮè£ħæľº": 5271,
      "èĦīåĨ²": 5272,
      "ä¸ĭä¸Ģé¡µå°¾é¡µ": 5273,
      "Ġè·³è½¬åĪ°ç¬¬": 5274,
      "æĺĬ": 5275,
      "æİĴè¡Įæ¦ľ": 5276,
      "èµĽäºĭ": 5277,
      "Ġè½¬": 5278,
      "Ġæīĭ": 5279,
      "æĸĩåŃ¦": 5280,
      "æ³¨æĦı": 5281,
      "å¯Ħ": 5282,
      "éĩįçĤ¹": 5283,
      "æ±½è½¦ç¥¨": 5284,
      "åĲ¯åĬ¨": 5285,
      "79": 5286,
      "îĮ": 5287,
      "èĪĸ": 5288,
      "åº§æ¤ħ": 5289,
      "è£ģ": 5290,
      "hs": 5291,
      "Ġç¬Ķ": 5292,
      "å¨ģå°¼æĸ¯": 5293,
      "ind": 5294,
      "Ġq": 5295,
      "åµĮ": 5296,
      "çµ": 5297,
      "çº¢å¤ĸ": 5298,
      "éļĶçĥŃ": 5299,
      "å¤įå¼ı": 5300,
      "eb": 5301,
      "æĸ°æµªæ±½è½¦": 5302,
      "çĦĻ": 5303,
      "çĶµæµģ": 5304,
      "éĶļ": 5305,
      "èģļä¹Ļçĥ¯": 5306,
      "èĩªçĶ±": 5307,
      "åĲĪåĲĮ": 5308,
      "åıĳæ³¡": 5309,
      "æĬĵ": 5310,
      "æĸ°åĮº": 5311,
      "åĨ°ç®±": 5312,
      "å¸Ĥä¸Ń": 5313,
      "èİ·å¾Ĺ": 5314,
      "èģĮä¸ļè£ħ": 5315,
      "çĶµç«ŀ": 5316,
      "åŁ¹è®Ńè¯¾ç¨ĭ": 5317,
      "Ġyahooå¥ĩæĳ©": 5318,
      "ä¸¾æĬ¥": 5319,
      "è°ľ": 5320,
      "Ġè¡Įä¸ļ": 5321,
      "éĥ½å¸Ĥ": 5322,
      "âĢĭ": 5323,
      "åıĳè¡¨æĹ¶éĹ´": 5324,
      "è¯¯": 5325,
      "Ġçļ": 5326,
      "å¤©æ°Ķé¢ĦæĬ¥": 5327,
      "ç®¡æĿĲ": 5328,
      "Ġä¸ĩ": 5329,
      "åº¦è®¡": 5330,
      "æįŁ": 5331,
      "Ġvs": 5332,
      "æ¶Īè´¹": 5333,
      "é¡ºå¾·": 5334,
      "Ġèĭıå·ŀ": 5335,
      "å®ľåħ°": 5336,
      ",ï¿½": 5337,
      "èģĶç½ĳ": 5338,
      "æĳĺ": 5339,
      "åħ¨ç½ĳ": 5340,
      "Ġçī¹": 5341,
      "éĺ²èħĲæľ¨": 5342,
      "ĠæĪĲéĥ½": 5343,
      "åħ³äºİæĪĳä»¬": 5344,
      "ĠåįĹäº¬": 5345,
      "è¯´æĺİä¹¦": 5346,
      "ãĢİ": 5347,
      "Ġé£İ": 5348,
      "ãĦ§": 5349,
      "mc": 5350,
      "åĲĭ": 5351,
      "çĥĪ": 5352,
      "ãĥ³": 5353,
      "ĠçŃ": 5354,
      "çģ¯ç®±": 5355,
      "è²Į": 5356,
      "dæ¨¡åŀĭ": 5357,
      "å±ħå®¤": 5358,
      "åħ»çĶŁ": 5359,
      "Ġåľ¨": 5360,
      "å¥Ĺé¤Ĳ": 5361,
      "yz": 5362,
      "çĶµåİĭ": 5363,
      "ĠæľĢåĲİ": 5364,
      "éģ¥æİ§": 5365,
      "åĵģæľīéĻĲåħ¬åı¸": 5366,
      "åĨįçĶŁ": 5367,
      "ç¼ł": 5368,
      "æĹłç¼ĿéĴ¢ç®¡": 5369,
      "èĨ¨": 5370,
      "åĤ¨ç½Ĳ": 5371,
      "vo": 5372,
      "ä¸»æľº": 5373,
      "åĲĪä¸Ģ": 5374,
      "åĽ¾ä¹¦ä¸ĵèĲ¥åºĹ": 5375,
      "Ġen": 5376,
      "äººçī©": 5377,
      "dl": 5378,
      "å®ĭ": 5379,
      "ore": 5380,
      "ç«ŀèµĽ": 5381,
      "ç®Ķ": 5382,
      "åĪĿä¸Ń": 5383,
      "pa": 5384,
      "åŃĻ": 5385,
      "xl": 5386,
      "éģ®éĺ³": 5387,
      "lect": 5388,
      "èĪŀåı°": 5389,
      "å¿Ĩ": 5390,
      "æł·æĿ¿": 5391,
      "Ġus": 5392,
      "è½¬è®©": 5393,
      "çĭĲ": 5394,
      "Ġho": 5395,
      "Ġpl": 5396,
      "Ġro": 5397,
      "é¡µæ¬¡": 5398,
      "ĠåĴĮ": 5399,
      "æĭĨéĻ¤": 5400,
      "ĠçĮ": 5401,
      "Ġun": 5402,
      "Ġlo": 5403,
      "ãĢı": 5404,
      "ç»ŀ": 5405,
      "83": 5406,
      "åįļçī©": 5407,
      "åľ°ç£ħ": 5408,
      "ä¸ªæľĪ": 5409,
      "åĽ½å°ı": 5410,
      "æĬ¢": 5411,
      "ç¤ºèĮĥ": 5412,
      "æĭħ": 5413,
      "æ¾¶": 5414,
      "ĠåĪĨäº«": 5415,
      "uz": 5416,
      "ç¿°": 5417,
      "mw": 5418,
      "å½±åĥı": 5419,
      "æķ¦": 5420,
      "Ġåį¡": 5421,
      "æµ¸": 5422,
      "éĶŁ": 5423,
      "å¸ĥè¢ĭ": 5424,
      "åĿĳ": 5425,
      "ĠæŃ£æĸĩ": 5426,
      "????": 5427,
      "ä¿Ŀéļľ": 5428,
      "æħķ": 5429,
      "æ±ŁéĹ¨å¸Ĥ": 5430,
      "Ġpix": 5431,
      "å®ŀåĬĽ": 5432,
      "ä¸īè§Ĵ": 5433,
      "åļ": 5434,
      "çıŃçīĻ": 5435,
      "å½ķåĥı": 5436,
      "æ¶²åİĭæľº": 5437,
      "éĥ¨éĹ¨": 5438,
      "æ¡ĳ": 5439,
      "éħµ": 5440,
      "åħ½": 5441,
      "å®³": 5442,
      "éľĢè¦ģ": 5443,
      "èģĬå¤©": 5444,
      "å¤§éģĵ": 5445,
      "èĥŀ": 5446,
      "åºĹéĵº": 5447,
      "èĽĭçĻ½": 5448,
      "æ·Ģ": 5449,
      "ä¾¿æĲºå¼ı": 5450,
      "æĬ¥èŃ¦": 5451,
      "éĢļéģĵ": 5452,
      "æĪªæŃ¢éĺĢ": 5453,
      ":ï¿½": 5454,
      "æ³¢çº¹ç®¡": 5455,
      "å®īæİĴ": 5456,
      "åĬłçĥŃåĻ¨": 5457,
      "æĢ»æĪĲ": 5458,
      "hop": 5459,
      "æī¶æīĭ": 5460,
      "æľŁæĿĥæľŁè´§": 5461,
      "160": 5462,
      "æ³ķå¼ı": 5463,
      "æĤ¨å½ĵåīįæīĢåľ¨ä½įç½®": 5464,
      "è®²åº§": 5465,
      "Ġå®īå¾½": 5466,
      "å²©æ£ī": 5467,
      "æ³Ľ": 5468,
      "å¼łå®¶æ¸¯": 5469,
      "ç§ĳæĬĢåıĳå±ķæľīéĻĲåħ¬åı¸": 5470,
      "Ġå¾·": 5471,
      "é£İç®¡": 5472,
      "yl": 5473,
      "Ġ#": 5474,
      "æ±¡æ°´å¤ĦçĲĨè®¾å¤ĩ": 5475,
      "ĠçĶ·": 5476,
      "éģĩ": 5477,
      "ĠâĪ": 5478,
      "æĺİæĺŁ": 5479,
      "ä¾ł": 5480,
      "èĥĢ": 5481,
      "Ġäºļ": 5482,
      "èĵĿçīĻ": 5483,
      "ns": 5484,
      "62": 5485,
      "ist": 5486,
      "èĩªåĬ©": 5487,
      "ese": 5488,
      "éĺĢéĹ¨æľīéĻĲåħ¬åı¸": 5489,
      "Ġæľ¨": 5490,
      "æ±ĩæĢ»": 5491,
      "é¤Ĳåħ·": 5492,
      "åĻª": 5493,
      "Ġåº·": 5494,
      "ä¹Ŀé¾Ļ": 5495,
      "ä¼łåĬ¨": 5496,
      "å¤§èµĽ": 5497,
      "åķĨå®¶": 5498,
      "æīŃ": 5499,
      "å¦ĩ": 5500,
      "æĿı": 5501,
      "èĻļ": 5502,
      "çłĶç©¶éĻ¢": 5503,
      "é¸£": 5504,
      "ç»§ç»Ń": 5505,
      "çĶ¸": 5506,
      "è®¢åģļ": 5507,
      "Ġäºĳ": 5508,
      "æ³³æ±ł": 5509,
      "gr": 5510,
      "ä¸Ģè§Ī": 5511,
      "åį¤": 5512,
      "éĥ¨èĲ½": 5513,
      "æĸ¹ç®¡": 5514,
      "é¾Ħ": 5515,
      "360": 5516,
      "ä¸ľåİ¿": 5517,
      "ä¿®å¤į": 5518,
      "å¼ĢæĶ¾": 5519,
      "è½¬æį¢": 5520,
      "Ġï¿½ï¿½ï¿½": 5521,
      "æİ¨æĭī": 5522,
      "å®ĮæĪĲ": 5523,
      "pm": 5524,
      "aåĵģå±ķç¤º": 5525,
      "ä¿¡æģ¯": 5526,
      "åĨ²åİĭ": 5527,
      "è½¯ç®¡": 5528,
      "2008": 5529,
      "åľ°æľº": 5530,
      "èģĮä¸ļæĬĢæľ¯åŃ¦éĻ¢": 5531,
      "åĵ²": 5532,
      "Ġè¯Ħè®º": 5533,
      "æł¡åĮº": 5534,
      "è§Ĩè®¯": 5535,
      "æĹłéĻĲ": 5536,
      "Ġé¾Ļ": 5537,
      "æĴŀ": 5538,
      "åĬŀçĲĨ": 5539,
      "ĠæĲľå¯»ç»ĵæŀľ": 5540,
      "å¤§éħĴåºĹ": 5541,
      "æĿŀ": 5542,
      "èµ«": 5543,
      "åħīçģ¯": 5544,
      "åĮħè£ħè¢ĭ": 5545,
      "å¸¸çĶ¨": 5546,
      "å§ľ": 5547,
      "åĮĸåīĤ": 5548,
      "ç§ĳæĬĢå¤§åŃ¦": 5549,
      "ä¸įéĶĪéĴ¢ç®¡": 5550,
      "æĲħæĭĮæľº": 5551,
      "åĽ¾åºĵ": 5552,
      "ĠåĦ¿ç«¥": 5553,
      "Ġéĺ²": 5554,
      "åįļçī©é¦Ĩ": 5555,
      "çĥŃæ°´": 5556,
      "fc": 5557,
      "Â¥/ãİ¡": 5558,
      "æµģæ°´": 5559,
      "âĢ§": 5560,
      "åĪĨæŀĲä»ª": 5561,
      "çŁ³åĮĸ": 5562,
      "Ġæ±ĩ": 5563,
      "Ġpixnet": 5564,
      "èħĶ": 5565,
      "ä¿Ŀé²ľ": 5566,
      "ä¼łæĴŃ": 5567,
      "åŃ¦ç³»": 5568,
      "å®ļä½į": 5569,
      "éķį": 5570,
      "nb": 5571,
      "çĤ¹è¯Ħç½ĳ": 5572,
      "æĢ»ç»ĵ": 5573,
      "åħĨ": 5574,
      "£éĩĳ": 5575,
      "rs": 5576,
      "ass": 5577,
      "ä¿ĥéĶĢ": 5578,
      "Ġè®¾è®¡": 5579,
      "è¿ħ": 5580,
      "æĬķå½±": 5581,
      "ç¬¬äºĶ": 5582,
      "éĴ¢çŃĭ": 5583,
      "èĭ±å¯¸": 5584,
      "å®¤å¤ĸ": 5585,
      "åķ¦": 5586,
      "æĽ¿": 5587,
      "æµ·è¯į": 5588,
      "åĽ´æłı": 5589,
      "åĮĸç²ª": 5590,
      "å¯º": 5591,
      "][": 5592,
      "æĬķè¯ī": 5593,
      "å®Ŀé©¬": 5594,
      "å®īåĮº": 5595,
      "87": 5596,
      "æ²ª": 5597,
      "åľºæĻ¯": 5598,
      "ith": 5599,
      "Ġ2012": 5600,
      "çĶŁäº§è½¦éĹ´": 5601,
      "Ġçİ°ä»£": 5602,
      "Ġåħ³éĶ®è¯į": 5603,
      "èĺ": 5604,
      "æī³æīĭ": 5605,
      "å¯ĨéĽĨ": 5606,
      "åħ¨å½©": 5607,
      "èģĺ": 5608,
      "3000": 5609,
      "æł·åĵģ": 5610,
      "æµ´å®¤": 5611,
      "éĴ¥": 5612,
      "»ç¼ĸ": 5613,
      "æ©¡å¡ĳ": 5614,
      "çªĳ": 5615,
      "Ġç¥": 5616,
      "Ġæ²¹": 5617,
      "kb": 5618,
      "å¸¸è§Ħ": 5619,
      "åĽ¾çīĩå¤§åħ¨": 5620,
      "èĪ¹çĶ¨": 5621,
      "å¤ĸè§Ĥ": 5622,
      "åĮĸç²ªæ±ł": 5623,
      "æ²¥éĿĴ": 5624,
      "ä¹¡æĿĳ": 5625,
      "æİĴæ°´": 5626,
      "åħ³éĶ®åŃĹ": 5627,
      "æĲª": 5628,
      "ç«ĭæĸ¹": 5629,
      "âī": 5630,
      "åĽ´æĮ¡": 5631,
      "ç§»åĬ¨å¼ı": 5632,
      "åı¬": 5633,
      "è·¯åĻ¨": 5634,
      "ä¸ĢèĪ¬": 5635,
      "å©´åĦ¿": 5636,
      "ĠäºĮæīĭ": 5637,
      "å¯¼è½¨": 5638,
      "åķ¤": 5639,
      "eps": 5640,
      "å®¶åĽŃ": 5641,
      "é¡¹éĵ¾": 5642,
      "Ġçĳŀ": 5643,
      "az": 5644,
      "ĠæĻºèĥ½": 5645,
      "Ġ01": 5646,
      "åıĤåĬł": 5647,
      "åĢ¼å¾Ĺ": 5648,
      "éĩĩçĶ¨": 5649,
      "81": 5650,
      "éĵĨ": 5651,
      "åı°åįĹå¸Ĥ": 5652,
      "Ġ2011": 5653,
      "å¥¥è¿ª": 5654,
      "Ġè¿ĲåĬ¨": 5655,
      "åĨľåľ°": 5656,
      "èĸª": 5657,
      "èĭ¥": 5658,
      "åľ°æ¯¯": 5659,
      "è§£æŀĲ": 5660,
      "éĹ¸éĺĢ": 5661,
      "èĵĦçĶµæ±ł": 5662,
      "Ġä¸ľèİŀå¸Ĥ": 5663,
      "97": 5664,
      "åķĨåĵģåĲįç§°": 5665,
      "å¤§ä¼ļ": 5666,
      "æĺ¥åŃ£": 5667,
      "è¯ŀ": 5668,
      "éĵĿåŀĭæĿĲ": 5669,
      "Ġä¹Ĳ": 5670,
      "hl": 5671,
      "æ¬§æ´²": 5672,
      "dr": 5673,
      "åįł": 5674,
      "æĸ°åĮĹå¸Ĥ": 5675,
      "æŃ¢åĽŀ": 5676,
      "æ°¯åĮĸ": 5677,
      "æľŁæĿĥæľŁè´§åŁ¹è®Ń": 5678,
      "åĲĮæŃ¥": 5679,
      "ç¿¡ç¿ł": 5680,
      "å®¾é¦Ĩ": 5681,
      "è¾ĵåĩº": 5682,
      "Ġç¢": 5683,
      "æªĢ": 5684,
      "ä½©": 5685,
      "ui": 5686,
      "èĶ½": 5687,
      "94": 5688,
      "å§Ķåĳĺä¼ļ": 5689,
      "ä¼łç»Ł": 5690,
      "æī¿åĮħ": 5691,
      "å¥³å£«": 5692,
      "è½¨éģĵ": 5693,
      "æİĮ": 5694,
      "è°ĥæŁ¥": 5695,
      "çĹĩ": 5696,
      "å¯®": 5697,
      "ä¸Ģçº§": 5698,
      "æľ¨éĹ¨": 5699,
      "gs": 5700,
      "Ġåıĳ": 5701,
      "ç¬¬ä¸Ģæ¬¡": 5702,
      "æł¸å¿ĥ": 5703,
      "64": 5704,
      "Ġçİĭ": 5705,
      "èĢĥçłĶ": 5706,
      "çĬ¶æĢģ": 5707,
      "ç®Ģç«ł": 5708,
      "104": 5709,
      "ç¼ĸç»ĩ": 5710,
      "åįĩéĻįå¹³åı°": 5711,
      "dy": 5712,
      "èĢĲé«ĺæ¸©": 5713,
      "ĢæĦĢ": 5714,
      "æĽ¾": 5715,
      "á»": 5716,
      "åĨ²åĩ»": 5717,
      "ĠæĽ´å¤ļ": 5718,
      "é¾Ļåĩ¤": 5719,
      "éļĶéŁ³": 5720,
      "æĿ¿æľº": 5721,
      "äº²åŃĲ": 5722,
      "ĠçĶµèĦĳ": 5723,
      "ĠæľĪ": 5724,
      "å®¶è£ħæķĪæŀľåĽ¾": 5725,
      "åĬłåĽº": 5726,
      "çŁ³éĽķ": 5727,
      "åı£ç½©": 5728,
      "åľ¨çº¿éĺħè¯»": 5729,
      "ĠåĮĹ": 5730,
      "æ»©": 5731,
      "æ¶¨": 5732,
      "Ġbo": 5733,
      "å¸¸è§ģ": 5734,
      "æĺ¾ç¤ºåĻ¨": 5735,
      "91": 5736,
      "åİĭåĬĽè¡¨": 5737,
      "éĶĤçĶµæ±ł": 5738,
      "jpg": 5739,
      "tc": 5740,
      "å±ķæŁľ": 5741,
      "å»ºçŃĳå·¥ç¨ĭ": 5742,
      "hp": 5743,
      "èģĶç³»": 5744,
      "å°ĳåĦ¿": 5745,
      "è¾ħåĬ©": 5746,
      "éĺ³åİ¿": 5747,
      "éĻĦè¿ĳ": 5748,
      "fe": 5749,
      "éĹ¸éĹ¨": 5750,
      "è®¯ç½ĳ": 5751,
      "kd": 5752,
      "è´§è½¦": 5753,
      "ä½°": 5754,
      "åĽĽæ°Ł": 5755,
      "æ²¹æľº": 5756,
      "ĠéĿĴå²Ľ": 5757,
      "Ġsh": 5758,
      "è¹Ī": 5759,
      "æĸŃè·¯åĻ¨": 5760,
      "çķħ": 5761,
      "84": 5762,
      "æŁ´æ²¹åıĳçĶµæľºç»Ħ": 5763,
      "èĲĿ": 5764,
      "çĦĬæľº": 5765,
      "Ġå¡ĳæĸĻ": 5766,
      "å¤ªéĺ³èĥ½è·¯çģ¯": 5767,
      "æĳ©æīĺ": 5768,
      "èį£èªīè¯ģä¹¦": 5769,
      "ĠåºĶçĶ¨": 5770,
      "ç¨³å®ļ": 5771,
      "äºĴåĬ¨": 5772,
      "Ġso": 5773,
      "åŁ¹è®ŃæľºæŀĦ": 5774,
      "ãĦ¥": 5775,
      "çĶµåĬ¨è½¦": 5776,
      "åħ¥å¼ı": 5777,
      "å¸ĪèµĦ": 5778,
      "åı£å¾Ħ": 5779,
      "èĭ±åĽ½": 5780,
      "å¸¸å·ŀå¸Ĥ": 5781,
      "å¼Ĥå½¢": 5782,
      "äºĮçº§": 5783,
      "åħ¨æĻ¯": 5784,
      "db": 5785,
      "°Ģ": 5786,
      "Ġçİ»çĴĥ": 5787,
      "æĻĴ": 5788,
      "æĻºèĥ½ç§ĳæĬĢæľīéĻĲåħ¬åı¸": 5789,
      "ory": 5790,
      "éŁ¦": 5791,
      "åİĭæ»¤": 5792,
      "éĴĪç»ĩ": 5793,
      "é£ŁçĶ¨": 5794,
      "ä¼ģä¸ļæľīéĻĲåħ¬åı¸": 5795,
      "æłıçĽ®": 5796,
      "æĸ¹åĲĳ": 5797,
      "æľĢå¤§": 5798,
      "éĴ£éĩĳ": 5799,
      "åĮ»å¸Ī": 5800,
      "çº¢æľ¨": 5801,
      "æĶ¿çŃĸ": 5802,
      "çķĻåŃ¦": 5803,
      "èĪŀè¹Ī": 5804,
      "éĴ¢ä¸Ŀ": 5805,
      "èĿ´": 5806,
      "è½¦è½½": 5807,
      "çİīç±³": 5808,
      "èµĦäº§": 5809,
      "åį±": 5810,
      "è®¸åı¯è¯ģ": 5811,
      "âĢº": 5812,
      "73": 5813,
      "con": 5814,
      "æļĹ": 5815,
      "900": 5816,
      "æķĻå®¤": 5817,
      "-(": 5818,
      "71": 5819,
      "74": 5820,
      "_ï¿½": 5821,
      "Ġnt": 5822,
      "Â°": 5823,
      "ç¦ıçĶ°": 5824,
      "æĶ¶è´¹": 5825,
      "æĪĴæĮĩ": 5826,
      "è¥¿äºļ": 5827,
      "itle": 5828,
      "ç¦»å¿ĥæ³µ": 5829,
      "è·º": 5830,
      "çĿ¡": 5831,
      "æĸ¹ä¾¿": 5832,
      "æģ¶": 5833,
      "åĩıéĢŁæľº": 5834,
      "éĿ¢æĸĻ": 5835,
      "é¼»": 5836,
      "px": 5837,
      "Ġ03": 5838,
      "æ¸¡": 5839,
      "æ±Łéĺ´": 5840,
      "æīĭå¥Ĺ": 5841,
      "éĺµ": 5842,
      "çŁ³å¢¨": 5843,
      "äºĨè§£": 5844,
      "Ð»": 5845,
      "èĸĩ": 5846,
      "æ¦¨": 5847,
      "çĶµç£ģéĺĢ": 5848,
      "æŃī": 5849,
      "ç®ĢæĬ¥": 5850,
      "ast": 5851,
      "æĸĩæ¡£": 5852,
      "ç¼łç»ķ": 5853,
      "æ¯Ķè¾ĥ": 5854,
      "åĵģåĲį": 5855,
      "èĬ½": 5856,
      "æĶ¶å½ķ": 5857,
      "é«ĺå°Ķå¤«": 5858,
      "ç»Ĩèĥŀ": 5859,
      "èĿ´èĿ¶": 5860,
      "åĸµ": 5861,
      "æİĪæĿĥ": 5862,
      "æ¤¤": 5863,
      "éĨĭ": 5864,
      "æ¨¡æĭŁèĢĥè¯ķ": 5865,
      "æĸĩæĺİ": 5866,
      "æ°´åĪ©": 5867,
      "èĩªè¡Įè½¦": 5868,
      "åİŁçīĪ": 5869,
      "æĭįæĳĦ": 5870,
      "æ¶¤": 5871,
      "æľīåĵªäºĽ": 5872,
      "è£Ĥ": 5873,
      "éĵĿæĿ¿": 5874,
      "å»ºè®®": 5875,
      "æµ·è¯įè¯įåħ¸": 5876,
      "for": 5877,
      "çĭĤ": 5878,
      "ux": 5879,
      "Ġåıĳå¸ĥ": 5880,
      "2525": 5881,
      "ãĦ¦": 5882,
      "éĴĵ": 5883,
      "é¤Ĳæ¡Į": 5884,
      "æ²³åĮĹçľģ": 5885,
      "æ£ĭ": 5886,
      "åŃĹåħ¸": 5887,
      "è®¢è´Ń": 5888,
      "çĶµåķĨ": 5889,
      "åĳ¨å¹´": 5890,
      "fo": 5891,
      "èıĬ": 5892,
      "æľįåĬ¡å¹³åı°": 5893,
      "cy": 5894,
      "cb": 5895,
      "Ġä¼ļåĳĺ": 5896,
      "ĠæīĭåĬ¨": 5897,
      "å¯¹å¤ļ": 5898,
      "åĽŀè½¬": 5899,
      "ç®ĢåİĨ": 5900,
      "å¿ĥçĲĨ": 5901,
      "è¥¿è£ħ": 5902,
      "åĮĹäº¬å¸Ĥ": 5903,
      "æŃ¢åĽŀéĺĢ": 5904,
      "å¤§ä¼ĹçĤ¹è¯Ħç½ĳ": 5905,
      "éķ¿è¢ĸ": 5906,
      "ire": 5907,
      "éģ¿": 5908,
      "åħ±äº«": 5909,
      "æŃĮè¯į": 5910,
      "åĩºçīĪç¤¾": 5911,
      "å±±åİ¿": 5912,
      "æłĩçīĮ": 5913,
      "ga": 5914,
      "éĽĨåĽ¢èĤ¡ä»½æľīéĻĲåħ¬åı¸": 5915,
      "ç´«å¤ĸ": 5916,
      "é«ĺéĵģ": 5917,
      "å¾®åŀĭ": 5918,
      "èĦ±ç¡«": 5919,
      "Ġèį£èªīèµĦè´¨": 5920,
      "fs": 5921,
      "åľ°ä¸ĭ": 5922,
      "ç¼ģ": 5923,
      "ç«ĻçĤ¹": 5924,
      "ca": 5925,
      "ink": 5926,
      "çīµ": 5927,
      "316": 5928,
      "ĠåĪĨ": 5929,
      "Ġä¸Ĭä¸Ģç¯ĩ": 5930,
      "ä»»ä½ķ": 5931,
      "å¹ħ": 5932,
      "ĠêĦ²": 5933,
      "èĤ¯": 5934,
      "çĮİ": 5935,
      "Ġ04": 5936,
      "çº³ç±³": 5937,
      "çªģ": 5938,
      "ĠçľŁ": 5939,
      "æīĭæıĲ": 5940,
      "æĤ¨çİ°åľ¨": 5941,
      "æĸ°ä¹¡å¸Ĥ": 5942,
      "çĪµ": 5943,
      "Ġex": 5944,
      "?/": 5945,
      "ä¸ĩèĥ½": 5946,
      "åħ³æ³¨": 5947,
      "çī©æµģåħ¬åı¸": 5948,
      "çŁ³èĭ±": 5949,
      "Ġåįģ": 5950,
      "ci": 5951,
      "ç¹ģ": 5952,
      "Ġ500": 5953,
      "Ġéĩĳå±ŀ": 5954,
      "è½»éĴ¢": 5955,
      "ĠéĿĴ": 5956,
      "èĤł": 5957,
      "ext": 5958,
      "æĸ°éĹ»èµĦè®¯": 5959,
      "æĹħé¦Ĩ": 5960,
      "ä¸»æĮģ": 5961,
      "è½¿": 5962,
      "Ġæ¹ĸåįĹ": 5963,
      "Ġç²ī": 5964,
      "ç«ĭåį³": 5965,
      "éĵĿèīº": 5966,
      "æĻ´": 5967,
      "Ġç³»åĪĹ": 5968,
      "èµĦè´¨è¯ģä¹¦": 5969,
      "å¯¹æ¯Ķ": 5970,
      "åºŁæĹ§": 5971,
      "éĢıæ°Ķ": 5972,
      "çĶµè·¯": 5973,
      "å§ĵåĲį": 5974,
      "ç¿»æĸ°": 5975,
      "åĺħåıĳéŁ³": 5976,
      "éľŀ": 5977,
      "è¥¿çĤ¹": 5978,
      "åķĨåľº": 5979,
      "æĹģ": 5980,
      "ä¸Ĭä¸Ģä¸ªäº§åĵģ": 5981,
      "åĨĻåŃĹ": 5982,
      "ä»£çłģ": 5983,
      "Ġæ¡Īä¾ĭå±ķç¤º": 5984,
      "åŁŁåĲį": 5985,
      "è½»è´¨": 5986,
      "ä¼ļå±ķ": 5987,
      "ä¸ĵè¾ĳ": 5988,
      "æĭĶ": 5989,
      "ç³»ç»Ł": 5990,
      "æľĭ": 5991,
      "éĴĻ": 5992,
      "ao": 5993,
      "åħ¬çĽĬ": 5994,
      "Ģæ¤Ģ": 5995,
      "èģĶèµĽ": 5996,
      "ĠçĶŁæ´»": 5997,
      "gd": 5998,
      "82": 5999,
      "wd": 6000,
      "Ðº": 6001,
      "æĭĽåķĨ": 6002,
      "è´´çº¸": 6003,
      "æī§çħ§": 6004,
      "ç¦»åĲĪ": 6005,
      "éĹ¨åºĹ": 6006,
      "æµĻæ±Łçľģ": 6007,
      "å¯¼ä½ĵ": 6008,
      "æķ°æĺ¾": 6009,
      "å®ŀä¾ĭ": 6010,
      "å¸ĪèĮĥå¤§åŃ¦": 6011,
      "ä¸»ä»»": 6012,
      "Ġcl": 6013,
      "å½Ń": 6014,
      "ç¦¹": 6015,
      "å¹´åº¦æĬ¥åĳĬ": 6016,
      "mt": 6017,
      "èħ¿": 6018,
      "è®¾è®¡åĽ¾": 6019,
      "ĠæķĻåŃ¦": 6020,
      "éĴ¥åĮĻ": 6021,
      "çīĽçļ®": 6022,
      "æĬ±æŃī": 6023,
      "åıĸæ¶Ī": 6024,
      "èį£èİ·": 6025,
      "æ¾³æ´²": 6026,
      "äººåĬĽ": 6027,
      "yb": 6028,
      "å¦®": 6029,
      "çľŁç©ºæ³µ": 6030,
      "å»ī": 6031,
      "ä¸įéĻĲ": 6032,
      "æłĩæľº": 6033,
      "ä½ľæĸĩ": 6034,
      "125": 6035,
      "æľºæ¢°ç§ĳæĬĢæľīéĻĲåħ¬åı¸": 6036,
      "ä¸ĵåĪ©è¯ģä¹¦": 6037,
      "åĬłåĿ¡": 6038,
      "éĬ": 6039,
      "Ġä¿Ŀ": 6040,
      "æ²Ĳ": 6041,
      "ç¦Ħ": 6042,
      "ç²¾åº¦": 6043,
      "96": 6044,
      "å¿ĺ": 6045,
      "çī¹çĤ¹": 6046,
      "åĨĴ": 6047,
      "åĳ¢": 6048,
      "ä¸ŃéĹ´": 6049,
      "çĥĺçĦĻ": 6050,
      "æ±ŁåĮº": 6051,
      "å¥³è£ħ": 6052,
      "éĴ¢åĪ¶": 6053,
      "åĮĸå¦Ĩåĵģ": 6054,
      "ç±½": 6055,
      "å®īéĺ²": 6056,
      "æİ¥è§¦": 6057,
      "å·ŀåĮº": 6058,
      "æŀ¶æŀĦ": 6059,
      "102": 6060,
      "æ¶²åĮĸ": 6061,
      "è¿¹": 6062,
      "çĲª": 6063,
      "çĩĥçĥ§": 6064,
      "è¿ŀç»Ń": 6065,
      "tag": 6066,
      "åĬłå·¥åİĤ": 6067,
      "éĽ¶åĶ®": 6068,
      "sa": 6069,
      "è½®": 6070,
      "å¯¼çĥŃ": 6071,
      "åĴª": 6072,
      "350": 6073,
      "Ġç¿": 6074,
      "ide": 6075,
      "èĩŃæ°§": 6076,
      "æĸ°æĿĲæĸĻæľīéĻĲåħ¬åı¸": 6077,
      "æµĭå®ļä»ª": 6078,
      "åį·å¸ĺéĹ¨": 6079,
      "çłĤæµĨ": 6080,
      "çĴĲ": 6081,
      "çŁ¿å±±": 6082,
      "92": 6083,
      "sw": 6084,
      "æ´Ĵ": 6085,
      "åħ¹": 6086,
      "Ġç¬¬ä¸Ģ": 6087,
      "Ġçħ": 6088,
      "Ġ02": 6089,
      "è§ĦèĮĥ": 6090,
      "çĽ¸åħ³æłĩçŃ¾": 6091,
      "åıĳçĶµ": 6092,
      "Ġç§ĳ": 6093,
      "éĶ®çĽĺ": 6094,
      "Ġå½ĵåīįç¬¬": 6095,
      "mi": 6096,
      "å¤§æ¥¼": 6097,
      "å¹³åİ¿": 6098,
      "éĵ°": 6099,
      "æ¸©æ³ī": 6100,
      "éĺħè¯»æ¨¡å¼ı": 6101,
      "kæĸ¤æĭ·": 6102,
      "æ°´çĶµ": 6103,
      "press": 6104,
      "éĩĳåĪļ": 6105,
      "éľĢæ±Ĥ": 6106,
      "ä¼łå¥ĩ": 6107,
      "çĴĩ": 6108,
      "ä¸Ĭæµ·å¸Ĥ": 6109,
      "åĲĮåŃ¦": 6110,
      "åĽ½è¯Ń": 6111,
      "æīĭæľºçīĪ": 6112,
      "æłĪ": 6113,
      "éĤĢ": 6114,
      "Ġå¹³": 6115,
      "å®¹éĩı": 6116,
      "èĸĦèĨľ": 6117,
      "åĮ¹": 6118,
      "Ġèĭı": 6119,
      "çĥ«": 6120,
      "å¤ªå¹³æ´ĭ": 6121,
      "700": 6122,
      "?-": 6123,
      "ĠæŃ¦æ±ī": 6124,
      "èĲ½åľ°": 6125,
      "åįĬå¹´": 6126,
      "çĬ¬": 6127,
      "ĠèĵĿ": 6128,
      "åĭĺ": 6129,
      "na": 6130,
      "....": 6131,
      "çĦĬç®¡": 6132,
      "ä¸¥": 6133,
      "äººæķ°": 6134,
      "Ġ123": 6135,
      "ä¸Ńèį¯": 6136,
      "è¸ª": 6137,
      "ç£¨æľº": 6138,
      "åĬ¨çĶ»": 6139,
      "èĮ¶åĩł": 6140,
      "æķĻæĿĲ": 6141,
      "åŁİåİ¿": 6142,
      "æ·ĩ": 6143,
      "æ¶¯": 6144,
      "çĲ³": 6145,
      "æĹıèĩªæ²»åİ¿": 6146,
      "å±ıèĶ½": 6147,
      "æĸĩä»¶æŁľ": 6148,
      "Ġ60": 6149,
      "åĻ¨æĿĲæľīéĻĲåħ¬åı¸": 6150,
      "éĵľçīĪ": 6151,
      "å¤§å®¶": 6152,
      "ç¦»çº¿": 6153,
      "ä¿±ä¹Ĳ": 6154,
      "ĠåĲį": 6155,
      "åİĭéĵ¸": 6156,
      "ç§įæ¤į": 6157,
      "å®¢åĪ¶": 6158,
      "éķ¶": 6159,
      "åķ¤éħĴ": 6160,
      "åİĨç¨ĭ": 6161,
      "ä¿±ä¹Ĳéĥ¨": 6162,
      "Ġ>>>": 6163,
      "çªĹå¸ĺ": 6164,
      "æħ¢": 6165,
      "Ġç¦ıå»º": 6166,
      "éĴ®": 6167,
      "èļģ": 6168,
      "åĲīæŀĹçľģ": 6169,
      "dvd": 6170,
      "é¦¨": 6171,
      "do": 6172,
      "æĴĳ": 6173,
      "æµħ": 6174,
      "ĠçĽ¸åħ³": 6175,
      "åķĨåºĹ": 6176,
      "å¿Ļ": 6177,
      "Ġçº¯": 6178,
      "ĠæĪĳåľ¨ä¼ĳæģ¯": 6179,
      "act": 6180,
      "è´¢åĬ¡è¯Ħä¼°": 6181,
      "é¢ĸ": 6182,
      "her": 6183,
      "Ġåįĥ": 6184,
      "èīºæľ¯åĵģ": 6185,
      "åİĭæ»¤æľº": 6186,
      "ç®Ģåįķ": 6187,
      "å®īå¾½çľģ": 6188,
      "Ġçķ": 6189,
      "å±ĭé¡¶": 6190,
      "éĴ¢åĮĸ": 6191,
      "âĪĢ": 6192,
      ":<": 6193,
      "æ±Łè¥¿çľģ": 6194,
      "æĿī": 6195,
      "ç»Ħä»¶": 6196,
      "æ¡Ĩæŀ¶": 6197,
      "åİŁåİĤ": 6198,
      "Ġçĭ": 6199,
      "çĨĻ": 6200,
      "Ġ200": 6201,
      "åĬłæ²¹": 6202,
      "esign": 6203,
      "éħ¥": 6204,
      "à¹": 6205,
      "Ġdis": 6206,
      "ä¹¦æĪ¿": 6207,
      "èĥİ": 6208,
      "âĶ": 6209,
      "åĸĩ": 6210,
      "åĳ¼åĲ¸": 6211,
      "ase": 6212,
      "çī¹ä»·": 6213,
      "è®¨è®ºåĮº": 6214,
      "éĤ»": 6215,
      "ä¸Ģå¯¹ä¸Ģ": 6216,
      "è¢ľ": 6217,
      "æ°´å¹³": 6218,
      "æķĻçīĪ": 6219,
      "çĪ¬": 6220,
      "èīĩ": 6221,
      "ç»ı": 6222,
      "Ġé«ĺéĽĦ": 6223,
      "Ġé£Łåĵģ": 6224,
      "93": 6225,
      "ä½ĵç³»": 6226,
      "Ġ40": 6227,
      "æīĭè¡¨": 6228,
      "ç¦ıå»ºçľģ": 6229,
      "åıĮå¤´": 6230,
      "æķ´çĲĨ": 6231,
      "ç¥ĸ": 6232,
      "å¤ĩæ¡Ī": 6233,
      "å¼Ģå§ĭ": 6234,
      "Ġæ¡Īä¾ĭ": 6235,
      "æĮ¤å¡ĳ": 6236,
      "åħĭæĸ¯": 6237,
      "Ģæ¼Ģ": 6238,
      "äº§åĵģç³»åĪĹ": 6239,
      "Ġè¥¿å®ī": 6240,
      "ä¸°çĶ°": 6241,
      "æ¦»": 6242,
      "æĸĩåŃĹ": 6243,
      "è¿Ĳè´¹": 6244,
      "ill": 6245,
      "å°ģéĹŃ": 6246,
      "Ġå¥½": 6247,
      "éĴ»å¤´": 6248,
      "çī©æµģä¸ĵçº¿": 6249,
      "æ°¨åŁº": 6250,
      "Ġç¦»": 6251,
      "æĲ´": 6252,
      "æľĢä½³": 6253,
      "çīĽä»Ķ": 6254,
      "åľºåľ°": 6255,
      "æĺĤ": 6256,
      "é«ĺåº¦": 6257,
      "è·µ": 6258,
      "ĠçĽ´": 6259,
      "èĭĹæłĹ": 6260,
      "è¯¾ä»¶": 6261,
      "å®ľåħ´": 6262,
      "èģļåĲĪ": 6263,
      "éĴ¢æĿĲ": 6264,
      "éĶŁæĸ¤æĭ·": 6265,
      "çļĤ": 6266,
      "æĹłç¼Ŀç®¡": 6267,
      "jd": 6268,
      "ç®±å¼ı": 6269,
      "åºĶæĢ¥": 6270,
      "äºļåįļ": 6271,
      "ä»²": 6272,
      "åŃ¦ç§ĳ": 6273,
      "ina": 6274,
      "åİķæīĢ": 6275,
      "åħ¬åĪĨ": 6276,
      "103": 6277,
      "Ġæľºæ¢°": 6278,
      "çİ²": 6279,
      "èįĶ": 6280,
      "ç²¾å½©": 6281,
      "æĭīä¼¸": 6282,
      "äºĭé¡¹": 6283,
      "è¥¿çıŃçīĻ": 6284,
      "é¥°åĵģ": 6285,
      "éªĮæĶ¶": 6286,
      "è¿ĻéĩĮ": 6287,
      "ç®¡æľº": 6288,
      "æ¨¡ç»Ħ": 6289,
      "çĳľ": 6290,
      "éĺ²çĽĹ": 6291,
      "da": 6292,
      "é¼ĵé£İæľº": 6293,
      "å¿ĹæĦ¿": 6294,
      "åĬ²": 6295,
      "çļĦçĶ¨æ³ķ": 6296,
      "bt": 6297,
      "çĮľ": 6298,
      "Ġæ³°": 6299,
      "Ġç±³": 6300,
      "é¢Ħç®Ĺ": 6301,
      "èĲĥ": 6302,
      "ä¸Ńå¼ıé£İæł¼": 6303,
      "å§ļ": 6304,
      "éĿĻéŁ³": 6305,
      "æ©Ļ": 6306,
      "å¼Ł": 6307,
      "åĨ²åŃĶ": 6308,
      "ws": 6309,
      "ç´¯": 6310,
      "åºĻ": 6311,
      "éħ¿": 6312,
      "é«ĺæ¡£": 6313,
      "æĵ¦": 6314,
      "ä¹ĭæĹħ": 6315,
      "åĲ¸å¡ĳ": 6316,
      "ä¸ľåĮº": 6317,
      "Ġte": 6318,
      "åıĳåħīåŃĹ": 6319,
      "æĪĲäº¤": 6320,
      "èĸ¯": 6321,
      "æ´ģåĩĢ": 6322,
      "éī´å®ļ": 6323,
      "son": 6324,
      "éĿ¢åĮħ": 6325,
      "æļ´": 6326,
      "è¯¾åłĤ": 6327,
      "ä¸ĵæ³¨": 6328,
      "æĪĲç»©": 6329,
      "my": 6330,
      "Ġç½ĳ": 6331,
      "zy": 6332,
      "æ¶µ": 6333,
      "æĸ°éĹ»ç½ĳ": 6334,
      "ĠæĪ·å¤ĸ": 6335,
      "æ£ĢæµĭæĬ¥åĳĬ": 6336,
      "inese": 6337,
      "pk": 6338,
      "åºĹéĿ¢": 6339,
      "word": 6340,
      "hc": 6341,
      "aåĵģä¸Ńå¿ĥ": 6342,
      "æŀª": 6343,
      "Ġæ±ĩæķ´": 6344,
      "çĻ¾åı¶": 6345,
      "åıįåħī": 6346,
      "äº§åĵģåĪĹè¡¨": 6347,
      "æµ·é²ľ": 6348,
      "ĠçĻ»": 6349,
      "çĪª": 6350,
      "æ¾Ħ": 6351,
      "æļĳ": 6352,
      "Ġ2010": 6353,
      "é«ĺéĽĦå¸Ĥ": 6354,
      "åĤħ": 6355,
      "è¡¥åģ¿": 6356,
      "èģĮä½įåĪĨç±»": 6357,
      "æ¯ĶåĪĨ": 6358,
      "ç¼º": 6359,
      "æİĴçĥŁ": 6360,
      "ĠâĹ": 6361,
      "ark": 6362,
      "è±¹": 6363,
      "å¸ħ": 6364,
      "çĶŁåĳ½": 6365,
      "Ġåı°åĮĹ": 6366,
      "Ġsp": 6367,
      "è·¯çº¿": 6368,
      "åĽ¢ä½ĵ": 6369,
      "Ġé¡¹çĽ®": 6370,
      "æľ¨å·¥": 6371,
      "åħ»æĬ¤": 6372,
      "éħ¸éĴł": 6373,
      "èĩ»": 6374,
      "èĲ¤": 6375,
      "è¯ĬæīĢ": 6376,
      "fb": 6377,
      "Ġwith": 6378,
      "é¢ĺåºĵ": 6379,
      "fm": 6380,
      "å·¥ä½ľåı°": 6381,
      "æĭĽæłĩ": 6382,
      "ledæĺ¾ç¤ºå±ı": 6383,
      "éŃĤ": 6384,
      "èĽĩ": 6385,
      "æ»ĳæ¢¯": 6386,
      "åħ¨ç½ĳæĮĩæķ°": 6387,
      "èĬĤçĽ®": 6388,
      "ment": 6389,
      "æĲı": 6390,
      "çµ®": 6391,
      "Ġè¯¦ç»Ĩ": 6392,
      "ä¸ľåĮĹ": 6393,
      "Ġé¦Ļ": 6394,
      "çĶµåĬĽçĶµç¼Ĩ": 6395,
      "min": 6396,
      "ï¸": 6397,
      "éĽĢ": 6398,
      "ç«¯åŃĲ": 6399,
      "ee": 6400,
      "éĥİ": 6401,
      "ĠçłĶ": 6402,
      "æĢª": 6403,
      "è¯»ä¹¦": 6404,
      "æ¹ĸåĮº": 6405,
      "çŃĸçķ¥": 6406,
      "äºĮæľŁ": 6407,
      "åħ¥éĹ¨": 6408,
      "æ¶Ľ": 6409,
      "title": 6410,
      "æµģè¡Į": 6411,
      "æıĲç¤º": 6412,
      "çİ°ä»£ç®Ģçº¦é£İæł¼": 6413,
      "ĠçĦ": 6414,
      "ĠæµİåįĹ": 6415,
      "ç§°éĩį": 6416,
      "ä½įäºİ": 6417,
      "çº¶": 6418,
      "åĽ¾éĽĨ": 6419,
      "å®¢è¿Ĳç«Ļ": 6420,
      "ä¹īä¹Į": 6421,
      "dt": 6422,
      "äº§åľ°": 6423,
      "èĲ¥ä¸ļæī§çħ§": 6424,
      "ell": 6425,
      "çİĦåħ³": 6426,
      "åŃ¦åĳĺ": 6427,
      "Ġç¼": 6428,
      "åħ¨ç½ĳæĮĩæķ°æŁ¥è¯¢": 6429,
      "å°ıç±³": 6430,
      "æĨ": 6431,
      "ç±»çĽ®": 6432,
      "çł´ç¢İ": 6433,
      "è°Ĭ": 6434,
      ")ãĢģ": 6435,
      "çŁ½": 6436,
      "ko": 6437,
      "éĵ¾æĿ¡": 6438,
      "å®īåİ¿": 6439,
      "wr": 6440,
      "åĵĦ": 6441,
      "æľīéĻĲä¼ģä¸ļ": 6442,
      "éĵł": 6443,
      "åħ³ç³»": 6444,
      "éħ®": 6445,
      "åľ°ä¸Ńæµ·": 6446,
      "æĮ¤åĩº": 6447,
      "per": 6448,
      "2022": 6449,
      "Ġâī": 6450,
      "åľ£è¯ŀ": 6451,
      "çĶµéĺ»": 6452,
      "å®ĩéĢļ": 6453,
      "æµģä½ĵ": 6454,
      "æ¯Ķäºļ": 6455,
      "uy": 6456,
      "Ġåħ³éĶ®è¯įåħ¨ç½ĳæĮĩæķ°æŁ¥è¯¢": 6457,
      "ä¸Ńå°ı": 6458,
      "çħ®": 6459,
      "èĹ»": 6460,
      "èĹ¤": 6461,
      "æĳĺè¦ģ": 6462,
      "äº¤æį¢": 6463,
      "ä»¿çľŁ": 6464,
      "å¦Ļ": 6465,
      "Ġgo": 6466,
      "èĬĻ": 6467,
      "éĻĦå±ŀ": 6468,
      "çĶ³è¯·è¡¨": 6469,
      "jo": 6470,
      "å·¥è´¸æľīéĻĲåħ¬åı¸": 6471,
      "æ°´è´¨": 6472,
      "ç¡Ŀ": 6473,
      "é©¬è¾¾": 6474,
      "åºĲ": 6475,
      "èĵī": 6476,
      "çŁ³èĨı": 6477,
      "ï¿½ï¿½ï¿½ï¿½ï¿½ï¿½ï¿½ï¿½ï¿½": 6478,
      "åįĬå¯¼ä½ĵ": 6479,
      "Ġpre": 6480,
      "æĬķèµĦçĲĨè´¢": 6481,
      "æ¡ĥåĽŃå¸Ĥ": 6482,
      "é¢ĦåĪ¶": 6483,
      "åıĭæĥħ": 6484,
      "æľºæ¢°åİĤ": 6485,
      "ĠåĪ°": 6486,
      "éĤĳ": 6487,
      "çĶµå·¥": 6488,
      "ä¸Ģè§Ĵ": 6489,
      "é«ĺçŃī": 6490,
      "éķ¿å®ī": 6491,
      "åįģå¤§": 6492,
      "å¯¨": 6493,
      "è¥¿éĹ¨": 6494,
      "ç²īæľ«": 6495,
      "èĬĿéº»": 6496,
      "åŃŁ": 6497,
      "ĠæĹłéĶ¡": 6498,
      "åįģåĽĽ": 6499,
      "Ġtag": 6500,
      "ç»§çĶµåĻ¨": 6501,
      "åĲ¸å°ĺ": 6502,
      "Ġal": 6503,
      "è¯ĨåĪ«": 6504,
      "bet": 6505,
      "è¿Ĳè¡Į": 6506,
      "å¹³æĸ¹ç±³": 6507,
      "ä¿Ħ": 6508,
      "éĴ¢çĲ´": 6509,
      "Ġnew": 6510,
      "è®¾è®¡æ¡Īä¾ĭ": 6511,
      "éħļ": 6512,
      "è¿ŀéĶģ": 6513,
      "Ã©": 6514,
      "å°½": 6515,
      "ç¬Ķè®°": 6516,
      "ç§ŁæĪ¿": 6517,
      "æŁł": 6518,
      "æ±½è½¦éħįä»¶": 6519,
      "ree": 6520,
      "èĴ¸åıĳ": 6521,
      "åħļå»º": 6522,
      "åĽĽå·Ŀ": 6523,
      "å¼ºåº¦": 6524,
      "æĪĲéķ¿": 6525,
      "å»ºçŃĳå·¥ç¨ĭæľīéĻĲåħ¬åı¸": 6526,
      "æł½": 6527,
      "éĹ½": 6528,
      "åħ¨å±ĭ": 6529,
      "Ġor": 6530,
      "åĬłå·¥ä¸Ńå¿ĥ": 6531,
      "å¸Ĥéĩĳ": 6532,
      "æµ¼": 6533,
      "é¾Ł": 6534,
      "æĸ°åŁİ": 6535,
      "åİ¨æĪ¿è®¾å¤ĩ": 6536,
      "æ¼Ĥ": 6537,
      "æĤĭ": 6538,
      "å¤©çĦ¶æ°Ķ": 6539,
      "éĿ¢èĨľ": 6540,
      "åĨ·åĩĿ": 6541,
      "Ġ07": 6542,
      "åĩ³": 6543,
      "the": 6544,
      "ç²Ĺ": 6545,
      "çĴģ": 6546,
      "éķľå¤´": 6547,
      "æĭĽçĶŁç®Ģç«ł": 6548,
      "ï¿½-": 6549,
      "å°¼äºļ": 6550,
      "Ġç¯": 6551,
      "ĠåĲĮ": 6552,
      "èĬĴ": 6553,
      "æ¡ĮéĿ¢": 6554,
      "åıŃ": 6555,
      "ç¾İåħĥ": 6556,
      "åĮħè£ħè®¾è®¡": 6557,
      "çĶµå®¹": 6558,
      "su": 6559,
      "éĵ¬": 6560,
      "ç«Ļå¼ı": 6561,
      "åľ°éĿ¢": 6562,
      "çĮĢ": 6563,
      "æŃĮæĽ²": 6564,
      "Ġè¯·": 6565,
      "å®ŀæĭį": 6566,
      "xt": 6567,
      "èĥ¶åĽĬ": 6568,
      "æĭ¼éŁ³": 6569,
      "æľįåĬ¡é¡¹çĽ®": 6570,
      "çīĩæľº": 6571,
      "éĩįéĩı": 6572,
      "æĿ¿æĪ¿": 6573,
      "åľ°çĲĨ": 6574,
      "åıĺé¢ĳåĻ¨": 6575,
      "ä»ħ": 6576,
      "å®ŀè·µ": 6577,
      "æ¬§å¼ıé£İæł¼": 6578,
      "gy": 6579,
      "ç®¡å¼ı": 6580,
      "æ±¡æŁĵ": 6581,
      "Ġåĳ¨": 6582,
      "çĻ¾è´§": 6583,
      "æĳ©æīĺè½¦": 6584,
      "Ġæĸ°éĹ»ä¸Ńå¿ĥ": 6585,
      "sy": 6586,
      "ãĢĵ": 6587,
      "çŁ¢": 6588,
      "åĢ¾": 6589,
      "Ġé¡µç¬¬": 6590,
      "ka": 6591,
      "å®ŀä¹ł": 6592,
      "sv": 6593,
      "ĠãĢĭ": 6594,
      "Ġåħī": 6595,
      "éĻľ": 6596,
      "line": 6597,
      "åį°åº¦": 6598,
      "èĪªçıŃ": 6599,
      "æ¥ł": 6600,
      "ç¾İå¼ıé£İæł¼": 6601,
      "åĪĽä½ľ": 6602,
      "å¸¸çĨŁ": 6603,
      "åĪ¶åĵģåİĤ": 6604,
      "Ġç£": 6605,
      "å¥ī": 6606,
      "fa": 6607,
      "ç®¡åİĤå®¶": 6608,
      "ace": 6609,
      "ç®Ģæĺĵ": 6610,
      "é»ĺè®¤": 6611,
      "æĮĩç¤º": 6612,
      "è¿Ļä¸ª": 6613,
      "æĶ¶åħ¥": 6614,
      "éĢĤåĲĪ": 6615,
      "æ¶¡": 6616,
      "æĬķè¯īä¸¾æĬ¥": 6617,
      "Ġhe": 6618,
      "äºĮæ°§åĮĸ": 6619,
      "èĮĦ": 6620,
      "ä¾¨": 6621,
      "å¼Ĥåŀĭ": 6622,
      "çĲĥåľº": 6623,
      "jy": 6624,
      "çĶ·å£«": 6625,
      "èĬ±èİ²": 6626,
      "æĬĢå·§": 6627,
      "ä¸¤çĶ¨": 6628,
      "zz": 6629,
      "å¿§": 6630,
      "âĢ»": 6631,
      "æī«æıı": 6632,
      "âĺĨ": 6633,
      "ä¼ĺåĬ¿": 6634,
      "çģ¯é¥°": 6635,
      "éģĹ": 6636,
      "ç¨Ģ": 6637,
      "æ¬¾å¼ı": 6638,
      "gt": 6639,
      "æł¡åıĭ": 6640,
      "æ´»å¡ŀ": 6641,
      "éĺ²éĿĻçĶµ": 6642,
      "æľŁæľ«": 6643,
      "éĴ»æľº": 6644,
      "æ´½": 6645,
      "åħĦ": 6646,
      "åįģäºĶ": 6647,
      "æĿĢèıĮ": 6648,
      "1111": 6649,
      "Ġ}": 6650,
      "çĲĨå·¥": 6651,
      "så®¶": 6652,
      "éĩĳæ²Ļ": 6653,
      "åįıè®®": 6654,
      "ç²īç¢İæľº": 6655,
      "cp": 6656,
      "éªĳ": 6657,
      "ĠéħĴåºĹ": 6658,
      "ç»Ħè£ħ": 6659,
      "âħ": 6660,
      "éĥ¡": 6661,
      "æµıè§Īæ¬¡æķ°": 6662,
      "Ġæ¬¡æĬķè¯īä¸¾æĬ¥": 6663,
      "Ġæ¬¡æĬķè¯īä¸¾æĬ¥åĪłéĻ¤": 6664,
      "åī²": 6665,
      "è¾ĵéĢģå¸¦": 6666,
      "æ¯įçº¿": 6667,
      "ä¸ĬåĨĮ": 6668,
      "è´Ńçī©ç½ĳ": 6669,
      "æĸĩåħ·": 6670,
      "å¥ĹçŃĴ": 6671,
      "éķ¿éĢĶ": 6672,
      "hb": 6673,
      "å¡«æĸĻ": 6674,
      "çĥŃéĶĢ": 6675,
      "è®¾å¤ĩåĪ¶éĢłæľīéĻĲåħ¬åı¸": 6676,
      "åŃ¦ä½į": 6677,
      "æ¶¦æ»ĳæ²¹": 6678,
      "çĶµéķĢ": 6679,
      "çĥŃçĶµåģ¶": 6680,
      "äºĮæ¬¡": 6681,
      "çĽĸæĿ¿": 6682,
      "ql": 6683,
      "çºµ": 6684,
      "ĠåĿĢ": 6685,
      "Ġåİ¦éĹ¨": 6686,
      "002": 6687,
      "Ġå®Ŀ": 6688,
      "hu": 6689,
      "çĮ´": 6690,
      "ĠæĿİ": 6691,
      "æ±½è½¦ç½ĳ": 6692,
      "Ġat": 6693,
      "end": 6694,
      "æľŁåħ¨å½©": 6695,
      "æľŁåħ¨å½©åİŁçīĪ": 6696,
      "æĮĩæłĩ": 6697,
      "åĸĩåıŃ": 6698,
      "éħ¸çĽĲ": 6699,
      "æ¢ħèĬ±": 6700,
      "dz": 6701,
      "æ¥¼ä¸»": 6702,
      "çĶµçº¿çĶµç¼Ĩ": 6703,
      "éĲ": 6704,
      "æ¯ħ": 6705,
      "èĥĮåĮħ": 6706,
      "åĨĻåŃĹæ¥¼": 6707,
      "åħ¬åı¸ç®Ģä»ĭ": 6708,
      "ç§ĳæķ°åŃ¦": 6709,
      "->": 6710,
      "æĺŁæľŁ": 6711,
      "çĶŁçī©è´¨": 6712,
      "å¤©èĬ±": 6713,
      "å¸¦å¼ı": 6714,
      "æµĩ": 6715,
      "ä¸ĵç§ĳ": 6716,
      "æī¹åıĳä»·æł¼": 6717,
      "åĬłåİļ": 6718,
      "çĥŃæ°´åĻ¨": 6719,
      "ç¦»å¿ĥæľº": 6720,
      "å»·": 6721,
      "åĽŃèīº": 6722,
      "åĬ³ä¿Ŀ": 6723,
      "éħįçĶµç®±": 6724,
      "è½¿è½¦": 6725,
      ":ãĢĬ": 6726,
      "å½ķåıĸ": 6727,
      "èĥĮå¿ĥ": 6728,
      "æĬ¤å¥Ĺ": 6729,
      "å±ķç¤ºæŁľ": 6730,
      "Ġno": 6731,
      "çĶŁæĦı": 6732,
      "æīĭæľ¯": 6733,
      "vip": 6734,
      "çģŀ": 6735,
      "Ġproduct": 6736,
      "åħ¨éĥ¨åķĨåĵģ": 6737,
      "æĥłå·ŀå¸Ĥ": 6738,
      "åĩ½æİĪ": 6739,
      "ç«¥è£ħ": 6740,
      "éºŁ": 6741,
      "logoè®¾è®¡": 6742,
      "æ²³åĮº": 6743,
      "ç¼ĸç¨ĭ": 6744,
      "åĤ²": 6745,
      "é£ŁåłĤ": 6746,
      "å¯Ĩåº¦": 6747,
      "åı¯è°ĥ": 6748,
      "éĢīåĮº": 6749,
      "æ±½è½¦æĹ¶åĪ»è¡¨": 6750,
      "æ¯ıé¡µ": 6751,
      "æ²¹æ¼Ĩ": 6752,
      "åįģä¸ī": 6753,
      "ä¸ľè¥¿": 6754,
      "Ġæĸĩç«ł": 6755,
      "Ġ~": 6756,
      "Ġåı°åĮĹå¸Ĥ": 6757,
      "gm": 6758,
      "003": 6759,
      "Ġæī¹åıĳ": 6760,
      "æķĻç»ĥ": 6761,
      "ç¬¬åħŃ": 6762,
      "åºĬåŀ«": 6763,
      "éĵĿæĿĲ": 6764,
      "è´§æ¢¯": 6765,
      "yo": 6766,
      "åĽĽåŃ£": 6767,
      "èµĽè½¦": 6768,
      "é«ĺé¢ĳ": 6769,
      "ç®¡ä¸ļæľīéĻĲåħ¬åı¸": 6770,
      "Ġå®¶": 6771,
      "usb": 6772,
      "ike": 6773,
      "æıĲåįĩæľº": 6774,
      "ha": 6775,
      "çĤ¸": 6776,
      "è¶ĭ": 6777,
      "Ġpo": 6778,
      "åĽºå®ļå¼ı": 6779,
      "Ġres": 6780,
      "åİĨå¹´": 6781,
      "å»ºéĢł": 6782,
      "çī©è´¨": 6783,
      "Ġå¥¥": 6784,
      "æµ®éĽķ": 6785,
      "ä¼´å¥ı": 6786,
      "æĤł": 6787,
      "çŃīå¥ĸ": 6788,
      "Ġèģļ": 6789,
      "éª¨æŀ¶": 6790,
      "æī§è¡ĮåĻ¨": 6791,
      "éĿ¢è®®": 6792,
      "æĭīæĸ¯": 6793,
      "éªŀ": 6794,
      "ĠåĽ½éĻħ": 6795,
      "hr": 6796,
      "å¼ĢéĹ¨": 6797,
      "use": 6798,
      "ĠåĲĪ": 6799,
      "çĽ´çº¿": 6800,
      "è´´èĨľ": 6801,
      "æ±½æ²¹": 6802,
      "è°ĥåĳ³": 6803,
      "ĠåĲİ": 6804,
      "ti": 6805,
      "éĺ³åħīæĪ¿": 6806,
      "åħ¥åŃ¦": 6807,
      "ä»ĳ": 6808,
      "Ġ.": 6809,
      "æ©ĺ": 6810,
      "å½©èĻ¹": 6811,
      "hi": 6812,
      "ĠæĬĢæľ¯æĶ¯æĮģ": 6813,
      "å¨±ä¹Ĳ": 6814,
      "æ±Ŀ": 6815,
      "åĽ½æłĩ": 6816,
      "ä¹Ŀæ¸¸": 6817,
      "ä¸Ńåŀĭ": 6818,
      "Ġit": 6819,
      "gz": 6820,
      "æĵİ": 6821,
      "Ġç¤¾": 6822,
      "åĩīäºŃ": 6823,
      "åİŁè£ħ": 6824,
      "çģı": 6825,
      "Ġä¸ĥ": 6826,
      "Â®": 6827,
      "èĹī": 6828,
      "Ġ;": 6829,
      "åĭŁ": 6830,
      "åĪ¨": 6831,
      "ç½Ĺé©¬": 6832,
      "æ´»åĬ¨æĪ¿": 6833,
      "æľ¨è´¨": 6834,
      "éĿĴçŁ³": 6835,
      "æ¼«çĶ»": 6836,
      "ĠæłĩåĩĨ": 6837,
      "ĠéĿŀ": 6838,
      "å®Įæķ´": 6839,
      "ä¾ĭåı¥": 6840,
      "è¡Įç¨ĭ": 6841,
      "åı£èħĶ": 6842,
      "åĮĹæ¬§é£İæł¼": 6843,
      "æĪĺçķ¥": 6844,
      "æĺ¥ç§ĭ": 6845,
      "åĳ¨è½¬": 6846,
      "æ²¹ç¼¸": 6847,
      "Ñĭ": 6848,
      "å±ĳ": 6849,
      "çĵ£": 6850,
      "åıĭæĥħéĵ¾æİ¥": 6851,
      "æ¢³": 6852,
      "éŁ³ç®±": 6853,
      "æĤ¨çİ°åľ¨æīĢåľ¨ä½įç½®": 6854,
      "ction": 6855,
      "ä¹°è½¦": 6856,
      "æ±ŁåįĹ": 6857,
      "é£İæĻ¯": 6858,
      "æŃ¢æ°´": 6859,
      "éĻ¤çĶ²éĨĽ": 6860,
      "è¯»éŁ³": 6861,
      "æŃ¦æ±īå¸Ĥ": 6862,
      "è¶ĬåįĹ": 6863,
      "å±¥": 6864,
      "èµĸ": 6865,
      "çĶµåŃĲåķĨåĬ¡": 6866,
      "view": 6867,
      "éĶ»éĢł": 6868,
      "åĬ¡å¤Ħ": 6869,
      "è¾ŀ": 6870,
      "ç¬¬äºĮæ¬¡": 6871,
      "é£ĺ": 6872,
      "åĮĹåĮº": 6873,
      "æ¸©å®¤": 6874,
      "ĠæķĻèĤ²": 6875,
      "åİŁçĲĨ": 6876,
      "èŁ¹": 6877,
      "Ġ'": 6878,
      "åĽ¾çīĩæĿ¥æºĲ": 6879,
      "nc": 6880,
      "å½©éĴ¢": 6881,
      "Ġæ°Ķ": 6882,
      "åĽ¾æ¡Ī": 6883,
      "å¸ĮæľĽ": 6884,
      "new": 6885,
      "çĪ±ä¸Ĭæµ·": 6886,
      "å±ķè§Īä¼ļ": 6887,
      "Ġare": 6888,
      "åĮ£": 6889,
      "æ½ĺ": 6890,
      "èĪ¹èĪ¶": 6891,
      "éŁ©åĽ½": 6892,
      "éĶĻè¯¯": 6893,
      "éĢłä»·": 6894,
      "æ¹ĸåĮĹçľģ": 6895,
      "æĭ¿å¤§": 6896,
      "åįļè§Ī": 6897,
      "gx": 6898,
      "æ¹ĸåįĹçľģ": 6899,
      "450": 6900,
      "çĽ¸ç°¿åĪĹè¡¨": 6901,
      "æı´": 6902,
      "ä¹ĲåĻ¨": 6903,
      "ç©ºéĹ´è®¾è®¡": 6904,
      "å±ıéļľ": 6905,
      ":[": 6906,
      "æĹłçºº": 6907,
      "èħĲèļĢ": 6908,
      "æĶ¶è´Ń": 6909,
      "æ¼Ķç¤ºæķ°æį®": 6910,
      "top": 6911,
      "åı¦": 6912,
      "æĪĪ": 6913,
      "è·Į": 6914,
      "ä¸ĭä¸Ģä¸ªäº§åĵģ": 6915,
      "æĬĺå¼¯": 6916,
      "å±ķåı°æĲŃå»º": 6917,
      "æīĵåĮħæľº": 6918,
      "ĠæĹħæ¸¸": 6919,
      "èµĽç¨ĭ": 6920,
      "å¦ĥ": 6921,
      "ç¼ĥ": 6922,
      "íķ": 6923,
      "km": 6924,
      "Ġmo": 6925,
      "ç½ĹèĮ¨": 6926,
      "å·¥èīºåĵģ": 6927,
      "å·§åħĭåĬĽ": 6928,
      "ç½²": 6929,
      "ç£ģåĬĽ": 6930,
      "kn": 6931,
      "æľ¨ä¸ļæľīéĻĲåħ¬åı¸": 6932,
      "å¹´é«ĺèĢĥ": 6933,
      "åıĤä¸İ": 6934,
      "æĸĻçĲĨ": 6935,
      "ĠåĲĪä½ľ": 6936,
      "çº²": 6937,
      "å¾Ĵ": 6938,
      "Ġæ·±": 6939,
      "åħĥä»¶": 6940,
      "bd": 6941,
      "åĪĽå»º": 6942,
      "åĽĽä»¶å¥Ĺ": 6943,
      "éĩįåºĨå¸Ĥ": 6944,
      "Ñı": 6945,
      "éĺ²æ»ĳ": 6946,
      "ä¸¤åİħ": 6947,
      "åħīæºĲ": 6948,
      "ä¸īçĽ¸": 6949,
      "éĶĺ": 6950,
      "pv": 6951,
      "æīĭéĵ¾": 6952,
      "æĺ¯ç¬¬": 6953,
      "åįĬèĩªåĬ¨": 6954,
      "æİ¢æµĭ": 6955,
      "æģŃ": 6956,
      "å¹´éī´": 6957,
      "åĢ¼å¾Ĺä¹°": 6958,
      "æ¾ľ": 6959,
      "åį°è±¡": 6960,
      "åĨ²åºĬ": 6961,
      "Ġå®ģæ³¢": 6962,
      "ä¸īç»´": 6963,
      "éĿĴæĺ¥": 6964,
      "éĻľè¥¿": 6965,
      "Ġfr": 6966,
      "èįĴ": 6967,
      "é£İåĨ·": 6968,
      "çĿĢ": 6969,
      "ĠåĲĪèĤ¥": 6970,
      "èİ·å¥ĸ": 6971,
      "ä¾¿åĪ©": 6972,
      "åŀ®": 6973,
      "gf": 6974,
      "æĿ©": 6975,
      "éĽ¶éĥ¨ä»¶": 6976,
      "å¹¿æĴŃ": 6977,
      "æĺł": 6978,
      "è¿Ľåĩºåı£": 6979,
      "èµĦæĸĻä¸ĭè½½": 6980,
      "éĿĵ": 6981,
      "ç¦»åĲĪåĻ¨": 6982,
      "çŁ¢éĩı": 6983,
      "é¢Ī": 6984,
      "å£¤": 6985,
      "çĢļ": 6986,
      "æ¼Ķåĩº": 6987,
      "æ³Ħ": 6988,
      "ä¸ĬéĹ¨": 6989,
      "éĺŁä¼į": 6990,
      "ä»·æł¼è¡¨": 6991,
      "und": 6992,
      "Ġè¯¾ç¨ĭ": 6993,
      "å£°æĺİ": 6994,
      "ç§ĳçĽ®": 6995,
      "ĠèĢģ": 6996,
      "xy": 6997,
      "åįĹæµ·": 6998,
      "îĤ": 6999,
      "Ð²": 7000,
      "çĥ§çĥ¤": 7001,
      "éĵ°éĵ¾": 7002,
      "åĬłå·¥è®¾å¤ĩ": 7003,
      "å®¶æķĻ": 7004,
      "æĶ¶ç¼©": 7005,
      "eng": 7006,
      "åħħæ°Ķ": 7007,
      "çī¹åĪ«": 7008,
      "ä½ĳ": 7009,
      "åĪ©äºļ": 7010,
      "ãĥ«": 7011,
      "æľĪé¥¼": 7012,
      "Ġpe": 7013,
      "èĩªåĬ¨åĮĸè®¾å¤ĩæľīéĻĲåħ¬åı¸": 7014,
      "ä¸»èĲ¥": 7015,
      "çĥ¤æ¼Ĩ": 7016,
      "é£İåħī": 7017,
      "å¤ļå±Ĥ": 7018,
      "åħĥç´ł": 7019,
      "1200": 7020,
      "è§ĴéĴ¢": 7021,
      "æ½ľæ°´": 7022,
      "ä¸Ĭä¸ĭ": 7023,
      "åĮĹé£İ": 7024,
      "æ´ĭè£ħ": 7025,
      "åĪĿçº§": 7026,
      "æİ¥åı£": 7027,
      "é»Ħéĵľ": 7028,
      "è¿ŀç»ĵ": 7029,
      "2007": 7030,
      "æİ¥çº¿": 7031,
      "å¸Ĩå¸ĥ": 7032,
      "åħ¬ä¸»": 7033,
      "ç¢³éĴ¢": 7034,
      "åģĩæľŁ": 7035,
      "ä¸Ľ": 7036,
      "¸Ģ": 7037,
      "åĮħåĲ«": 7038,
      "Ġåıĸæ¶Ī": 7039,
      "éĺ²æĴŀ": 7040,
      "é¤Ĳæ¡Įæ¤ħ": 7041,
      "å¸®åĬ©ä¸Ńå¿ĥ": 7042,
      "æ±īè¯Ń": 7043,
      "å°¤": 7044,
      "5000": 7045,
      "ç»Īç«¯": 7046,
      "ĠéĵĿ": 7047,
      "Ġä¼ģä¸ļæĸĩåĮĸ": 7048,
      "éĨī": 7049,
      "æĮ¤å¡ĳæĿ¿": 7050,
      "æĽ¹": 7051,
      "ä¸ĵæłı": 7052,
      "Ġ300": 7053,
      "å§¹": 7054,
      "äººçĶŁ": 7055,
      "æ°´åĨ·": 7056,
      "æĻĸ": 7057,
      "ä»£è¡¨": 7058,
      "è®¯æģ¯": 7059,
      "low": 7060,
      "ä¼½": 7061,
      "æª¬": 7062,
      "æıĲåıĸ": 7063,
      "ä¹ĭæĺŁ": 7064,
      "prev": 7065,
      "å¸ĥç½®": 7066,
      "æĮ¯åĬ¨çŃĽ": 7067,
      "æ££": 7068,
      "Ġbl": 7069,
      "èĥ¸": 7070,
      "è°ĥæķ´": 7071,
      "tb": 7072,
      "çĽ¸åħ³åĽ¾çīĩ": 7073,
      "Ġ---": 7074,
      "Ġçº¿ä¸Ĭ": 7075,
      "Ġçİ¯ä¿Ŀ": 7076,
      "å®ĿçŁ³": 7077,
      "æ¶Ķ": 7078,
      "les": 7079,
      "Ġæ¸ħéĻ¤çŃĽéĢī": 7080,
      "è¿ĺéľĢ": 7081,
      "çħİ": 7082,
      "Ġä¸Ńæĸĩ": 7083,
      "ĠæĻ®éĢļ": 7084,
      "é»Ħé¡µ": 7085,
      "è±«": 7086,
      "âĳ": 7087,
      "é©±åĬ¨ç²¾çģµæıĲä¾Ľ": 7088,
      "uc": 7089,
      "çĻ»éĻĨ": 7090,
      "ĠäºĳåįĹ": 7091,
      "kl": 7092,
      "æµģæ°´çº¿": 7093,
      "ĠåķĨä¸ļ": 7094,
      "ä¼łåªĴæľīéĻĲåħ¬åı¸": 7095,
      "ife": 7096,
      "å¤§ç±³": 7097,
      "é¡¹çĽ®åĲįç§°": 7098,
      "ĠåĽŀ": 7099,
      "èĬ±å²Ĺ": 7100,
      "ãĢī": 7101,
      "ä¹°åįĸ": 7102,
      "ä¸ļèĤ¡ä»½æľīéĻĲåħ¬åı¸": 7103,
      "Ġåı¤": 7104,
      "ç¤¾ç¾¤": 7105,
      "åĲĦç±»": 7106,
      "æ¤Ń": 7107,
      "ä¸ĭä¸Ģçº§": 7108,
      "çĽ¸åħ³åķĨåĵģ": 7109,
      "åıĳå¸ĥèĢħ": 7110,
      "èĬ¯çīĩ": 7111,
      "å®¤ä¸¤åİħ": 7112,
      "èģĮä¸ļåŃ¦éĻ¢": 7113,
      "çĥŃéĹ¨é©±åĬ¨": 7114,
      "é©±åĬ¨ç²¾çģµé¦ĸé¡µ": 7115,
      "åĪ¶åĬ¨": 7116,
      "æĽĿ": 7117,
      "Ġã": 7118,
      "ae": 7119,
      "Ġ{": 7120,
      "æİĴæ±¡": 7121,
      "Ġè·Ŀç¦»": 7122,
      "èĩªåĬ¨éĹ¨": 7123,
      "ä¸ºæĤ¨å±ķç¤º": 7124,
      "æĭ³": 7125,
      "çĤ®": 7126,
      "èĻļæĭŁ": 7127,
      "old": 7128,
      "Ġall": 7129,
      "è´¦": 7130,
      "ç¬¬ä¸Ģé¡µ": 7131,
      "111": 7132,
      "æ¬¢è¿İæĿ¥": 7133,
      "è½»åŀĭ": 7134,
      "åĪĩæį¢åŁİå¸Ĥ": 7135,
      "éªĮè¯ģ": 7136,
      "éĻĲå®ļ": 7137,
      "Ġä½İ": 7138,
      "ç¬¦åĲĪ": 7139,
      "åħ¬é¦Ĩ": 7140,
      "éĢŁåº¦": 7141,
      "ä¸ľè·¯": 7142,
      "åĨ¬åŃ£": 7143,
      "æĥ§": 7144,
      "äººå·¥": 7145,
      "hf": 7146,
      "éĴł": 7147,
      "è½»æĿ¾": 7148,
      "ä¸ŃåĮ»": 7149,
      "éĵ£åºĬ": 7150,
      "èį¡": 7151,
      "ä¸ĭä¸Ģçº§è¿ĺéľĢ": 7152,
      "Ġè´µå·ŀ": 7153,
      "ä¸įéĶĪéĴ¢æĿ¿": 7154,
      "æĹħè¡Įç¤¾": 7155,
      "ç®į": 7156,
      "æµ·ç»µ": 7157,
      "èĭį": 7158,
      "Ġä¸ľåįĹ": 7159,
      "æľ¨çº¹": 7160,
      "æķ°æį®åºĵ": 7161,
      "Ġæľº": 7162,
      "ung": 7163,
      "æ¦Ĥå¿µ": 7164,
      "å¾ĭå¸ĪäºĭåĬ¡æīĢ": 7165,
      "ä¾£": 7166,
      "åįģåŃĹ": 7167,
      "ĠéĹ¨": 7168,
      "çĶµåŃĲä¹¦": 7169,
      "çĽ´å¾Ħ": 7170,
      "çĶŁæ´»é¦Ĩ": 7171,
      "çī©æĸĻ": 7172,
      "èį¯åĵģ": 7173,
      "å»ºè®¾éĽĨåĽ¢æľīéĻĲåħ¬åı¸": 7174,
      "play": 7175,
      "æŃ£å¼ı": 7176,
      "è½´æµģ": 7177,
      "Ġpr": 7178,
      "èİ²èĬ±": 7179,
      "æ¸ļ": 7180,
      "çĲ¼": 7181,
      "æĭīåĬĽ": 7182,
      "å¸Ĳç¯·": 7183,
      "åĬ³åĬ¨": 7184,
      "ä¸ĩè¾¾": 7185,
      "å§¿": 7186,
      "éĴ¨": 7187,
      "int": 7188,
      "åĽ´å¢Ļ": 7189,
      "è½¯ä½ĵ": 7190,
      "èĨ¨èĥĢ": 7191,
      "è¯ĦåĪĨ": 7192,
      "èĢķ": 7193,
      "ĠåŃ¦æł¡": 7194,
      "åħ¬åı¸æĸ°éĹ»": 7195,
      "ä¸Ģç§į": 7196,
      "é«ĺæĸ°æĬĢæľ¯": 7197,
      "èĤ¡å¸Ĥ": 7198,
      "ï¿½@": 7199,
      "æĸ°åįİ": 7200,
      "Ġå®¢æĪ·æ¡Īä¾ĭ": 7201,
      "çİ°ä»£é£İæł¼": 7202,
      "æĲľç´¢åħ³éĶ®è¯į": 7203,
      "èİĵ": 7204,
      "è¶ĭåĬ¿": 7205,
      "åıĳçİ°": 7206,
      "éĴ©": 7207,
      "Ġè§Ħæł¼": 7208,
      "tl": 7209,
      "å©·": 7210,
      "çŃĿ": 7211,
      "çļ®èĤ¤": 7212,
      "è½¦åĩºç§Ł": 7213,
      "ç«Ļéķ¿": 7214,
      "éħĴçĵ¶": 7215,
      "Ġåħ³éĹŃ": 7216,
      "å±±æ°´": 7217,
      "å©Ĩ": 7218,
      "ber": 7219,
      "je": 7220,
      "è¿Ĳè¾ĵè½¦": 7221,
      "çĭ¼": 7222,
      "èĩªåĲ¸": 7223,
      "Ð´": 7224,
      "Ġç»¿": 7225,
      "åĨĢ": 7226,
      "æī¬å·ŀå¸Ĥ": 7227,
      "ç¨»": 7228,
      "Ġfl": 7229,
      "å¥ĹæĪ¿": 7230,
      "æĶ¶çĽĬ": 7231,
      "åıĳå±ķåİĨç¨ĭ": 7232,
      "ann": 7233,
      "æ´Ĺè½¦": 7234,
      "ç¢Į": 7235,
      "åı¬å¼Ģ": 7236,
      "æľ¬": 7237,
      "æĿł": 7238,
      "çıįçıłæ£ī": 7239,
      "èĤļ": 7240,
      "Ġç±»": 7241,
      "ç¬¬ä¸ĥ": 7242,
      "åİļå£ģ": 7243,
      "æºĨ": 7244,
      "ÑĮ": 7245,
      "åĲ«è®¾è®¡": 7246,
      "Ġå¸ĥ": 7247,
      "å»ºè®¾å·¥ç¨ĭæľīéĻĲåħ¬åı¸": 7248,
      "ç²¾ç¡®": 7249,
      "åĲīä»ĸ": 7250,
      "ç«ĭæŁ±": 7251,
      "åİĺ": 7252,
      "çĩĥæ²¹": 7253,
      "çĽĳçĲĨ": 7254,
      "å¦ĸ": 7255,
      "Ġæ¸ħéĻ¤åħ¨éĥ¨": 7256,
      "çĤ¬": 7257,
      "æ³°åĽ½": 7258,
      "èģļä¸Ļçĥ¯": 7259,
      "è´¯": 7260,
      "çĶµå½±": 7261,
      "éļĶæ²¹": 7262,
      "æĹłå°ĺ": 7263,
      "åķĨä¼ļ": 7264,
      "äº©": 7265,
      "è°Ĳ": 7266,
      "åĽ±": 7267,
      "ä»¤èĲ¥": 7268,
      "éĥ¨èĲ½æł¼": 7269,
      "Ġé£ŀ": 7270,
      "Ġæł¡åĽŃ": 7271,
      "è´«": 7272,
      "Ġè·Ŀç¦»ä¸ĭä¸Ģçº§è¿ĺéľĢ": 7273,
      "Ġçıł": 7274,
      "æĪĲæĸ°": 7275,
      "åĩºå¤Ħ": 7276,
      "æµľÑĥ": 7277,
      "Ġçĵ": 7278,
      "æĶ¯æĴĳ": 7279,
      "Ġä¸Ģå¯¹å¤ļ": 7280,
      "éĽħæĢĿ": 7281,
      "æĸ°å»º": 7282,
      "æµĵç¼©": 7283,
      "wo": 7284,
      "å½±åĵį": 7285,
      "ç¼ĸçłģ": 7286,
      "æ½®æµģ": 7287,
      "sf": 7288,
      "æĶ¾å¤§": 7289,
      "ä¹Ŀæ¸¸ä¼ļ": 7290,
      "wh": 7291,
      "çĴ§": 7292,
      "ĠåħŃ": 7293,
      "Ġâī¡": 7294,
      "Ġä¸Ĭä¸Ģ": 7295,
      "æĸ°åĬłåĿ¡": 7296,
      "nd": 7297,
      "è¿ĳæľŁ": 7298,
      "ç°§": 7299,
      "åĽ½ç«ĭ": 7300,
      "sz": 7301,
      "Ġéĥĳå·ŀ": 7302,
      "Ġä¹Ŀ": 7303,
      "æľīæķĪ": 7304,
      "ãĢĳ:": 7305,
      "ä¸Ģç«Ļå¼ı": 7306,
      "pptæ¨¡æĿ¿": 7307,
      "çīĽèĤī": 7308,
      "ÏĨ": 7309,
      "å®ŀæĸ½": 7310,
      "æīĺè¿Ĳ": 7311,
      "å£°å±ıéļľ": 7312,
      "éĺ³å¸Ĥ": 7313,
      "åı·çº¿": 7314,
      "æĸĩåĮĸä¼łæĴŃ": 7315,
      "ç¡«åĮĸ": 7316,
      "ä»Ģä¹ĪåĢ¼å¾Ĺä¹°": 7317,
      "æķ´å½¢": 7318,
      "æ¬¢è¿İæĤ¨": 7319,
      "ä¼Ĳ": 7320,
      "å¯¼çĥŃæ²¹": 7321,
      "Ġæ¶²åİĭ": 7322,
      "èĬ±çĶŁ": 7323,
      "å®ģåİ¿": 7324,
      "æĺ¾å¾®": 7325,
      "æīĭæŀ¶": 7326,
      "ji": 7327,
      "åĪ¶éĢłåķĨ": 7328,
      "æģ¢": 7329,
      "ä¼¸ç¼©éĹ¨": 7330,
      "åı¯çĪ±": 7331,
      "ä¸Ńåı¤": 7332,
      "åĬŀäºĭ": 7333,
      "åľŁå£¤": 7334,
      "Ĥ¬": 7335,
      "yle": 7336,
      "ick": 7337,
      "jv": 7338,
      "éħįæĸ¹": 7339,
      "æĹħæ¸¸ç½ĳ": 7340,
      "00000000": 7341,
      "Ġå»º": 7342,
      "æ»ĭ": 7343,
      "ä¿®æĶ¹": 7344,
      "éĨĴ": 7345,
      "æľºä»·æł¼": 7346,
      "åŁºéĩĳä¼ļ": 7347,
      "è®¢åįķ": 7348,
      "å¼Ģå±ķ": 7349,
      "åĪĨç¦»åĻ¨": 7350,
      "åľ°æĸ¹": 7351,
      "Ġinter": 7352,
      "æĬĢæľ¯æĶ¯æĮģ": 7353,
      "èĩªèĲ¥": 7354,
      "åĪĨå¸ĥ": 7355,
      "å¤ĦçĲĨè®¾å¤ĩ": 7356,
      "hg": 7357,
      "åĿł": 7358,
      "æ¡ĤåĽŃ": 7359,
      "açº§": 7360,
      "éĺ²æ²»": 7361,
      "å¯¼å¸Ī": 7362,
      "éŃı": 7363,
      "äººæĸĩ": 7364,
      "Ġä¸¤": 7365,
      "çħĮ": 7366,
      "ä¿¡ä¹ī": 7367,
      "å¹³ç±³ä¸ī": 7368,
      "åīĬ": 7369,
      "å·¥ä¸ļåĮº": 7370,
      "Ġå¯Į": 7371,
      "çĤİ": 7372,
      "si": 7373,
      "æĹ¦": 7374,
      "ä¸īæĺŁ": 7375,
      "ç¢į": 7376,
      "ĠåľĨ": 7377,
      "çĺ¦": 7378,
      "çĩĥæĸĻ": 7379,
      "Ġ06": 7380,
      "Ġåħ¨åĽ½": 7381,
      "åĸĿ": 7382,
      "Ġä¸": 7383,
      "è¡¨æł¼": 7384,
      "ĠæĬ¥ä»·": 7385,
      "â´Ģ": 7386,
      "éĵ²": 7387,
      "æ¾İ": 7388,
      "bg": 7389,
      "çĶ³æĬ¥": 7390,
      "ræł¼": 7391,
      "Ġåı°ä¸Ń": 7392,
      "ä»Ĭå¤©": 7393,
      "ĠçŁ³å®¶åºĦ": 7394,
      "çĲĨå¿µ": 7395,
      "åĪĢçīĩ": 7396,
      "Ġå½ķ": 7397,
      "æ³ĵ": 7398,
      "æ¶Ĥå¡ĳ": 7399,
      "å¥Ĺç®¡": 7400,
      "ĠåĮĸå·¥": 7401,
      "Ġåŀĭåı·": 7402,
      "ĠåŃĹ": 7403,
      "é¢ģ": 7404,
      "Ġéĵľ": 7405,
      "ãĢĸ": 7406,
      "åĽ½æ°ĳ": 7407,
      "æ¶Ĥè£ħ": 7408,
      "æĬ¥éģĵ": 7409,
      "æ°¸åº·": 7410,
      "å¤§åİħ": 7411,
      "ç«ŀæĬĢ": 7412,
      "ä¾¿å®ľ": 7413,
      "æŁłæª¬": 7414,
      "Ġapp": 7415,
      "åĴ¨è¯¢æľīéĻĲåħ¬åı¸": 7416,
      "äºĭä»¶": 7417,
      "çİĸ": 7418,
      "èĦļæīĭæŀ¶": 7419,
      "Ġblog": 7420,
      "çº¿ç¼Ĩ": 7421,
      "éħĴæŁľ": 7422,
      "è®¿å®¢": 7423,
      "æĺ¯åĲ¦": 7424,
      "è´Ńçī©ä¸Ńå¿ĥ": 7425,
      "æĸ°æĿĲæĸĻç§ĳæĬĢæľīéĻĲåħ¬åı¸": 7426,
      "è§ĦåĪĻ": 7427,
      "å¤ļå°ĳéĴ±ä¸Ģ": 7428,
      "lg": 7429,
      "æĭīä¸Ŀ": 7430,
      "éº¦åħĭ": 7431,
      "æīĭæĮģ": 7432,
      "ä»·åĢ¼": 7433,
      "Ġç¬¬ä¸Ģé¡µ": 7434,
      "éľĸ": 7435,
      "åıĤè§Ĥ": 7436,
      "pet": 7437,
      "ãĢĹ": 7438,
      "uth": 7439,
      "æĪĲåŀĭæľº": 7440,
      "''": 7441,
      "fy": 7442,
      "ĠæŁ¥è¯¢": 7443,
      "ä¹¦ç±į": 7444,
      "åĽ¢è´Ń": 7445,
      "é¢Ĳ": 7446,
      "ĠåĲ´": 7447,
      "åįģåħŃ": 7448,
      "åħħçĶµåĻ¨": 7449,
      "é¦ĸé¥°": 7450,
      "æ±½è½¦ç«ĻæĹ¶åĪ»è¡¨": 7451,
      "æĬ¼": 7452,
      "èį§": 7453,
      "æİ¨è½¦": 7454,
      "çłĶè®¨": 7455,
      "éĽ·è¾¾": 7456,
      "åĩıåİĭ": 7457,
      "éĩĳé¾Ļ": 7458,
      "li": 7459,
      "Ġåıĸæ¶ĪåĽŀå¤į": 7460,
      "Ġèī¾": 7461,
      "005": 7462,
      "ç²¾ç¥ŀ": 7463,
      "fz": 7464,
      "å¥Ī": 7465,
      "æł¼åħ°": 7466,
      "ãĥ¥": 7467,
      "å©ļçº±æĳĦå½±": 7468,
      "çĸ¾": 7469,
      "èľĤèľľ": 7470,
      "Ġå¹¿å·ŀå¸Ĥ": 7471,
      "åĪĩæľº": 7472,
      "ï¿½ï¿½ï¿½ï¿½ï¿½ï¿½ï¿½ï¿½ï¿½ï¿½ï¿½ï¿½ï¿½ï¿½ï¿½ï¿½ï¿½ï¿½ï¿½ï¿½ï¿½ï¿½ï¿½ï¿½ï¿½ï¿½ï¿½ï¿½ï¿½ï¿½ï¿½ï¿½": 7473,
      "çĶµåİĤ": 7474,
      "Ġåħ¶å®ĥ": 7475,
      "è§Ĥçľĭ": 7476,
      "ç®Ń": 7477,
      "book": 7478,
      "max": 7479,
      "»çŁ": 7480,
      "Ġå¥³": 7481,
      "è°ģ": 7482,
      "ç¡«éħ¸": 7483,
      "æ³µç«Ļ": 7484,
      "çĳĻ": 7485,
      "æĢ»æķ°": 7486,
      "Ġä¼ĳéĹ²": 7487,
      "å®ĺæĸ¹": 7488,
      "éĤĵ": 7489,
      "æīĵéĢł": 7490,
      "ĠåĮħè£ħ": 7491,
      "Ġç¬¬äºĮ": 7492,
      "èģĮå·¥": 7493,
      "bx": 7494,
      "é½Ĳåħ¨": 7495,
      "é¡¶çº§": 7496,
      "abo": 7497,
      "çĸıéĢļ": 7498,
      "å¹´ä»¥ä¸ĭ": 7499,
      "åįĹè·¯": 7500,
      "Ġim": 7501,
      "å¨´": 7502,
      "åĽ½ä¸Ń": 7503,
      "å¦¹": 7504,
      "ç½ĳç«Ļåľ°åĽ¾": 7505,
      "çĪĢ": 7506,
      "ĠçĲĨ": 7507,
      "èĳ£äºĭ": 7508,
      "é¡ºå¾·åĮº": 7509,
      "ä¼ģåĬ¨åĬĽ": 7510,
      "éĿ¢ç²ī": 7511,
      "Ġéĵģ": 7512,
      "jz": 7513,
      "å®£ä¼łçīĩ": 7514,
      "çľł": 7515,
      "é¡»": 7516,
      "æº´": 7517,
      "è¾¨": 7518,
      "æ¶Į": 7519,
      "èĩªèĢĥ": 7520,
      "åŃ¦ä¼ļ": 7521,
      "å®¢åĪ¶åĮĸ": 7522,
      "Ġæ²Īéĺ³": 7523,
      "åī©": 7524,
      "æģĲ": 7525,
      "âĻ": 7526,
      "æ³ķè§Ħ": 7527,
      "ç¢³çº¤ç»´": 7528,
      "uåŀĭ": 7529,
      "æĺİæĸ¯": 7530,
      "æŀĦä»¶": 7531,
      "éĴ¢åĮĸçİ»çĴĥ": 7532,
      "åįĹæĸ¹": 7533,
      "âĢĵ": 7534,
      "ĠçĶ±": 7535,
      "ä¼ļè®®å®¤": 7536,
      "åĿľ": 7537,
      "éģ®": 7538,
      "èħĬ": 7539,
      "äºĶéĩĳåĪ¶åĵģæľīéĻĲåħ¬åı¸": 7540,
      "æĶ¯ä»ĺ": 7541,
      "å¸¸è§ģéĹ®é¢ĺ": 7542,
      "é©±åĬ¨æķ°æį®": 7543,
      "å·¥ç¨ĭæĸ½å·¥": 7544,
      "åĽ¾çº¸": 7545,
      "ĠæĻ®": 7546,
      "æĸĳ": 7547,
      "ãĤ¹": 7548,
      "la": 7549,
      "åĽŃæŀĹæĻ¯è§Ĥ": 7550,
      "çĸĳ": 7551,
      "æľºæ¢°æīĭ": 7552,
      "ä¸Ńç§ĭ": 7553,
      "æĬµ": 7554,
      "å·¥åķĨ": 7555,
      "æĬ¹": 7556,
      "ĠçĲĥ": 7557,
      "å®ŀè®Ń": 7558,
      "Ġdesign": 7559,
      "å¨ĥå¨ĥ": 7560,
      "Ġä¸ľèİŀ": 7561,
      "ä¿Ŀè¯ģ": 7562,
      "éĿ´": 7563,
      "ä¸ŃæŃ£": 7564,
      "12345": 7565,
      "å®¢æĪ¿": 7566,
      "é»ıè´´": 7567,
      "uk": 7568,
      "fd": 7569,
      "æľºçĶµæľīéĻĲåħ¬åı¸": 7570,
      "Ġäº§åĵģåĪĨç±»": 7571,
      "éħ¶": 7572,
      "004": 7573,
      "æĪĳè¦ģ": 7574,
      "çĽ´æİ¥": 7575,
      "éĥĳå·ŀå¸Ĥ": 7576,
      "ä»ªå¼ı": 7577,
      "æ¤°": 7578,
      "åĲ¬åĬĽ": 7579,
      "éĹ¨ä¸ļæľīéĻĲåħ¬åı¸": 7580,
      "åĵģç§į": 7581,
      "èĬ±çµ®": 7582,
      "æĽ´æį¢": 7583,
      "mmæŀģ": 7584,
      "iy": 7585,
      "wz": 7586,
      "tt": 7587,
      "åºŁæ°´": 7588,
      "èľĤçªĿ": 7589,
      "ä¹¦åºĹ": 7590,
      "æĢ»çĽĳ": 7591,
      "Ġçļ®": 7592,
      "ä¸įåĪ°": 7593,
      "Ġéļı": 7594,
      "2006": 7595,
      "Ġ*": 7596,
      "ä¸Ńçº§": 7597,
      "ä¸Ĭæµ·é¾Ļåĩ¤": 7598,
      "éĶĮéĴ¢": 7599,
      "æºĨéĤ¢èĸ°": 7600,
      "ĠçĽ´æĴŃ": 7601,
      "Ġæ¬¡æµıè§Ī": 7602,
      "Ñĩ": 7603,
      "hx": 7604,
      "å¨ĩ": 7605,
      "Ġac": 7606,
      "éķ¿åº¦": 7607,
      "ç»ĨèĬĤ": 7608,
      "å·¥ç¨ĭæľºæ¢°": 7609,
      "ç§Łå®¢": 7610,
      "åºķåº§": 7611,
      "æĤ¬æµ®": 7612,
      "èģĶç»ľ": 7613,
      "æ±½è½¦ç¥¨ä»·": 7614,
      "çĶµç¼Ĩæ¡¥æŀ¶": 7615,
      "è®¾å¤ĩå±ķç¤º": 7616,
      "éĵ¸ä»¶": 7617,
      "Ġåľ£": 7618,
      "éĿĽ": 7619,
      "è®¾å¤ĩåİĤ": 7620,
      "Ġï¿½ï¿½ï¿½ï¿½": 7621,
      "md": 7622,
      "äº¦": 7623,
      "Ġå®ļåĪ¶": 7624,
      "åı«": 7625,
      "çĽ®åīįä½įç½®": 7626,
      "çĲĽ": 7627,
      "å¥¶ç²ī": 7628,
      "jx": 7629,
      "éŃħ": 7630,
      "å¤§åı£å¾Ħ": 7631,
      "æģ¢å¤į": 7632,
      "ä¸Ńç§ĳ": 7633,
      "è·¯éĿ¢": 7634,
      "ĠåİĨåı²": 7635,
      "çİ¯åį«": 7636,
      "åºĶçĶ¨æ¡Īä¾ĭ": 7637,
      "ame": 7638,
      "æ²¹åİĭ": 7639,
      "Ġqu": 7640,
      "~~": 7641,
      "wç«Ļ": 7642,
      "äº§åĵģæĬ¥ä»·": 7643,
      "Ġéĺ²çĪĨ": 7644,
      "çĻ½äºĳ": 7645,
      "Ġ2009": 7646,
      "åĸľæ¬¢": 7647,
      "åŃ£åº¦æĬ¥åĳĬ": 7648,
      "gg": 7649,
      "ĠåŃ¦çĶŁ": 7650,
      "éļĶå¢ĻæĿ¿": 7651,
      "çĪ±å¿ĥ": 7652,
      "è§Ĩé¢ĳ": 7653,
      "æĦıè§ģåıįé¦ĪæĦıè§ģåıįé¦ĪæĦıè§ģåıįé¦ĪæĦıè§ģåıįé¦Ī": 7654,
      "ilter": 7655,
      "çº¯éĵ¶": 7656,
      "åį·æĿĲ": 7657,
      "sr": 7658,
      "Ġå±±": 7659,
      "èµĮ": 7660,
      "ç³»åĪĹäº§åĵģ": 7661,
      "å¸¸è§ĦèµĽ": 7662,
      "éļľç¢į": 7663,
      "ny": 7664,
      "æľ¨å±ĭ": 7665,
      "åİĤå®¶ä¾ĽåºĶ": 7666,
      "ere": 7667,
      "ä¸Ĭä¸Ģäº§åĵģ": 7668,
      "ç§ĭåŃ£": 7669,
      "240": 7670,
      "åĨ·æ°Ķ": 7671,
      "Ġ28": 7672,
      "åįľ": 7673,
      "å®ļä¹ī": 7674,
      "è£ħé¥°è®¾è®¡": 7675,
      "èµļ": 7676,
      "Ġed": 7677,
      "å·²æľī": 7678,
      "Ġ26": 7679,
      "çĤ¹åĩ»æķ°": 7680,
      "å®ĩéĢļå®¢è½¦": 7681,
      "æ°´ä¸Ĭ": 7682,
      "èį·åħ°": 7683,
      "èĭ¦": 7684,
      "æ¸Ŀ": 7685,
      "ä¼¼": 7686,
      "éĻ¢æł¡": 7687,
      "æ±ª": 7688,
      "Ġæĺİ": 7689,
      "å¹´ä¼ļ": 7690,
      "çĥŁåĽ±": 7691,
      "æķ°æİ§è½¦åºĬ": 7692,
      "ç£º": 7693,
      "éħ°èĥº": 7694,
      "nm": 7695,
      "æĲħæĭĮç«Ļ": 7696,
      "æĲŃéħį": 7697,
      "320": 7698,
      "Ġä¾Ŀ": 7699,
      "èĩªåĬ¨åĮĸä»ªè¡¨": 7700,
      "jl": 7701,
      "çłĶç©¶ä¸Ńå¿ĥ": 7702,
      "Ġä¸ļåĬ¡": 7703,
      "æįķ": 7704,
      "ĠÑģ": 7705,
      "æĬķèµĦèĢħ": 7706,
      "ä¹¦æŁľ": 7707,
      "æĸ°çĶŁ": 7708,
      "diy": 7709,
      "éĶŁæĸ¤æĭ·éĶŁæĸ¤æĭ·": 7710,
      "æĸ°åı¤åħ¸": 7711,
      "çĪ·": 7712,
      "çŁ«": 7713,
      "Ġ110": 7714,
      "èĬŃ": 7715,
      "å¤ļå¤ļ": 7716,
      "çĽĽä¸ĸ": 7717,
      "çĹĽ": 7718,
      "çīµå¼ķ": 7719,
      "Ġas": 7720,
      "åĻ¨æľīéĻĲåħ¬åı¸": 7721,
      "åıĮäºº": 7722,
      "æ£Ģæµĭè®¾å¤ĩ": 7723,
      "åķ®": 7724,
      "ĠåĪĹ": 7725,
      "åŁºéļĨ": 7726,
      "ç£Ĭ": 7727,
      "Ġ80": 7728,
      "Ġæľª": 7729,
      "é«ĺåĪĨåŃĲ": 7730,
      "æĭ¨": 7731,
      "æ°¸ç£ģ": 7732,
      "çĤ«": 7733,
      "åħĦå¼Ł": 7734,
      "éŁ³é¢ĳ": 7735,
      "æľ¨åľ°æĿ¿": 7736,
      "éļĶèĨľæ³µ": 7737,
      "read": 7738,
      "éĨļ": 7739,
      "åĩĢåĮĸå·¥ç¨ĭ": 7740,
      "çĥŃçĥĪ": 7741,
      "ç§ĭåĨ¬": 7742,
      "ĠæķĻ": 7743,
      "åķĨè´¸": 7744,
      "çĽ´éĢļ": 7745,
      "fi": 7746,
      "ä¸ĭä¸Ģäº§åĵģ": 7747,
      "äºķçĽĸ": 7748,
      "ç¾İä¸½": 7749,
      "åľ°è´¨": 7750,
      "æĳĬ": 7751,
      "åįģåħ«": 7752,
      "éĽĨéĶ¦": 7753,
      "ç¨ĭå¼ı": 7754,
      "Ġçİ»çĴĥéĴ¢": 7755,
      "èĥĨ": 7756,
      "åħ¨å±ĭå®ļåĪ¶": 7757,
      "âľ": 7758,
      "å®ŀæĹ¶": 7759,
      "äººåĬĽèµĦæºĲ": 7760,
      "ĠæĹ¶å°ļ": 7761,
      "Ġäº§åĵģçĽ®å½ķ": 7762,
      "ç»ī": 7763,
      "Ġåķ¶": 7764,
      "éĵłè£ħ": 7765,
      "1500": 7766,
      "éĺģæ¥¼": 7767,
      "fx": 7768,
      "ĠÐ²": 7769,
      "è©": 7770,
      "å»ºçŃĳè®¾è®¡": 7771,
      "ä¾ĽåºĶäº§åĵģ": 7772,
      "rom": 7773,
      "è´Ńçī©è½¦": 7774,
      "äº§æĿĥ": 7775,
      "Ġyou": 7776,
      "ç«£": 7777,
      "ç¥Ŀè´º": 7778,
      "åĬ¨è½¦": 7779,
      "è¡ĮæĺŁ": 7780,
      "bi": 7781,
      "Ð¼": 7782,
      "æĭ±": 7783,
      "èµĦè®¯ç½ĳ": 7784,
      "èļĬ": 7785,
      "çº¯æ£ī": 7786,
      "è¥¿éĹ¨åŃĲ": 7787,
      "åĽŀæĶ¾": 7788,
      "å®¿èĪį": 7789,
      "æ¦Ħ": 7790,
      "å¤§æ¡¥": 7791,
      "ä¸ĭåĨĮ": 7792,
      "åĩºåıĳ": 7793,
      "æ±Ĥè´Ń": 7794,
      "è®°å¿Ĩ": 7795,
      "èĲįåĬł": 7796,
      "åĽ½å¤ĸ": 7797,
      "ç½ĳç«Ļå»ºè®¾": 7798,
      "æ§½éĴ¢": 7799,
      "js": 7800,
      "è±ªåįİåŀĭ": 7801,
      "æĭ¬": 7802,
      "æ£ķ": 7803,
      "ç¡¬çĽĺ": 7804,
      "åĶĳ": 7805,
      "æīĭæ¸¸": 7806,
      "æ¶²ä½įè®¡": 7807,
      "æ¸ħæ°´": 7808,
      "ä¸»æĮģäºº": 7809,
      "ĠéŁ³ä¹Ĳ": 7810,
      "Ġåĩ¯": 7811,
      "Ġ109": 7812,
      "kt": 7813,
      "ç²¾èĭ±": 7814,
      "éļĲå½¢": 7815,
      "åŀĤçĽ´": 7816,
      "äºļæ³°": 7817,
      "æ¸ĹéĢı": 7818,
      "åİĤå®¶æī¹åıĳ": 7819,
      "å¤ıä»¤èĲ¥": 7820,
      "Ġçİ¯å¢ĥ": 7821,
      "åĲ¸éŁ³": 7822,
      "æĪĲç«ĭ": 7823,
      "ä¿Ŀæ¸©ç®¡": 7824,
      "006": 7825,
      "å¼ºåĮĸ": 7826,
      "é«ĺç©ºä½ľä¸ļ": 7827,
      "æĮģç»Ń": 7828,
      "éĶĢéĩı": 7829,
      "Ġèĭ±è¯Ń": 7830,
      "Ġcol": 7831,
      "åĪ¹": 7832,
      "çĶµå½±ç½ĳ": 7833,
      "Ġç»Ħç»ĩ": 7834,
      "Ġ108": 7835,
      "å±ķå¼Ģ": 7836,
      "ç§įç±»": 7837,
      "èµ°åĬ¿": 7838,
      "èµĦæĸĻåºĵ": 7839,
      "æ²¹æ°´": 7840,
      "Ġè¿Ľè¡Į": 7841,
      "kz": 7842,
      "ä¸īå±Ĥ": 7843,
      "å¸Ĥåįİ": 7844,
      "ä¸ľæµ·": 7845,
      "çħ¤çŁ¿": 7846,
      "æ°Ķç¼¸": 7847,
      "çļĵ": 7848,
      "éŃĶæ³ķ": 7849,
      "æ¯Ľå·¾": 7850,
      "cx": 7851,
      "Ġme": 7852,
      "çĽ®æłĩ": 7853,
      "å®½æĿ¾": 7854,
      "å¼ıèµ·éĩįæľº": 7855,
      "çİº": 7856,
      "æ°¯ä¹Ļçĥ¯": 7857,
      "ç²īä¸Ŀ": 7858,
      "mmè¶ħ": 7859,
      "åŃĺåĤ¨": 7860,
      "pb": 7861,
      "Ġäº¬ä¸ľ": 7862,
      "Ġå°¾": 7863,
      "åĶ®åĲİæľįåĬ¡": 7864,
      "ww": 7865,
      "ëĭ": 7866,
      "éĹ²": 7867,
      "Ġser": 7868,
      "îĤĪ": 7869,
      "çĶµä¿¡": 7870,
      "ics": 7871,
      "èĲįåĬłéĤ¢èĸ°": 7872,
      "è´µå®¾": 7873,
      "æĻĭæ±Ł": 7874,
      "cq": 7875,
      "åıĶ": 7876,
      "çĽ²": 7877,
      "èĳ±": 7878,
      "è®¢éĺħ": 7879,
      "Ġæİ¨èįĲ": 7880,
      "åķĨéĵº": 7881,
      ")/": 7882,
      ")|": 7883,
      "åĬŀåħ¬æ¥¼": 7884,
      "å¼ºåĬĽ": 7885,
      "çģ«è½¦ç«Ļ": 7886,
      "å»ºå·¥": 7887,
      "éĵĿç®Ķ": 7888,
      "å¸ĸåŃĲ": 7889,
      "æİ§åĪ¶æŁľ": 7890,
      "çıĬ": 7891,
      "éĹ¨å¸Ĥ": 7892,
      "gn": 7893,
      "åĩĳ": 7894,
      "åĨħéĥ¨": 7895,
      "è´¢å¯Į": 7896,
      "éĢĬ": 7897,
      "ä¸ĢæľŁ": 7898,
      "è¡¥ä¹ł": 7899,
      "alk": 7900,
      "cf": 7901,
      "åĬłåħ¥": 7902,
      "mr": 7903,
      "æĬķèµĦçĲĨè´¢åŁ¹è®Ń": 7904,
      "åĬŀåħ¬æ¡Į": 7905,
      "Ġ35": 7906,
      "å·¥ä¸ļæľīéĻĲåħ¬åı¸": 7907,
      "ç¢§æ¡ĤåĽŃ": 7908,
      "éĿĴå°ĳå¹´": 7909,
      "ç¦ıåĪ©": 7910,
      "è¾½å®ģçľģ": 7911,
      "æĥĬ": 7912,
      "Ġæł¼": 7913,
      "ç«łèĬĤ": 7914,
      "èĭ±ä¼¦": 7915,
      "our": 7916,
      "åĲ¡": 7917,
      "çĻ»åħ¥": 7918,
      "é«ĺç²¾åº¦": 7919,
      "æĸĩåĮĸä¼łæĴŃæľīéĻĲåħ¬åı¸": 7920,
      "ãĥĪ": 7921,
      "æĹłéĻĲåħ¬åı¸": 7922,
      "ĠæĻº": 7923,
      "æľĢçĥŃ": 7924,
      "è¡¨çİ°": 7925,
      "æĴķ": 7926,
      "ä¸Ńä¼ģåĬ¨åĬĽ": 7927,
      "æĿ¥è¥¿äºļ": 7928,
      "Ġåħ«": 7929,
      "ä¾¯": 7930,
      "æĺİç»Ĩ": 7931,
      "ãĢĤãĢĤ": 7932,
      "æ±Łåİ¿": 7933,
      "å±ķç¤ºæŀ¶": 7934,
      "ç»ĵå©ļ": 7935,
      "å·¦åı³": 7936,
      "Ġäºİ": 7937,
      "è£ħé¥°æľīéĻĲåħ¬åı¸": 7938,
      "abs": 7939,
      "ä½Ĳ": 7940,
      "åģľè½¦åľº": 7941,
      "æĢ»éĥ¨": 7942,
      "å·¥ç¨ĭåŃ¦éĻ¢": 7943,
      "Ġhy": 7944,
      "å¦į": 7945,
      "ä¿Ŀæ¸©æĿ¿": 7946,
      "æ°´å¤ĦçĲĨè®¾å¤ĩ": 7947,
      "jb": 7948,
      "èĢģåĮĸ": 7949,
      "çĥŃçº¿": 7950,
      "ä¸¾è¡Į": 7951,
      "å¤ļåªĴä½ĵ": 7952,
      "åıĺéĢŁ": 7953,
      "çĹķ": 7954,
      "è¯²": 7955,
      "èĭ±éĽĦ": 7956,
      "ï¿½{": 7957,
      "å®īå¸Ĥ": 7958,
      "é«ĺéĢŁåħ¬è·¯": 7959,
      "å½Ĵæ¡£": 7960,
      "mmæŀģé»ı": 7961,
      "åİļåº¦": 7962,
      "éĩĩåħī": 7963,
      "éĶ°": 7964,
      "éºĵ": 7965,
      "æ¿ĢåħīåĪĩåī²æľº": 7966,
      "è¥¿åĮº": 7967,
      "æĸ°å¹´": 7968,
      "æĺ¾å¾®éķľ": 7969,
      "å®Ŀè´Ŀ": 7970,
      "Ġç½Ĺ": 7971,
      "Ġå½ĵåīįç¦»çº¿": 7972,
      "éĵľçīĪè´´": 7973,
      "åĪĨæľŁ": 7974,
      "áº": 7975,
      "dw": 7976,
      "mmè¶ħé»ıè´´": 7977,
      "âĿ": 7978,
      "ĠèµĦè®¯": 7979,
      "æľºéħįä»¶": 7980,
      "çĢĽ": 7981,
      "æ´Ĺåľ°æľº": 7982,
      "ð«": 7983,
      "è®¾å¤ĩåĽŀæĶ¶": 7984,
      "æĴĴ": 7985,
      "åĶ®æ¥¼": 7986,
      "åĮħè£ħçĽĴ": 7987,
      "mn": 7988,
      "æĸ½å·¥çİ°åľº": 7989,
      "å¤®": 7990,
      "çĶµåĬ¨æľº": 7991,
      "ach": 7992,
      "éĽķèĬ±": 7993,
      "çī¹äº§": 7994,
      "æ£Ģç´¢ç»ĵæŀľ": 7995,
      "Ġåĺī": 7996,
      "å®ļæľŁ": 7997,
      "æĩĴ": 7998,
      "ä¿ĿæĬ¤èĨľ": 7999,
      "çģŃçģ«": 8000,
      "ev": 8001,
      "Ġåıĳè¡¨æĹ¶éĹ´": 8002,
      "å¤©ä½¿": 8003,
      "Ġå®īåħ¨": 8004,
      "åĽ¾æłĩ": 8005,
      "æĮĳ": 8006,
      "é£Łåĵģçº§": 8007,
      "è·ĳéģĵ": 8008,
      "====": 8009,
      "å¹´é«ĺèĢĥçľŁé¢ĺ": 8010,
      "æŃ£æĸĩ": 8011,
      "å°ģåı£": 8012,
      "éĢ»": 8013,
      "éĢīé¡¹": 8014,
      "ä¸ºä»Ģä¹Ī": 8015,
      "æł¹æį®": 8016,
      "ĠãĢĳ": 8017,
      "æ±Ĺ": 8018,
      "Ġç²¾éĢī": 8019,
      "æĹłçººå¸ĥ": 8020,
      "çģŃèıĮ": 8021,
      "Ġé¢Ħ": 8022,
      "å±±å¸Ĥ": 8023,
      "éķ¿åŁİ": 8024,
      "çĸ¯": 8025,
      "æŀģç®¡": 8026,
      "å¤©å¤©": 8027,
      "å¯°": 8028,
      "åĨ¯": 8029,
      "Ġä½Ľå±±å¸Ĥ": 8030,
      "ç¾İçĶ²": 8031,
      "å¡ĳæĸĻæ¡¶": 8032,
      "qy": 8033,
      ">-": 8034,
      "çĲī": 8035,
      "å»ºè®¾å·¥ç¨ĭ": 8036,
      "Ġç¢³": 8037,
      "æķ´è½¦": 8038,
      "ä»ĺæ¬¾": 8039,
      "Ġstre": 8040,
      "****": 8041,
      "æ®ĭ": 8042,
      "Ġsu": 8043,
      "ç»ĳ": 8044,
      "æĲľçĭĲ": 8045,
      "Ġ=": 8046,
      "æ²ģ": 8047,
      "äºĳæŀĹ": 8048,
      "å°ıåĲĥ": 8049,
      "Ò»": 8050,
      "çĻ¾å¹´": 8051,
      "åħ±æī¾åĪ°": 8052,
      "åŁ¹è®Ńä¸Ńå¿ĥ": 8053,
      "air": 8054,
      "æĺ¥èĬĤ": 8055,
      "éĺ¿å°Ķ": 8056,
      "åĲ¾": 8057,
      "ç½ĳæł¼": 8058,
      "åİĭåħĭåĬĽ": 8059,
      "åħīçĶµç§ĳæĬĢæľīéĻĲåħ¬åı¸": 8060,
      "èıľåįķ": 8061,
      "å®Įç¾İ": 8062,
      "sn": 8063,
      "pn": 8064,
      "çĭ¬å®¶": 8065,
      "Ġsc": 8066,
      "jt": 8067,
      "æĲªçİ»çĴĥ": 8068,
      "èħķ": 8069,
      "ï¿½_ï¿½": 8070,
      "man": 8071,
      "éĢłç²Ĵ": 8072,
      "Ġå±±è¥¿": 8073,
      "åħ¼": 8074,
      "»çŁ¥": 8075,
      "Ġæķ°æį®": 8076,
      "åĲ¸å°ĺåĻ¨": 8077,
      "æĲ¬è¿Ĳè½¦": 8078,
      "ä½ľçĶ¨": 8079,
      "åĪĨæķ°": 8080,
      "ç»ł": 8081,
      "èµ°å»Ĭ": 8082,
      "å½ĵåīįç¬¬": 8083,
      "é²ľèĬ±": 8084,
      "ç½ĳåį¡": 8085,
      "æ¨±èĬ±": 8086,
      "båŀĭ": 8087,
      "éı": 8088,
      "å§Ĳ": 8089,
      "Ġäº¤éĢļ": 8090,
      "æĹ¶åħī": 8091,
      "able": 8092,
      "jk": 8093,
      "åľ°åŁĭ": 8094,
      "ĠåĪĺ": 8095,
      "Ġå¹¿è¥¿": 8096,
      "ĠçķĻ": 8097,
      "å¤ķ": 8098,
      "åº·æĺİæĸ¯": 8099,
      "è´Łåİĭ": 8100,
      "å¹³å®ī": 8101,
      "æ¸¸æ³³æ±ł": 8102,
      "Ġæ³ķ": 8103,
      "åĬłæ²¹ç«Ļ": 8104,
      "å½°åĮĸåİ¿": 8105,
      "ä¾Ľæ°´": 8106,
      "load": 8107,
      "çłĮ": 8108,
      "å¼¦": 8109,
      "æĬ¥èŃ¦åĻ¨": 8110,
      "æĺ¯ç¾İ": 8111,
      "Ġä¼ĺ": 8112,
      "ĠçĥŁ": 8113,
      "ĠçĶŁäº§": 8114,
      "ĠåķĨåĵģçŃĽéĢī": 8115,
      "vv": 8116,
      "èĪªå¤©": 8117,
      "äºĮéĨĩ": 8118,
      "æĪ¿æºĲ": 8119,
      "æıĲäº¤": 8120,
      "hm": 8121,
      "ä¸Ģèµ·": 8122,
      "çĶ°åĽŃé£İæł¼": 8123,
      "è½¦ç«Ļ": 8124,
      "zw": 8125,
      "ĠæĲľç´¢": 8126,
      "Ġåħį": 8127,
      "è´¨æĦŁ": 8128,
      "çĳķ": 8129,
      "æ°ĶçĲĥ": 8130,
      "ĠæĿ¨": 8131,
      "è¸Ŀ": 8132,
      "æ²ĥå°Ķ": 8133,
      "çº¿ä¸Ń": 8134,
      "æĥĺ": 8135,
      "Ġæ¯ıé¡µæĺ¾ç¤º": 8136,
      "ec": 8137,
      "å·¥ä½į": 8138,
      "çģ¯ç³»åĪĹ": 8139,
      "ä¸īçº§": 8140,
      "ç¡¼": 8141,
      "è¾¹æľº": 8142,
      "å½ĵèĪĸ": 8143,
      "Ġä»¶": 8144,
      "å®¶çºº": 8145,
      "åĲīç¥¥": 8146,
      "æ¦Ĥè¦ģ": 8147,
      "åº·å¤į": 8148,
      "è£ħéħįå¼ı": 8149,
      "åĨħå¤ĸ": 8150,
      "!-": 8151,
      "åºĦåĽŃ": 8152,
      "æĢİä¹Īè¯»": 8153,
      "çĥ§ç»ĵ": 8154,
      "pi": 8155,
      "Ġç§»åĬ¨": 8156,
      "çĲĨäºĭ": 8157,
      "Ġ45": 8158,
      "çĽĴè£ħ": 8159,
      "æģĴå¤§": 8160,
      "çĳŁ": 8161,
      "ä¸Ńéĵģ": 8162,
      "æĲħæĭĮåĻ¨": 8163,
      "Ãł": 8164,
      "æ¼Ķè®²": 8165,
      "æ¸ħæĸ°": 8166,
      "Ġè¿ĶåĽŀä¸Ĭä¸Ģ": 8167,
      "Ġç¼ĸè¾ĳ": 8168,
      "å¹´ç¬¬ä¸Ģ": 8169,
      "è´´åĽ¾": 8170,
      "å»ºç«Ļ": 8171,
      "è¡ĮéĶĢ": 8172,
      "ç§»éĹ¨": 8173,
      "Ġæĸ°ä¹¡": 8174,
      "å·¥ä¼ļ": 8175,
      "ä¹°çĲĥ": 8176,
      "Ġè·³è½¬": 8177,
      "åĨľåľº": 8178,
      "èŃ¦ç¤º": 8179,
      "èĥ¶æľº": 8180,
      "ä¸Ģåı·": 8181,
      "çģ¯æ³¡": 8182,
      "ĠæĿ¥èĩª": 8183,
      "åľĨç®¡": 8184,
      "ĠèµĦè´¨èį£èªī": 8185,
      "åħ¬å¸ĥ": 8186,
      "è¯įæ±ĩç²¾ç¡®": 8187,
      "Ġè¿Ľè¡Įè¯įæ±ĩç²¾ç¡®": 8188,
      "Ġè¿Ľè¡Įè¯įæ±ĩç²¾ç¡®æ£Ģç´¢ç»ĵæŀľ": 8189,
      "ĠéĵĿåĲĪéĩĳ": 8190,
      "å¤©æ¶¯": 8191,
      "æľºç®±": 8192,
      "au": 8193,
      "èĩ£": 8194,
      "ä¸İæľįåĬ¡": 8195,
      "è½¦æ£ļ": 8196,
      "Ġè´¢åĬ¡è¯Ħä¼°": 8197,
      "æľĢé«ĺ": 8198,
      "ä¸»æ¼Ķ": 8199,
      "æĭ¢": 8200,
      "æİĴæ°Ķ": 8201,
      "å¤§æķ°æį®": 8202,
      "Ġ05": 8203,
      "è¥¿åħ°": 8204,
      "æľ¨ç®±": 8205,
      "Ġä": 8206,
      "éļĲç§ģ": 8207,
      "å¿Ļçº¿ä¸Ń": 8208,
      "è¿ĩåİ»": 8209,
      "ç¦ħ": 8210,
      "ition": 8211,
      "365": 8212,
      "é«ĺæł¡": 8213,
      "ĠæľįåĬ¡é¡¹çĽ®": 8214,
      "åĮħéĤ®": 8215,
      "æ´Ĺè¡£æľº": 8216,
      "åĬŀæ³ķ": 8217,
      "åıĬçŃĶæ¡Ī": 8218,
      "åıĺå½¢": 8219,
      "çıĢ": 8220,
      "zx": 8221,
      "å®ŀçİ°": 8222,
      "ç»Ŀç¼ĺåŃĲ": 8223,
      "æĲ¬å®¶åħ¬åı¸": 8224,
      "Ġæ¹ĸåĮĹ": 8225,
      "åħ¥æĹ¶éĹ´": 8226,
      "ä¸ĵä¸ļçĶŁäº§": 8227,
      "åľĨæŁ±": 8228,
      "æķħéļľ": 8229,
      "ä¼ĺæĥłæİĴè¡Į": 8230,
      "ç¦ıçī¹": 8231,
      "å¹³æĿ¿çĶµèĦĳ": 8232,
      "éĢīåŀĭ": 8233,
      "æ·ĭå®¤": 8234,
      "æ¨Ł": 8235,
      "ç½®çī©": 8236,
      "glish": 8237,
      "äºĴèģĶç½ĳ": 8238,
      "é£Łçī©": 8239,
      "åĬłå¼º": 8240,
      "éħĴåĲ§": 8241,
      "ä¸Ģæ¬¡": 8242,
      "åĻ¨ä»¶": 8243,
      "æ³¨æĦıäºĭé¡¹": 8244,
      "å¸ĤåĮº": 8245,
      "æ£ł": 8246,
      "çłĶç£¨": 8247,
      "ĠåĪĨäº«åĪ°": 8248,
      "èĩªè¡Į": 8249,
      "åįķäºº": 8250,
      "æµĨæ³µ": 8251,
      "åİĭèĬ±": 8252,
      "ä¼Łä¸ļ": 8253,
      "æ·ĭæµ´": 8254,
      "åįģä¸ĥ": 8255,
      "åĽ¾æĸĩ": 8256,
      "æ¯Ķä¾ĭ": 8257,
      "ĠÐ¿": 8258,
      "åĬ©åĬĽ": 8259,
      "Ġwor": 8260,
      "éĤĢè¯·": 8261,
      "èī³": 8262,
      "åĬłè½½": 8263,
      "çĥ¤ç®±": 8264,
      "rt": 8265,
      "çĶŁæĦıç¤¾": 8266,
      "å®¶æĶ¿": 8267,
      "çĶµè§ĨæŁľ": 8268,
      "Ġç»´": 8269,
      "è£ħé¥°åħ¬åı¸": 8270,
      "chome": 8271,
      "åħ»èĢģ": 8272,
      "hq": 8273,
      "ĠåĪĽ": 8274,
      "ç»¾": 8275,
      "èĬ±çº¹": 8276,
      "å¤įåį°": 8277,
      "îī¬": 8278,
      "å·¥ä¸ļåĵģ": 8279,
      "Ġé«ĺåİĭ": 8280,
      "èł": 8281,
      "å»ºåľ°": 8282,
      "ial": 8283,
      "è½¦ç§Łèµģ": 8284,
      "æł·æľº": 8285,
      "Ġå¤§åŀĭ": 8286,
      "å»ºè®¾æľīéĻĲåħ¬åı¸": 8287,
      "æĭĽçīĮ": 8288,
      "æ¢Ń": 8289,
      "å¤§æ°Ķ": 8290,
      "èŀºéĴī": 8291,
      "å¢ŀå¼º": 8292,
      "æŁļ": 8293,
      "è¡£å¸½": 8294,
      "ç¨İåĬ¡": 8295,
      "èĬ±å²Ĺå²©": 8296,
      "èĦĬ": 8297,
      "ä»¥åıĬ": 8298,
      "åłµæ¼ı": 8299,
      "Ġéķ¿æ²Ļ": 8300,
      "å¿ħå¤ĩ": 8301,
      "åĮĢ": 8302,
      "å¤įåĲĪç®¡": 8303,
      "é¥º": 8304,
      "å£®": 8305,
      "åĽĽæŁ±": 8306,
      "åĩĨå¤ĩ": 8307,
      "sg": 8308,
      "å¡ĳéĴ¢": 8309,
      "é«ĺæīĭ": 8310,
      "éĽ¨æ£ļ": 8311,
      "Ġå®¶å±ħ": 8312,
      "éĹ¨ç¥¨": 8313,
      "ç´«å¤ĸçº¿": 8314,
      "æįŀ": 8315,
      "éĤ®ç¼ĸ": 8316,
      "åĴĸåķ¡æľº": 8317,
      "éĹ¨æĪ·": 8318,
      "ical": 8319,
      "èĭıå·ŀå¸Ĥ": 8320,
      "èĶļ": 8321,
      "èĥĸ": 8322,
      "ä¸ĩç§ĳ": 8323,
      "åıĳéħµ": 8324,
      "ä¸Ģåĵģ": 8325,
      "]-": 8326,
      "ä¿®è¡¥": 8327,
      "è¿ĩç¨ĭ": 8328,
      "åįİäºº": 8329,
      "åŀĥåľ¾è½¦": 8330,
      "æĭįåĵģ": 8331,
      "æļĤæĹ¶": 8332,
      "æĪĲåĳĺ": 8333,
      "å½¢å¼ı": 8334,
      "Ġç½ĳç«Ļå»ºè®¾": 8335,
      "èĩĤå¼ı": 8336,
      "Ġåħ¨èĩªåĬ¨": 8337,
      "å·©": 8338,
      "æĹłå¿§": 8339,
      "è¯Ħæµĭ": 8340,
      "cw": 8341,
      "Ġæľīæľº": 8342,
      "å¹½": 8343,
      "å·¥æľį": 8344,
      ")ãĢĲ": 8345,
      "éľ²èĲ¥": 8346,
      "dx": 8347,
      "ash": 8348,
      "cnc": 8349,
      "éĺĶ": 8350,
      "åľ°çĲĥ": 8351,
      "å£°åĻ¨": 8352,
      "æµªæ¼«": 8353,
      "ument": 8354,
      "hj": 8355,
      "éĺ²èħĲéĴ¢ç®¡": 8356,
      "èİ·åıĸ": 8357,
      "ĠäºĶéĩĳ": 8358,
      "åĢĻè½¦": 8359,
      "èĩªå·±": 8360,
      "éĵľéĹ¨": 8361,
      "é»ĳçĻ½": 8362,
      "æĳĨä»¶": 8363,
      "è®°å½ķä»ª": 8364,
      "Ġå°ıåŀĭ": 8365,
      "--------": 8366,
      "»çĻ": 8367,
      "Ġå¸¸å·ŀ": 8368,
      "äº®åĮĸå·¥ç¨ĭ": 8369,
      "éĩĩæł·": 8370,
      "éķ¿æľŁ": 8371,
      "åĲĪæł¼": 8372,
      "Ġ32": 8373,
      "æ´Ĺæīĭ": 8374,
      "Ġåıª": 8375,
      "Ġä¸ªäºº": 8376,
      "åĢŁéĴ±": 8377,
      "æºĲçłģ": 8378,
      "ç©ºå¿ĥ": 8379,
      "æ°´è½¦": 8380,
      "åĪĢåħ·": 8381,
      "ek": 8382,
      "ç²¾åĩĨ": 8383,
      "å¤§åŃ¦çĶŁ": 8384,
      "æĶ¶å½ķæĥħåĨµ": 8385,
      "Ġèīºæľ¯": 8386,
      "å¡ĳèĥ¶æľīéĻĲåħ¬åı¸": 8387,
      "Ġåģ¥åº·": 8388,
      "mmæŀģé»ıéĵľçīĪè´´": 8389,
      "Ġå·¥ä½ľ": 8390,
      "éĶĨ": 8391,
      "å®¶æĹı": 8392,
      "èŀºæĹĭéĴ¢ç®¡": 8393,
      "pf": 8394,
      "gu": 8395,
      "æĿ¡æ¬¾": 8396,
      "åĳİ": 8397,
      "çį": 8398,
      "åŃļ": 8399,
      "çĥŃéķĢéĶĮ": 8400,
      "èģĮç§°": 8401,
      "å¤©çªĹ": 8402,
      "å¥ĸåĬ±": 8403,
      "å¯ĨéĽĨæŀ¶": 8404,
      "çĻĮ": 8405,
      "æĿ¡çº¹": 8406,
      "à¨Ģ": 8407,
      "è´¾": 8408,
      "Ġdo": 8409,
      "ç¦»å¿ĥé£İæľº": 8410,
      "ä¸ŃåİŁ": 8411,
      "Ġæĸ¹": 8412,
      "ä¸įéĶĪéĴ¢æ°´ç®±": 8413,
      "ç½ĳæŀ¶": 8414,
      "å·¥ä¸ļåĽŃ": 8415,
      "åįĹåĮº": 8416,
      "è¢ģ": 8417,
      "åħ´è¶£": 8418,
      "é£ŀè¡Į": 8419,
      "ä¸¾åĬŀ": 8420,
      "å½¼": 8421,
      "åĨĽäºĭ": 8422,
      "bf": 8423,
      "ä¿¡åı·çģ¯": 8424,
      "è¥¿è·¯": 8425,
      "ä¼ļéķ¿": 8426,
      "ç¥º": 8427,
      "èŀįèµĦ": 8428,
      "å¢©": 8429,
      "å¼±": 8430,
      "æĮĩçº¹": 8431,
      "æ²³åİ¿": 8432,
      "æ¬¢ä¹Ĳ": 8433,
      "ĠåİĤåķĨ": 8434,
      "åįĵè¶Ĭ": 8435,
      "çº¿æĿŁ": 8436,
      "è§¦æĳ¸å±ı": 8437,
      "âĶĢ": 8438,
      "ç²¾å·¥": 8439,
      "æ§Ł": 8440,
      "ĠåİĤå®¶": 8441,
      "Ġå®¤åĨħ": 8442,
      "åĭ¾": 8443,
      "çİ¯ä¿Ŀè®¾å¤ĩ": 8444,
      "èŀºæĿĨå¼ı": 8445,
      "Ġè¯Ħä»·": 8446,
      "hw": 8447,
      "è¡¥åħħ": 8448,
      "åĴĮè¯įåħ¸": 8449,
      "qx": 8450,
      "æ·±åº¦": 8451,
      "é©±åĬ¨ä¸ĭè½½æİĴè¡Į": 8452,
      "ä¾ĭåı¥åĴĮè¯įåħ¸": 8453,
      "Ġå¹¿åĳĬ": 8454,
      "åŀĽ": 8455,
      "ä¾ĭåı¥åĴĮè¯įåħ¸æĶ¶å½ķæĥħåĨµ": 8456,
      "åĪ¤": 8457,
      "å§Ŀ": 8458,
      "ä¸įåĲĮ": 8459,
      "Ġå¸¦": 8460,
      "åĤ¨çī©": 8461,
      "];": 8462,
      "åĨ³èµĽ": 8463,
      "è±ĨèħĲ": 8464,
      "ç¬¬åħ«": 8465,
      "ĠåĮ»çĸĹ": 8466,
      "è¢ĭå¼ı": 8467,
      "ç¼ĵåĨ²": 8468,
      "Ġéĩįè®¾": 8469,
      "ä¿Ĺ": 8470,
      "èµĦéĩĳ": 8471,
      "ĠãĢĮ": 8472,
      "Ġ1000": 8473,
      "è®¾æĸ½æľīéĻĲåħ¬åı¸": 8474,
      "çĴĥ": 8475,
      "åµĮåħ¥å¼ı": 8476,
      "éĴ»åŃĶ": 8477,
      "çħ§æĺİæľīéĻĲåħ¬åı¸": 8478,
      "170": 8479,
      "åī¥": 8480,
      "åĪĨä½ĵ": 8481,
      "Ġair": 8482,
      "çº¿ä¸Ĭçľĭ": 8483,
      "jw": 8484,
      "Ã¡": 8485,
      "ary": 8486,
      "Ġæ¸©å·ŀ": 8487,
      "çºªå¿µ": 8488,
      "åĮĹè·¯": 8489,
      "æİ¥å¾ħ": 8490,
      "ä¸Ńç©ºæĿ¿": 8491,
      "åĩºåİĤ": 8492,
      "ÑĨ": 8493,
      "ãĥ©": 8494,
      "æ¸©å·ŀå¸Ĥ": 8495,
      "é¡»çŁ¥": 8496,
      "å®īç¦ı": 8497,
      "ä¸Ģå¹´": 8498,
      "äº§åĵģç±»åĪ«": 8499,
      "Ġæĸ°ç«¹": 8500,
      "äºĴæĦŁåĻ¨": 8501,
      "ä¼ģä¸ļèį£èªī": 8502,
      "è¯Ŀé¢ĺ": 8503,
      "ious": 8504,
      "è¿ªå£«": 8505,
      "Ġ150": 8506,
      "å±ķåı°æĲŃå»ºè®¾è®¡": 8507,
      "ä¼ļé¦Ĩ": 8508,
      "Ġä¸ľæĸ¹": 8509,
      "æ³¨å¡ĳæľº": 8510,
      "æ³µä¸ļæľīéĻĲåħ¬åı¸": 8511,
      "æĢ»è®¡": 8512,
      "æīĭç»ĺ": 8513,
      "éĢıæ°´": 8514,
      "è¿ĺæ²¡æľī": 8515,
      "æ¹¿åº¦": 8516,
      "Ġç»¼åĲĪ": 8517,
      "æľĪæĬ¥": 8518,
      "çĽ¸çīĩ": 8519,
      "ĠæĹ¶éĹ´çŃĽéĢī": 8520,
      "str": 8521,
      "Ġä¸ĭåįĪ": 8522,
      "ç¾Ł": 8523,
      "Ġåį·": 8524,
      "yx": 8525,
      "åĪ«åħĭ": 8526,
      "è§£éĩĬ": 8527,
      "æ®¿": 8528,
      "åįİä¸º": 8529,
      "åĩĢæ°´": 8530,
      "å®¡è®¡": 8531,
      "è½¯è£ħ": 8532,
      "éĴ°": 8533,
      "çĶµåĬ¨èĳ«èĬ¦": 8534,
      "å¥¶èĮ¶": 8535,
      "éĻĢ": 8536,
      "å¤´æĿ¡": 8537,
      "ä¸Ģè§Īè¡¨": 8538,
      "Ġæ±Ł": 8539,
      "çĶ¨åľ°": 8540,
      "å°ıç»Ħ": 8541,
      "éľī": 8542,
      "äº®èĨľ": 8543,
      "Ġ120": 8544,
      "çĥŃçĨĶ": 8545,
      "ational": 8546,
      "Ġæ³¢": 8547,
      "Ġå©ļç¤¼": 8548,
      "èĪµ": 8549,
      "æľĭåıĭ": 8550,
      "æ¢µ": 8551,
      "å¯Ĩå°ģæĿ¡": 8552,
      "lb": 8553,
      "éĹ¨è¯Ĭ": 8554,
      "Ġè¿ĶåĽŀä¸Ĭä¸Ģçº§": 8555,
      "4000": 8556,
      "æ£ĴçĲĥ": 8557,
      "za": 8558,
      "åħĳ": 8559,
      "åľŃ": 8560,
      "kk": 8561,
      "åĮĹæĸ¹": 8562,
      "é¢ĦåĳĬ": 8563,
      "éĺ²å°ĺ": 8564,
      "çİ©ä¹Ĳ": 8565,
      "grc": 8566,
      "åįķéĿ¢": 8567,
      "èµıæŀĲ": 8568,
      "Ġîĭ": 8569,
      "Ġdisc": 8570,
      "åĤ¬åĮĸ": 8571,
      "zb": 8572,
      "å¸Ĥå¤©": 8573,
      "çĽ´æĴŃåĲ§": 8574,
      "æ°Ľ": 8575,
      "è½»éĴ¢åĪ«å¢ħ": 8576,
      "çİ»çĴĥéĹ¨": 8577,
      "æİ¢ç´¢": 8578,
      "yn": 8579,
      "çĲĨè®º": 8580,
      "tw": 8581,
      "åĪĥ": 8582,
      "æĸ°åħ´": 8583,
      "å¢ĻéĿ¢": 8584,
      "ĠåĨ·": 8585,
      "ĠåŁİå¸Ĥ": 8586,
      "çī©èµĦåĽŀæĶ¶": 8587,
      "æ¿Ģåħīæīĵ": 8588,
      "æĬĬæīĭ": 8589,
      "pd": 8590,
      "æ¢ĵ": 8591,
      "æ±Ģ": 8592,
      "ä½Ľå±±å¸Ĥé¡ºå¾·åĮº": 8593,
      "Ġæīĵ": 8594,
      "çłĶè®¨ä¼ļ": 8595,
      "gw": 8596,
      "çĶµåŃĲçīĪ": 8597,
      "å¤įä¹ł": 8598,
      "åŁºåĽł": 8599,
      "çº¢æĹĹ": 8600,
      "å®ľåħ°åİ¿": 8601,
      "çĪ¶": 8602,
      "åĸī": 8603,
      "121": 8604,
      "å°ıéķĩ": 8605,
      "Ġç²¾åĵģ": 8606,
      "Ġè¿ŀ": 8607,
      "ï¿½,": 8608,
      "æ¯¡": 8609,
      "Ġ29": 8610,
      "ä¸»æĿ¿": 8611,
      "è´§åı·": 8612,
      "èģļæ°¯ä¹Ļçĥ¯": 8613,
      "Ġå®¢": 8614,
      "å®ļåĪ¶åİĤå®¶": 8615,
      "æĩĪ": 8616,
      "ãĤ¤": 8617,
      "å»ºçŃĳæ¨¡æĿ¿": 8618,
      "åĩĢæ°´åĻ¨": 8619,
      "Ġåħ¬åı¸äº§åĵģ": 8620,
      "6000": 8621,
      "éķĤ": 8622,
      "own": 8623,
      "æķ´åĲĪ": 8624,
      "Ġä¸Ģå¯¹ä¸Ģå¿Ļçº¿ä¸Ń": 8625,
      "é«ĺä½İæ¸©": 8626,
      "åįģä¹Ŀ": 8627,
      "åĮħæĭ¬": 8628,
      "ãĥ§": 8629,
      "âĪ¼": 8630,
      "å¬": 8631,
      "aby": 8632,
      "çĳģ": 8633,
      "mv": 8634,
      "ä¿Ŀæ¹¿": 8635,
      "çīĩå¼ı": 8636,
      "å¤ĸè´¸": 8637,
      "Ġpdf": 8638,
      "å¯Įå£«": 8639,
      "æ¶Ĥå±Ĥ": 8640,
      "ogle": 8641,
      "æľŁè´§æľŁæĿĥ": 8642,
      "ĠéĢļ": 8643,
      "ï¿½ï¿½ï¿½ï¿½ï¿½ï¿½ï¿½ï¿½ï¿½ï¿½": 8644,
      "è°ĥçłĶ": 8645,
      "è¡¨æ¼Ķä¸Ń": 8646,
      "Ġå¯¹": 8647,
      "åįļè§Īä¼ļ": 8648,
      "å¸ĪåĤħ": 8649,
      "ä¿ĿåĪ©": 8650,
      "æĬ¤èĤ¤": 8651,
      "èĳ¡èĲĦéħĴ": 8652,
      "éĤª": 8653,
      "æĬķåħīçģ¯": 8654,
      "çİ°åľ¨ä½įç½®": 8655,
      "2005": 8656,
      "èį¤": 8657,
      "äºĪ": 8658,
      "æ´»åĬ¨æĿ¿æĪ¿": 8659,
      "Ġæĸ°éĹ»èµĦè®¯": 8660,
      "é¼łæłĩ": 8661,
      "Ġéĺ²æ°´": 8662,
      "æ±ĤèģĮ": 8663,
      "çľŁçļ®": 8664,
      "Ġä¸ľåįĹé£İ": 8665,
      "è¿ªå£«å°¼": 8666,
      "Ġç¾İé£Ł": 8667,
      "Ġå½ķåħ¥æĹ¶éĹ´": 8668,
      "Ġèĩ³": 8669,
      "ä¼ļè®®çºªå½ķ": 8670,
      "åĢºåĪ¸": 8671,
      "éºĴ": 8672,
      "åĤ¬åĮĸåīĤ": 8673,
      "Ñħ": 8674,
      "ont": 8675,
      "ç§ģäºº": 8676,
      "é£İåı£": 8677,
      "aåŀĭ": 8678,
      "èĥ½éĩı": 8679,
      "åĲįå¸Ī": 8680,
      "ç¬¬äºĮåŃ£": 8681,
      "çĶĦ": 8682,
      "èĪĮ": 8683,
      "çħ²": 8684,
      "ä¸ĵé¡¹": 8685,
      "Ģæ°": 8686,
      "Ġwe": 8687,
      "åįķè¯į": 8688,
      "007": 8689,
      "ä¸»è½´": 8690,
      "åįķå±Ĥ": 8691,
      "ĠçłĶç©¶": 8692,
      "008": 8693,
      "zl": 8694,
      "åºĨåħ¸": 8695,
      "ä»»åĬ¡": 8696,
      "è·¯çĶ±": 8697,
      "ze": 8698,
      "Ġwh": 8699,
      "çĥŃè½§": 8700,
      "æľ´": 8701,
      "pcb": 8702,
      "è£ħè½½": 8703,
      "ä¸Ńå°ıåŃ¦": 8704,
      "æĭ¼æİ¥å±ı": 8705,
      "è¶£éĺģ": 8706,
      "_ãĢĲ": 8707,
      "ç®Ģæ¬§": 8708,
      "ata": 8709,
      "ç»ĦåĲĪå¼ı": 8710,
      "å¤§å·´": 8711,
      "èŃ¦å¯Ł": 8712,
      "Ġæ±Łè¥¿": 8713,
      "å¥ķ": 8714,
      "åħ¨ç«Ļ": 8715,
      "åĿ¯": 8716,
      "Ġèĭ±æĸĩ": 8717,
      "ï¿½:": 8718,
      "è½¬æį¢åĻ¨": 8719,
      "çłĶä¹ł": 8720,
      "æ±¡æ³¥": 8721,
      "åĤ¨åŃĺ": 8722,
      "é¡µæķ°": 8723,
      "éĵ¸éĵĿ": 8724,
      "jc": 8725,
      "ä¸Ĭæµ·å±ķåı°æĲŃå»ºè®¾è®¡": 8726,
      "æµ·å²¸": 8727,
      "å±ıä¸ľåİ¿": 8728,
      "æĹłæľº": 8729,
      "æľ¨æĿĲ": 8730,
      "åİļæĿ¿": 8731,
      "Ġä¸»ç¼ĸ": 8732,
      "bv": 8733,
      "udio": 8734,
      "ans": 8735,
      "å®¶éķ¿": 8736,
      "kr": 8737,
      "å®īåħ¨çĶŁäº§": 8738,
      "è¡¥æ¼ı": 8739,
      "ult": 8740,
      "æ¯ķä¸ļçĶŁ": 8741,
      "Ġè¡¨": 8742,
      "Ġå¸ĪèµĦ": 8743,
      "æĸĭ": 8744,
      "å¦ĤæĦı": 8745,
      "çº¢èĮ¶": 8746,
      "éĽķåĪ»æľº": 8747,
      "ìĹ": 8748,
      "ä¸Ĭæŀ¶": 8749,
      "çĶŁåĮĸ": 8750,
      "mx": 8751,
      "åŃ¦å¹´åº¦ç¬¬": 8752,
      "jg": 8753,
      "çŁ½èĥ¶": 8754,
      "æ¥Ĥ": 8755,
      "æľºæŁľ": 8756,
      "æĤ¨æīĢåľ¨ä½įç½®": 8757,
      "ye": 8758,
      "jr": 8759,
      "åĲĪå½±": 8760,
      "æĸĮ": 8761,
      "Ġä¸»é¢ĺ": 8762,
      "psd": 8763,
      "ĠçĤ¹åĩ»æ¬¡æķ°": 8764,
      "åį«çĶŁçº§": 8765,
      "ç¢³åĮĸ": 8766,
      "çº¿æĿĲ": 8767,
      "Ġä¸ªäº§åĵģ": 8768,
      "ä¼ļè®®æ¡Į": 8769,
      "éĵģçļ®": 8770,
      "Ġç²¤": 8771,
      "åıĺçĶµç«Ļ": 8772,
      "ä¸Ńæĸĩç½ĳ": 8773,
      "Ġæĭī": 8774,
      "Ġå¾·åĽ½": 8775,
      "èį£èĢĢ": 8776,
      "å±ĭéĿ¢": 8777,
      "æ³µä¸ļ": 8778,
      "æº¶æ¶²": 8779,
      "Ġfo": 8780,
      "å¡ĳä¸ļæľīéĻĲåħ¬åı¸": 8781,
      "æĲĢ": 8782,
      "äº§ä¸ļåĽŃ": 8783,
      "qc": 8784,
      "æĬĹèıĮ": 8785,
      "èĴ¸æ±½åıĳçĶŁåĻ¨": 8786,
      "åħ¬æīĢ": 8787,
      "Ġsear": 8788,
      "æ´Ĺç¢Ĺ": 8789,
      "éĩī": 8790,
      "åĩ¹": 8791,
      "ä¸Ńå¤§": 8792,
      "èīºæľ¯åĵģæĭįåįĸ": 8793,
      "å¼ĢæĪ·": 8794,
      "Ġstreet": 8795,
      "èıģ": 8796,
      "çĥĽ": 8797,
      "ãĢģï¿½": 8798,
      "èĴľ": 8799,
      "ä¸´åºĬ": 8800,
      "é¥®åĵģ": 8801,
      "10000": 8802,
      "éĵ¶æ²³": 8803,
      "éĴ¢æŀĦ": 8804,
      "ĠåĲĪä½ľä¼Ļä¼´": 8805,
      "çĶµåĬłçĥŃ": 8806,
      "yw": 8807,
      "éļĲèĹı": 8808,
      "å°ıç¨ĭåºı": 8809,
      "èĲ¤å¹ķ": 8810,
      "æĭ¥": 8811,
      "èĴ¸åıĳåĻ¨": 8812,
      "ç«£å·¥": 8813,
      "æŁĳ": 8814,
      "å¤ļçº§": 8815,
      "Ġ2008": 8816,
      "èķ¾ä¸Ŀ": 8817,
      "å°±æĺ¯": 8818,
      "æĹłæ³ķ": 8819,
      "èĦļè¸ı": 8820,
      "æī¾ä¸įåĪ°": 8821,
      "çĶ²éħ¸": 8822,
      "ç®¡å®¶": 8823,
      "ä¸Ĭé¡µ": 8824,
      "çŃ¹": 8825,
      "èį¯ä¸ļ": 8826,
      "Ġå®ŀéªĮå®¤": 8827,
      "jh": 8828,
      "ĠåıĳéŁ³": 8829,
      "bw": 8830,
      "æ¾³å¤§åĪ©": 8831,
      "çīĽå¥¶": 8832,
      "ä¸įåĲ«": 8833,
      "Ġ90": 8834,
      "èĮĥæĸĩ": 8835,
      "ä¸Ńæłĩ": 8836,
      "20210": 8837,
      "fu": 8838,
      "æĿ¿åĿĹ": 8839,
      "Ġè¡Ĺ": 8840,
      "èµĦæł¼è¯ģ": 8841,
      "345": 8842,
      "Ġåıĳè¡¨": 8843,
      "æ°´åİ¿": 8844,
      "ç®¡çĲĨ": 8845,
      "éĥģ": 8846,
      "æ°Ķæ³¡": 8847,
      "åĴĮè®¯ç½ĳ": 8848,
      "ater": 8849,
      "å¥Ĺä»¶": 8850,
      "åıĬéħįä»¶": 8851,
      "ĠæĺŁæľŁ": 8852,
      "éĶŃ": 8853,
      "æ¡¦": 8854,
      "Ġå®¶çĶ¨": 8855,
      "æ¸¯åĮº": 8856,
      "Ġå¨ģ": 8857,
      "é©¿": 8858,
      "Ġkb": 8859,
      "ç»¯": 8860,
      "èĴ²": 8861,
      "æĳĦåĥıå¤´": 8862,
      "æ¾³å¤§åĪ©äºļ": 8863,
      "ç¤¼ä»ª": 8864,
      "ç¡¬è´¨": 8865,
      "lc": 8866,
      "åĪĳ": 8867,
      "é©¬æĭī": 8868,
      "Ġåħ¨åľº": 8869,
      "ĠæľĢåĲİä¸Ģé¡µ": 8870,
      "åı°è½¦": 8871,
      "ä¸ªäº§åĵģ": 8872,
      "åĬłæĭ¿å¤§": 8873,
      "é¸½": 8874,
      "ĠåĨľ": 8875,
      "åĽºåĮĸ": 8876,
      "ç£¨åºĬ": 8877,
      "çģ«è½¦ç¥¨": 8878,
      "åºŃéĻ¢çģ¯": 8879,
      "ä¹¦åºĵ": 8880,
      "åĮħè£ħç®±": 8881,
      "çº¬": 8882,
      "å¤§å¥ĸ": 8883,
      "æĸ°æĪ¿": 8884,
      "çļĩå®¶": 8885,
      "é¢Ħè´Ń": 8886,
      "æĬĢæľ¯åıĤæķ°": 8887,
      "Ġam": 8888,
      "Ġîĺ": 8889,
      "æĪĲå±ĭ": 8890,
      "èĩªä¸»": 8891,
      "èĭĹæłĹåİ¿": 8892,
      "ob": 8893,
      "å½ķéŁ³": 8894,
      "èĴ¸æ±½éĶħçĤī": 8895,
      "Ġæŀģ": 8896,
      "Ġç¦ıå·ŀ": 8897,
      "Ġé¤Ĳ": 8898,
      "å±ıä¸ľ": 8899,
      "Ġæł¼å¼ı": 8900,
      "æŃ£åĵģ": 8901,
      "è¿Ŀ": 8902,
      "åĩ¸": 8903,
      "å¹³åĿĩ": 8904,
      "ize": 8905,
      "æĹħæ¸¸æĻ¯çĤ¹": 8906,
      "æİ¥åľ°": 8907,
      "æ»ķ": 8908,
      "èį§åħī": 8909,
      "æĿŃå·ŀå¸Ĥ": 8910,
      "è½¬åį°": 8911,
      "éĿ¢è¯ķ": 8912,
      "erv": 8913,
      "å»ºçŃĳè£ħé¥°å·¥ç¨ĭæľīéĻĲåħ¬åı¸": 8914,
      "?_": 8915,
      "ĠèĢĲ": 8916,
      "æľºæ²¹": 8917,
      "æĬĺå¼¯æľº": 8918,
      "æ°§åŁº": 8919,
      "âĢķâĢķ": 8920,
      "æĹ¶æķĪ": 8921,
      "ç¤¾ä¼ļè´£ä»»": 8922,
      "è®¡æķ°": 8923,
      "éĩĩéĽĨ": 8924,
      "è´¥": 8925,
      "ç¢³ç²ī": 8926,
      "Ġæĺĵ": 8927,
      "æķĻæ¡Ī": 8928,
      "ri": 8929,
      "åĽŃæŀĹç»¿åĮĸ": 8930,
      "æ¡ģ": 8931,
      "åįķæľº": 8932,
      "ç²īå°ĺ": 8933,
      "å¼§å½¢": 8934,
      "æ·ĳ": 8935,
      "ï¿½ï¿½-": 8936,
      "ä¹ĭåīį": 8937,
      "åŃ¦éĩĳ": 8938,
      "çŁ¥éģĵ": 8939,
      "è¡¥åģ¿åĻ¨": 8940,
      "æĺ±": 8941,
      "ç§ĳæĻ®": 8942,
      "ins": 8943,
      "æĹłäºº": 8944,
      "ç²¾ç»Ĩ": 8945,
      "æİ¨æĭīéĹ¨": 8946,
      "Ġæķ°éĩı": 8947,
      "é¦ĸå¸Ń": 8948,
      "è¾©": 8949,
      "Ġä½ĵèĤ²": 8950,
      "ç«ĸ": 8951,
      "ãĥĥ": 8952,
      "é£İæ·ĭå®¤": 8953,
      "cåŀĭ": 8954,
      "Ġç¥ŀ": 8955,
      "ä½İä»·": 8956,
      "Ġid": 8957,
      "ĠæŁ¥è¯¢ä»·æł¼": 8958,
      "æŁ±å¡ŀ": 8959,
      "æĬĽåħīæľº": 8960,
      "380": 8961,
      "æ¸ħçĲĨ": 8962,
      "å¹´åįİ": 8963,
      "å»ºçŃĳéĿ¢ç§¯": 8964,
      "Ġãĥ": 8965,
      "è®¤å®ļ": 8966,
      "ç»®": 8967,
      "é«ĺå±Ĥ": 8968,
      "èĭ¯åŁº": 8969,
      "é¡ºåĪ©": 8970,
      "åĦ¿ç«¥æĪ¿": 8971,
      "è®¡åĪĴä¹¦": 8972,
      "è§ĤéŁ³": 8973,
      "è¯ģæĺİ": 8974,
      "ãĦ¨": 8975,
      "ance": 8976,
      "ĠæĺĨæĺİ": 8977,
      "uthor": 8978,
      "æĭ¾": 8979,
      "æĪĳåħ¬åı¸": 8980,
      "ä¿¡çĶ¨åį¡": 8981,
      "åħįè´¹ä¸ĭè½½": 8982,
      "lx": 8983,
      "Ġes": 8984,
      "310": 8985,
      "æĥħä¾£": 8986,
      "åıĹèµł": 8987,
      "äº§åĵģè¯´æĺİ": 8988,
      "åĳĪ": 8989,
      "åĢĻè½¦äºŃ": 8990,
      "Ġ27": 8991,
      "ä»£åĬŀ": 8992,
      "èıł": 8993,
      "éĵĿä¸ļæľīéĻĲåħ¬åı¸": 8994,
      "ç»ĵåĲĪ": 8995,
      "åĨĻä½ľ": 8996,
      "ĠçĻ»å½ķ": 8997,
      "äºĴèģĶ": 8998,
      "ĠæŃ¦": 8999,
      "éĺ¶æ®µ": 9000,
      "æĸ¹åŀĭ": 9001,
      "éĻįæ°´": 9002,
      "ï¹": 9003,
      "ä¸Ģæ®µ": 9004,
      "éĢıå¤©": 9005,
      "æ¸©æİ§": 9006,
      "-[": 9007,
      "åĽŃåľ°": 9008,
      "æ¸¸æ³³": 9009,
      "çŃīç¦»åŃĲ": 9010,
      "å¼ĢåĲ¯": 9011,
      "å¹´çº§ä¸ĬåĨĮ": 9012,
      "æº¢": 9013,
      "è£ħé¥°å·¥ç¨ĭ": 9014,
      "æ³¡æ³¡": 9015,
      "Ġç©ºæ°Ķ": 9016,
      "mf": 9017,
      "Ġæ°ĶåĬ¨": 9018,
      "yc": 9019,
      "ä¸īåħĥ": 9020,
      "æĸĩç«łåĪĹè¡¨": 9021,
      "äººæķĻçīĪ": 9022,
      "æ»¤æ²¹æľº": 9023,
      "åĬ³åĬ¡": 9024,
      "æ¼ĶåĶ±": 9025,
      "ĠåĵĪå°Ķæ»¨": 9026,
      "é£ŀæľº": 9027,
      "å®ľå®¶": 9028,
      "äºĮæ®µ": 9029,
      "Ġè±ªåįİ": 9030,
      "æ¡ĥèĬ±": 9031,
      "Ġç¦»çº¿": 9032,
      "åħ¬ä¼Ĺ": 9033,
      "äºļæ³°éĽĨåĽ¢": 9034,
      "é£İéĻ©": 9035,
      "next": 9036,
      "Ġç´«": 9037,
      "Ġå¾®ä¿¡": 9038,
      "cæ¢°æľīéĻĲåħ¬åı¸": 9039,
      "æī®": 9040,
      "è¯ģåĪ¸æĬķèµĦ": 9041,
      "æĸĩèīº": 9042,
      "å±±åºĦ": 9043,
      "Ġå½±éŁ³": 9044,
      "å¤ªç©º": 9045,
      "wor": 9046,
      "åİĤå®¶ä»·æł¼": 9047,
      "é«ĺæĸ°åĮº": 9048,
      "å®ļéĩı": 9049,
      "è§Ĥåħīè½¦": 9050,
      "æĤ¨éĢīæĭ©": 9051,
      "pz": 9052,
      "æĸ°æīĭ": 9053,
      "åĽ½äº§": 9054,
      "å·´è¥¿": 9055,
      "Ľ±": 9056,
      "èĬ±ç®±": 9057,
      "è½¦çĶ¨": 9058,
      "åľŁæľ¨": 9059,
      "æµ·è¿Ĳ": 9060,
      "æı¡": 9061,
      "èĬĭ": 9062,
      "áŀ": 9063,
      "Ġå¹¿": 9064,
      "hdpe": 9065,
      "çķĶ": 9066,
      "çī©åĵģ": 9067,
      "åħīæĺİ": 9068,
      "Ġæ¥¼": 9069,
      "æĲŀ": 9070,
      "å·²ç»ĵæĿŁ": 9071,
      "è¿ĶåĽŀé¦ĸé¡µ": 9072,
      "vt": 9073,
      "ĠéĻķè¥¿": 9074,
      "ï¿½?": 9075,
      "çłģå¤´": 9076,
      "ĠéĽħ": 9077,
      "éķ¿æ±Ł": 9078,
      "æ³°å±±": 9079,
      "è¿ĲåĬ¨ä¼ļ": 9080,
      "æ¢¦æĥ³": 9081,
      "æĿ¿å¼ıæį¢çĥŃåĻ¨": 9082,
      "åİĤè²Į": 9083,
      "ç¡Ĵ": 9084,
      "åºĶçĶ¨é¢ĨåŁŁ": 9085,
      "åĬ©åīĤ": 9086,
      "ĠåĽ½ç«ĭ": 9087,
      "è·ĳæŃ¥": 9088,
      "ĠâĪ¼": 9089,
      "Ġèµ°è¿Ľ": 9090,
      "å®ŀçĶ¨æĸ°åŀĭ": 9091,
      "922": 9092,
      "åıĹèµłæĶ¶åħ¥": 9093,
      "ä¿Ŀæ¸©æĿĲæĸĻ": 9094,
      "ens": 9095,
      "è¯Ĺè¯į": 9096,
      "uf": 9097,
      "æĶ¯æı´": 9098,
      "oo": 9099,
      "å®¡æł¸": 9100,
      "Â²": 9101,
      "å°ģè£ħ": 9102,
      "æ°©": 9103,
      "Ġçľĭ": 9104,
      "æ¾İæ¹ĸ": 9105,
      "nh": 9106,
      "å·¥ä¸ļåĽŃåĮº": 9107,
      "Ġç¡¬": 9108,
      "è§¦æİ§": 9109,
      "ç¯Ĩ": 9110,
      "èŀºæĹĭè¾ĵéĢģæľº": 9111,
      "ç²¾æ²¹": 9112,
      "æł·æĿ¿éĹ´": 9113,
      "010": 9114,
      "cg": 9115,
      "åĢĴè½¦": 9116,
      "æĬĳ": 9117,
      "ä¿ĿæĬ¤åĻ¨": 9118,
      "å¨±": 9119,
      "åĲİåı°": 9120,
      "Ġè¿Ľåı£": 9121,
      "çĶµè§£": 9122,
      "æĪĲè¯Ń": 9123,
      "çĽ¸åħ³äº§åĵģ": 9124,
      "æĪĲå¥Ĺè®¾å¤ĩ": 9125,
      "ĠèģĶ": 9126,
      "çĲĨå·¥å¤§åŃ¦": 9127,
      "ĠåķĨåĬ¡": 9128,
      "202": 9129,
      "æĬ¥å¯¼": 9130,
      "éħįåĻ¨": 9131,
      "æľªçŁ¥": 9132,
      "éŁ©å¼ı": 9133,
      "è¦ĨèĨľ": 9134,
      "çĶµçĵ¶": 9135,
      "æ°´æ§½": 9136,
      "ç½ĳçº¢": 9137,
      "èĢ¶": 9138,
      "ä¹¦éĻ¢": 9139,
      "ä¹¦çĶ»": 9140,
      "çİ¯æ°§æłĳèĦĤ": 9141,
      "ä¸ĩåħ¬éĩĮ": 9142,
      "è§£æĶ¾": 9143,
      "åĮ»çĸĹåĻ¨æ¢°æľīéĻĲåħ¬åı¸": 9144,
      "ih": 9145,
      "rf": 9146,
      "Ġçĩĥ": 9147,
      "ãĢĶ": 9148,
      "å¼¥": 9149,
      "åŃ¦æĬ¥": 9150,
      "åħ¨æ°ĳ": 9151,
      "åİĭåĬĽåıĺéĢģåĻ¨": 9152,
      "äºļæ³°éĽĨåĽ¢äºļæ³°éĽĨåĽ¢": 9153,
      "ron": 9154,
      "ĠéŁ©è¯Ń": 9155,
      "dg": 9156,
      "æµ¦ä¸ľ": 9157,
      "Ġdiscuz": 9158,
      "éķĤç©º": 9159,
      "æĸ½å·¥æ¡Īä¾ĭ": 9160,
      "éķľéĿ¢": 9161,
      "èģª": 9162,
      "ä¹īå¤§åĪ©": 9163,
      "åŁºéĩĳåıĹèµłæĶ¶åħ¥": 9164,
      "æĮ¥": 9165,
      "ç£·éħ¸": 9166,
      "èĢģå¹´": 9167,
      "åįİå¤ı": 9168,
      "å»ºè®¾é¡¹çĽ®": 9169,
      "æł¼æĿ¿": 9170,
      "èĬ±åºĹ": 9171,
      "ãģĦ": 9172,
      "Ġå¤©çĦ¶": 9173,
      "plc": 9174,
      "èĺĳ": 9175,
      "åħ³èĬĤ": 9176,
      "æĮīéĴ®": 9177,
      "æ¯įçº¿æ§½": 9178,
      "å¸ĤéĽĨ": 9179,
      "ç»Łä¸Ģ": 9180,
      "æł¸æ¡ĥ": 9181,
      "éŁ³æķĪ": 9182,
      "èĬ¥": 9183,
      "ä»ĵåĤ¨è´§æŀ¶": 9184,
      "çĸ«æĥħ": 9185,
      "éĽģ": 9186,
      "ç¦§": 9187,
      "æ¿ĢåħīåĪĩåī²": 9188,
      "å¨Į": 9189,
      "æ©Ħ": 9190,
      "åŁ¹è®Ńç½ĳ": 9191,
      "è´Ńè½¦": 9192,
      "ĠåĪĹä¸º": 9193,
      "ĠåĪĹä¸ºåŁºéĩĳåıĹèµłæĶ¶åħ¥": 9194,
      "é£ŁæĿĲ": 9195,
      "å½ĵå½ĵ": 9196,
      "Ġâĺ": 9197,
      "ãĢķ": 9198,
      "æłĩå¿Ĺè®¾è®¡": 9199,
      "ĠãĢģ": 9200,
      "Ġ600": 9201,
      "çº¿æľº": 9202,
      ":(": 9203,
      "ä¸ĸå®¶": 9204,
      "><": 9205,
      "æĲºç¨ĭ": 9206,
      "ding": 9207,
      "ĠèĤ¡ç¥¨": 9208,
      "ĠåĪĻ": 9209,
      "å»ºå·¥ç¨ĭ": 9210,
      "ç¾Ĭæ¯Ľ": 9211,
      "enter": 9212,
      "kf": 9213,
      "åºĶåĬĽ": 9214,
      "åĮħè£ħæĿĲæĸĻæľīéĻĲåħ¬åı¸": 9215,
      "ä¹±": 9216,
      "æĴ°": 9217,
      "è®¾å¤ĩå®īè£ħ": 9218,
      "æ«": 9219,
      "Ġå¥ĩ": 9220,
      "è´ŀ": 9221,
      "åºĬå¤´": 9222,
      "æİĴæ°´ç®¡": 9223,
      "ez": 9224,
      "ìŀ": 9225,
      "åĶĩ": 9226,
      "æ£ĢéªĮæĬ¥åĳĬ": 9227,
      "Ġå®¶åħ·": 9228,
      "Ġåİ¨æĪ¿": 9229,
      "ľé£İ": 9230,
      "èħ»": 9231,
      "ubl": 9232,
      "ox": 9233,
      "ust": 9234,
      "éĵ¸éĴ¢": 9235,
      "åĴĮå¹³": 9236,
      "Ġç¯ĩ": 9237,
      "èĥ¶ç®¡": 9238,
      "åł¤": 9239,
      "çŁ©å½¢": 9240,
      "æĸ°éĹ»åĬ¨æĢģ": 9241,
      "æĭīæīĭ": 9242,
      "åıĺåĮĸ": 9243,
      "æķ£çĥŃ": 9244,
      "çĦĬæİ¥æľº": 9245,
      "ç³ĸæŀľ": 9246,
      "ä¼ª": 9247,
      "æĪĬ": 9248,
      "Ġmin": 9249,
      "Ġå¿ĥ": 9250,
      "åŃĺåľ¨": 9251,
      "æĬĽä¸¸": 9252,
      "ery": 9253,
      "qq": 9254,
      "éĸ": 9255,
      "â¼": 9256,
      "æīĺç¦ı": 9257,
      "çħ§æĺİç§ĳæĬĢæľīéĻĲåħ¬åı¸": 9258,
      "ku": 9259,
      "ja": 9260,
      "åı£è¯Ń": 9261,
      "ĠåĽŀå¤į": 9262,
      "Ġæĸ°åĮĹå¸Ĥ": 9263,
      "port": 9264,
      "ĠæķĻå¸Ī": 9265,
      "çĶ²éĨĩ": 9266,
      "ÑĦ": 9267,
      "]:": 9268,
      "ç®±åĮħ": 9269,
      "è£ħä¿®ç½ĳ": 9270,
      "å¢¨æ°´": 9271,
      "çī©èģĶç½ĳ": 9272,
      "å¤ĸè¯Ń": 9273,
      "çŁŃè£¤": 9274,
      "éĴ¢å¸¦": 9275,
      "å®¶ç§ģ": 9276,
      "åĪ°ä½İ": 9277,
      "æ··åĲĪæľº": 9278,
      "Ġç¡ħ": 9279,
      "ä½Ĩ": 9280,
      "åįļä¼ļ": 9281,
      "å¸Ĥæĸ°": 9282,
      "äººéĢł": 9283,
      "ĠåİĤæĪ¿": 9284,
      "èĦĨ": 9285,
      "èĢĥå¯Ł": 9286,
      "ç²®æ²¹": 9287,
      "åħ¬å¼ı": 9288,
      "ç¾½ç»Ĵ": 9289,
      "å®īåįĵ": 9290,
      "Ġchinese": 9291,
      "yt": 9292,
      "Ġç§ĳæĬĢ": 9293,
      "Ġç§ĳåŃ¦": 9294,
      "ĠåĶ®": 9295,
      "301": 9296,
      "115": 9297,
      "æİ§åĪ¶çĶµç¼Ĩ": 9298,
      "è´¡çĮ®": 9299,
      "å¤§è¡Ĺ": 9300,
      "bc": 9301,
      "ç»Ľ": 9302,
      "æĺŁçº§": 9303,
      "Ġå®¢æĪ·": 9304,
      "éĺ²éĽ·": 9305,
      "ĠåıĳéŁ³äºº": 9306,
      "èįĶæŀĿ": 9307,
      "éĺ²çĸ«": 9308,
      "æĸ¯åĿ¦": 9309,
      "åĨ·çĥŃ": 9310,
      "è¡£å¸½éĹ´": 9311,
      "æĤ¨éĢīæĭ©äºĨ": 9312,
      "é«ĺç§ĳ": 9313,
      "å¼Ģå¿ĥ": 9314,
      "èĤ¥æĸĻ": 9315,
      "260": 9316,
      "ĠçľŁç©º": 9317,
      "ç¶": 9318,
      "Ġç§Ĵ": 9319,
      "Ġword": 9320,
      "ict": 9321,
      "îĺĳ": 9322,
      "èİ¹": 9323,
      "ä¸įèĥ½": 9324,
      "çĳ¶": 9325,
      "åħīç¼Ĩ": 9326,
      "ìĿ´": 9327,
      "åĬ¨ä½ľ": 9328,
      "æ¡ģæŀ¶": 9329,
      "èĩªçĶ±è¡Į": 9330,
      "ä¼ļç¤¾": 9331,
      "ç¬¬ä¸ĢåŃ¦æľŁ": 9332,
      "åĬłæ°Ķ": 9333,
      "æłĸ": 9334,
      "009": 9335,
      "ĠæļĤæĹł": 9336,
      "æİĴæĶ¾": 9337,
      "éĺ³åĮº": 9338,
      "æĪ¿è½¦": 9339,
      "åĲĮåŁİ": 9340,
      "è®¾è®¡å¸Īæİ¨èįĲ": 9341,
      "åĪ°é«ĺ": 9342,
      "ï¿½~": 9343,
      "æĬ«": 9344,
      "èİ±æĸ¯": 9345,
      "ana": 9346,
      "ä¸ŃçŃī": 9347,
      "ifi": 9348,
      "åĪ¹è½¦": 9349,
      "ĠéĽª": 9350,
      "çĪ±æĥħ": 9351,
      "è¿ĲåĬ¨éŀĭ": 9352,
      "æµ·å°Ķ": 9353,
      "çŃ¾è¯ģ": 9354,
      "é©±åĬ¨åĻ¨": 9355,
      "åĪºç»£": 9356,
[...]
